{
  "version": "1.0",
  "truncation": null,
  "padding": {
    "strategy": {
      "Fixed": 512
    },
    "direction": "Right",
    "pad_to_multiple_of": null,
    "pad_id": 0,
    "pad_type_id": 0,
    "pad_token": "[PAD]"
  },
  "added_tokens": [
    {
      "id": 0,
      "content": "[PAD]",
      "single_word": false,
      "lstrip": false,
      "rstrip": false,
      "normalized": false,
      "special": true
    },
    {
      "id": 1,
      "content": "[UNK]",
      "single_word": false,
      "lstrip": false,
      "rstrip": false,
      "normalized": false,
      "special": true
    },
    {
      "id": 2,
      "content": "[CLS]",
      "single_word": false,
      "lstrip": false,
      "rstrip": false,
      "normalized": false,
      "special": true
    },
    {
      "id": 3,
      "content": "[SEP]",
      "single_word": false,
      "lstrip": false,
      "rstrip": false,
      "normalized": false,
      "special": true
    },
    {
      "id": 4,
      "content": "[MASK]",
      "single_word": false,
      "lstrip": false,
      "rstrip": false,
      "normalized": false,
      "special": true
    }
  ],
  "normalizer": null,
  "pre_tokenizer": {
    "type": "Whitespace"
  },
  "post_processor": {
    "type": "TemplateProcessing",
    "single": [
      {
        "SpecialToken": {
          "id": "[CLS]",
          "type_id": 0
        }
      },
      {
        "Sequence": {
          "id": "A",
          "type_id": 0
        }
      },
      {
        "SpecialToken": {
          "id": "[SEP]",
          "type_id": 0
        }
      }
    ],
    "pair": [
      {
        "SpecialToken": {
          "id": "[CLS]",
          "type_id": 0
        }
      },
      {
        "Sequence": {
          "id": "A",
          "type_id": 0
        }
      },
      {
        "SpecialToken": {
          "id": "[SEP]",
          "type_id": 0
        }
      },
      {
        "Sequence": {
          "id": "B",
          "type_id": 1
        }
      },
      {
        "SpecialToken": {
          "id": "[SEP]",
          "type_id": 1
        }
      }
    ],
    "special_tokens": {
      "[CLS]": {
        "id": "[CLS]",
        "ids": [
          2
        ],
        "tokens": [
          "[CLS]"
        ]
      },
      "[SEP]": {
        "id": "[SEP]",
        "ids": [
          3
        ],
        "tokens": [
          "[SEP]"
        ]
      }
    }
  },
  "decoder": null,
  "model": {
    "type": "BPE",
    "dropout": null,
    "unk_token": null,
    "continuing_subword_prefix": null,
    "end_of_word_suffix": null,
    "fuse_unk": false,
    "byte_fallback": false,
    "ignore_merges": false,
    "vocab": {
      "[PAD]": 0,
      "[UNK]": 1,
      "[CLS]": 2,
      "[SEP]": 3,
      "[MASK]": 4,
      "%": 5,
      "(": 6,
      ")": 7,
      "*": 8,
      "+": 9,
      ",": 10,
      "-": 11,
      ".": 12,
      "/": 13,
      "0": 14,
      "1": 15,
      "2": 16,
      "3": 17,
      "4": 18,
      "5": 19,
      "6": 20,
      "7": 21,
      "8": 22,
      "9": 23,
      ":": 24,
      "?": 25,
      "A": 26,
      "B": 27,
      "C": 28,
      "D": 29,
      "E": 30,
      "F": 31,
      "G": 32,
      "H": 33,
      "I": 34,
      "J": 35,
      "K": 36,
      "L": 37,
      "M": 38,
      "N": 39,
      "O": 40,
      "P": 41,
      "Q": 42,
      "R": 43,
      "S": 44,
      "T": 45,
      "U": 46,
      "V": 47,
      "W": 48,
      "X": 49,
      "Y": 50,
      "^": 51,
      "a": 52,
      "b": 53,
      "c": 54,
      "d": 55,
      "e": 56,
      "f": 57,
      "g": 58,
      "h": 59,
      "i": 60,
      "k": 61,
      "l": 62,
      "m": 63,
      "n": 64,
      "o": 65,
      "p": 66,
      "q": 67,
      "r": 68,
      "s": 69,
      "t": 70,
      "u": 71,
      "v": 72,
      "w": 73,
      "x": 74,
      "y": 75,
      "z": 76,
      "~": 77,
      "±": 78,
      "×": 79,
      "α": 80,
      "β": 81,
      "γ": 82,
      "μ": 83,
      "ω": 84,
      "—": 85,
      "“": 86,
      "”": 87,
      "℃": 88,
      "Ⅰ": 89,
      "Ⅱ": 90,
      "Ⅲ": 91,
      "Ⅳ": 92,
      "≥": 93,
      "、": 94,
      "。": 95,
      "一": 96,
      "丁": 97,
      "七": 98,
      "万": 99,
      "三": 100,
      "上": 101,
      "下": 102,
      "不": 103,
      "与": 104,
      "专": 105,
      "且": 106,
      "丘": 107,
      "丙": 108,
      "业": 109,
      "丛": 110,
      "东": 111,
      "丝": 112,
      "丢": 113,
      "两": 114,
      "严": 115,
      "丧": 116,
      "个": 117,
      "中": 118,
      "丰": 119,
      "串": 120,
      "临": 121,
      "丸": 122,
      "丹": 123,
      "为": 124,
      "主": 125,
      "举": 126,
      "久": 127,
      "么": 128,
      "义": 129,
      "之": 130,
      "乌": 131,
      "乎": 132,
      "乏": 133,
      "乐": 134,
      "乘": 135,
      "乙": 136,
      "九": 137,
      "也": 138,
      "习": 139,
      "书": 140,
      "买": 141,
      "乱": 142,
      "乳": 143,
      "了": 144,
      "予": 145,
      "争": 146,
      "事": 147,
      "二": 148,
      "于": 149,
      "亏": 150,
      "云": 151,
      "互": 152,
      "五": 153,
      "井": 154,
      "亚": 155,
      "些": 156,
      "亡": 157,
      "亢": 158,
      "交": 159,
      "产": 160,
      "享": 161,
      "亭": 162,
      "亮": 163,
      "亲": 164,
      "人": 165,
      "什": 166,
      "仁": 167,
      "仅": 168,
      "介": 169,
      "仍": 170,
      "从": 171,
      "仑": 172,
      "仔": 173,
      "他": 174,
      "付": 175,
      "仙": 176,
      "代": 177,
      "令": 178,
      "以": 179,
      "仪": 180,
      "们": 181,
      "仰": 182,
      "仲": 183,
      "件": 184,
      "价": 185,
      "任": 186,
      "份": 187,
      "伊": 188,
      "伍": 189,
      "伏": 190,
      "伐": 191,
      "休": 192,
      "众": 193,
      "优": 194,
      "会": 195,
      "伞": 196,
      "传": 197,
      "伤": 198,
      "伦": 199,
      "伪": 200,
      "伯": 201,
      "估": 202,
      "伴": 203,
      "伸": 204,
      "似": 205,
      "伽": 206,
      "但": 207,
      "位": 208,
      "低": 209,
      "住": 210,
      "佐": 211,
      "体": 212,
      "何": 213,
      "余": 214,
      "作": 215,
      "佝": 216,
      "佩": 217,
      "佳": 218,
      "使": 219,
      "例": 220,
      "侏": 221,
      "供": 222,
      "依": 223,
      "侣": 224,
      "侧": 225,
      "侵": 226,
      "便": 227,
      "促": 228,
      "保": 229,
      "俞": 230,
      "信": 231,
      "修": 232,
      "俯": 233,
      "倍": 234,
      "倒": 235,
      "候": 236,
      "倚": 237,
      "借": 238,
      "倡": 239,
      "倦": 240,
      "值": 241,
      "倾": 242,
      "假": 243,
      "偏": 244,
      "做": 245,
      "停": 246,
      "健": 247,
      "偶": 248,
      "偷": 249,
      "偻": 250,
      "偿": 251,
      "傍": 252,
      "储": 253,
      "催": 254,
      "像": 255,
      "僵": 256,
      "儒": 257,
      "儿": 258,
      "允": 259,
      "元": 260,
      "充": 261,
      "兆": 262,
      "先": 263,
      "光": 264,
      "克": 265,
      "免": 266,
      "兔": 267,
      "党": 268,
      "入": 269,
      "全": 270,
      "八": 271,
      "公": 272,
      "六": 273,
      "兰": 274,
      "共": 275,
      "关": 276,
      "兴": 277,
      "兵": 278,
      "其": 279,
      "具": 280,
      "典": 281,
      "养": 282,
      "兼": 283,
      "内": 284,
      "再": 285,
      "冒": 286,
      "冗": 287,
      "写": 288,
      "军": 289,
      "农": 290,
      "冠": 291,
      "冥": 292,
      "冬": 293,
      "冰": 294,
      "冲": 295,
      "决": 296,
      "况": 297,
      "冷": 298,
      "冻": 299,
      "净": 300,
      "准": 301,
      "凉": 302,
      "凋": 303,
      "凌": 304,
      "减": 305,
      "凝": 306,
      "几": 307,
      "凡": 308,
      "凤": 309,
      "凭": 310,
      "凯": 311,
      "凳": 312,
      "凶": 313,
      "凸": 314,
      "凹": 315,
      "出": 316,
      "击": 317,
      "刀": 318,
      "分": 319,
      "切": 320,
      "划": 321,
      "列": 322,
      "则": 323,
      "刚": 324,
      "创": 325,
      "初": 326,
      "判": 327,
      "刨": 328,
      "利": 329,
      "别": 330,
      "刮": 331,
      "到": 332,
      "制": 333,
      "刷": 334,
      "刺": 335,
      "刻": 336,
      "剂": 337,
      "剃": 338,
      "削": 339,
      "前": 340,
      "剑": 341,
      "剔": 342,
      "剖": 343,
      "剜": 344,
      "剥": 345,
      "剧": 346,
      "剩": 347,
      "剪": 348,
      "副": 349,
      "割": 350,
      "力": 351,
      "办": 352,
      "功": 353,
      "加": 354,
      "务": 355,
      "劣": 356,
      "动": 357,
      "助": 358,
      "努": 359,
      "励": 360,
      "劲": 361,
      "劳": 362,
      "势": 363,
      "勃": 364,
      "勒": 365,
      "勤": 366,
      "勺": 367,
      "勾": 368,
      "勿": 369,
      "匀": 370,
      "包": 371,
      "化": 372,
      "匙": 373,
      "匝": 374,
      "匮": 375,
      "匹": 376,
      "区": 377,
      "医": 378,
      "匿": 379,
      "十": 380,
      "千": 381,
      "升": 382,
      "午": 383,
      "半": 384,
      "华": 385,
      "协": 386,
      "卑": 387,
      "卒": 388,
      "卓": 389,
      "单": 390,
      "南": 391,
      "博": 392,
      "卜": 393,
      "占": 394,
      "卡": 395,
      "卤": 396,
      "卧": 397,
      "卫": 398,
      "印": 399,
      "危": 400,
      "即": 401,
      "却": 402,
      "卵": 403,
      "卷": 404,
      "厂": 405,
      "厄": 406,
      "历": 407,
      "厉": 408,
      "压": 409,
      "厌": 410,
      "厕": 411,
      "厘": 412,
      "厚": 413,
      "原": 414,
      "厢": 415,
      "厥": 416,
      "厨": 417,
      "去": 418,
      "参": 419,
      "又": 420,
      "叉": 421,
      "及": 422,
      "友": 423,
      "双": 424,
      "反": 425,
      "发": 426,
      "取": 427,
      "受": 428,
      "变": 429,
      "叠": 430,
      "口": 431,
      "古": 432,
      "句": 433,
      "另": 434,
      "叩": 435,
      "只": 436,
      "叫": 437,
      "叮": 438,
      "可": 439,
      "台": 440,
      "史": 441,
      "右": 442,
      "叶": 443,
      "号": 444,
      "司": 445,
      "叹": 446,
      "吃": 447,
      "各": 448,
      "合": 449,
      "吉": 450,
      "吊": 451,
      "同": 452,
      "名": 453,
      "后": 454,
      "吐": 455,
      "向": 456,
      "吓": 457,
      "吗": 458,
      "君": 459,
      "吞": 460,
      "吡": 461,
      "否": 462,
      "含": 463,
      "听": 464,
      "吮": 465,
      "启": 466,
      "吱": 467,
      "吲": 468,
      "吸": 469,
      "吹": 470,
      "吻": 471,
      "吾": 472,
      "呀": 473,
      "呆": 474,
      "呈": 475,
      "告": 476,
      "呋": 477,
      "呓": 478,
      "呕": 479,
      "员": 480,
      "呛": 481,
      "呢": 482,
      "呤": 483,
      "周": 484,
      "味": 485,
      "呼": 486,
      "命": 487,
      "咀": 488,
      "咋": 489,
      "和": 490,
      "咎": 491,
      "咔": 492,
      "咖": 493,
      "咙": 494,
      "咨": 495,
      "咪": 496,
      "咬": 497,
      "咯": 498,
      "咳": 499,
      "咸": 500,
      "咽": 501,
      "咿": 502,
      "品": 503,
      "哈": 504,
      "哌": 505,
      "响": 506,
      "哑": 507,
      "哚": 508,
      "哨": 509,
      "哪": 510,
      "哭": 511,
      "哮": 512,
      "哺": 513,
      "唇": 514,
      "唐": 515,
      "唑": 516,
      "唤": 517,
      "售": 518,
      "唯": 519,
      "唾": 520,
      "商": 521,
      "啡": 522,
      "啤": 523,
      "啰": 524,
      "啶": 525,
      "喂": 526,
      "喃": 527,
      "善": 528,
      "喉": 529,
      "喊": 530,
      "喘": 531,
      "喜": 532,
      "喝": 533,
      "喷": 534,
      "喹": 535,
      "嗅": 536,
      "嗓": 537,
      "嗜": 538,
      "嗝": 539,
      "嗡": 540,
      "嗪": 541,
      "嗳": 542,
      "嗽": 543,
      "嘈": 544,
      "嘌": 545,
      "嘛": 546,
      "嘧": 547,
      "嘱": 548,
      "嘴": 549,
      "嘶": 550,
      "器": 551,
      "噪": 552,
      "噬": 553,
      "噻": 554,
      "嚏": 555,
      "嚼": 556,
      "囊": 557,
      "四": 558,
      "回": 559,
      "因": 560,
      "团": 561,
      "囤": 562,
      "困": 563,
      "围": 564,
      "固": 565,
      "国": 566,
      "图": 567,
      "圆": 568,
      "圈": 569,
      "土": 570,
      "在": 571,
      "地": 572,
      "场": 573,
      "圾": 574,
      "均": 575,
      "坎": 576,
      "坏": 577,
      "坐": 578,
      "坑": 579,
      "块": 580,
      "坚": 581,
      "坠": 582,
      "坡": 583,
      "坤": 584,
      "坦": 585,
      "坨": 586,
      "垂": 587,
      "垃": 588,
      "型": 589,
      "垢": 590,
      "垫": 591,
      "垮": 592,
      "埃": 593,
      "埋": 594,
      "城": 595,
      "域": 596,
      "培": 597,
      "基": 598,
      "堂": 599,
      "堆": 600,
      "堡": 601,
      "堪": 602,
      "堵": 603,
      "塌": 604,
      "塑": 605,
      "塞": 606,
      "填": 607,
      "境": 608,
      "墙": 609,
      "增": 610,
      "墨": 611,
      "壁": 612,
      "壤": 613,
      "士": 614,
      "壬": 615,
      "壮": 616,
      "声": 617,
      "壳": 618,
      "壶": 619,
      "处": 620,
      "备": 621,
      "复": 622,
      "夏": 623,
      "外": 624,
      "多": 625,
      "夜": 626,
      "够": 627,
      "大": 628,
      "天": 629,
      "太": 630,
      "夫": 631,
      "央": 632,
      "失": 633,
      "头": 634,
      "夹": 635,
      "奇": 636,
      "奈": 637,
      "奉": 638,
      "奋": 639,
      "奏": 640,
      "奔": 641,
      "奖": 642,
      "套": 643,
      "奥": 644,
      "女": 645,
      "奶": 646,
      "她": 647,
      "好": 648,
      "如": 649,
      "妆": 650,
      "妇": 651,
      "妈": 652,
      "妊": 653,
      "妥": 654,
      "妨": 655,
      "妻": 656,
      "始": 657,
      "姑": 658,
      "委": 659,
      "姜": 660,
      "姨": 661,
      "姿": 662,
      "威": 663,
      "娇": 664,
      "娘": 665,
      "娠": 666,
      "娩": 667,
      "婴": 668,
      "婷": 669,
      "嫩": 670,
      "子": 671,
      "孔": 672,
      "孕": 673,
      "字": 674,
      "存": 675,
      "孜": 676,
      "孟": 677,
      "孢": 678,
      "季": 679,
      "孤": 680,
      "学": 681,
      "孩": 682,
      "孵": 683,
      "宁": 684,
      "它": 685,
      "守": 686,
      "安": 687,
      "完": 688,
      "宗": 689,
      "官": 690,
      "定": 691,
      "宜": 692,
      "宝": 693,
      "实": 694,
      "宠": 695,
      "宣": 696,
      "室": 697,
      "宫": 698,
      "害": 699,
      "宵": 700,
      "家": 701,
      "容": 702,
      "宽": 703,
      "宾": 704,
      "宿": 705,
      "寄": 706,
      "密": 707,
      "富": 708,
      "寐": 709,
      "寒": 710,
      "察": 711,
      "寸": 712,
      "对": 713,
      "寻": 714,
      "导": 715,
      "寿": 716,
      "封": 717,
      "射": 718,
      "将": 719,
      "尊": 720,
      "小": 721,
      "少": 722,
      "尔": 723,
      "尖": 724,
      "尘": 725,
      "尚": 726,
      "尝": 727,
      "尤": 728,
      "尬": 729,
      "就": 730,
      "尴": 731,
      "尺": 732,
      "尼": 733,
      "尽": 734,
      "尾": 735,
      "尿": 736,
      "局": 737,
      "屁": 738,
      "层": 739,
      "居": 740,
      "屈": 741,
      "屋": 742,
      "屎": 743,
      "屏": 744,
      "屑": 745,
      "展": 746,
      "属": 747,
      "履": 748,
      "山": 749,
      "岁": 750,
      "岔": 751,
      "岖": 752,
      "岛": 753,
      "岩": 754,
      "峡": 755,
      "峰": 756,
      "崎": 757,
      "崩": 758,
      "嵌": 759,
      "嵴": 760,
      "巅": 761,
      "川": 762,
      "巢": 763,
      "工": 764,
      "左": 765,
      "巧": 766,
      "巨": 767,
      "巩": 768,
      "差": 769,
      "巯": 770,
      "己": 771,
      "已": 772,
      "巴": 773,
      "巾": 774,
      "币": 775,
      "市": 776,
      "布": 777,
      "师": 778,
      "希": 779,
      "帕": 780,
      "带": 781,
      "帮": 782,
      "常": 783,
      "帽": 784,
      "幅": 785,
      "幕": 786,
      "干": 787,
      "平": 788,
      "年": 789,
      "并": 790,
      "幸": 791,
      "幼": 792,
      "幽": 793,
      "广": 794,
      "床": 795,
      "序": 796,
      "库": 797,
      "应": 798,
      "底": 799,
      "店": 800,
      "庚": 801,
      "府": 802,
      "废": 803,
      "度": 804,
      "座": 805,
      "庭": 806,
      "康": 807,
      "廓": 808,
      "延": 809,
      "建": 810,
      "开": 811,
      "异": 812,
      "弃": 813,
      "弄": 814,
      "弊": 815,
      "式": 816,
      "弓": 817,
      "引": 818,
      "弛": 819,
      "张": 820,
      "弥": 821,
      "弧": 822,
      "弯": 823,
      "弱": 824,
      "弹": 825,
      "强": 826,
      "归": 827,
      "当": 828,
      "录": 829,
      "形": 830,
      "彩": 831,
      "影": 832,
      "彻": 833,
      "彼": 834,
      "往": 835,
      "征": 836,
      "径": 837,
      "待": 838,
      "很": 839,
      "律": 840,
      "得": 841,
      "御": 842,
      "循": 843,
      "微": 844,
      "德": 845,
      "心": 846,
      "必": 847,
      "忆": 848,
      "忌": 849,
      "忍": 850,
      "志": 851,
      "忘": 852,
      "忙": 853,
      "忧": 854,
      "快": 855,
      "念": 856,
      "忽": 857,
      "怀": 858,
      "态": 859,
      "怎": 860,
      "怒": 861,
      "怕": 862,
      "思": 863,
      "怠": 864,
      "急": 865,
      "性": 866,
      "怪": 867,
      "怯": 868,
      "总": 869,
      "恐": 870,
      "恒": 871,
      "恢": 872,
      "恩": 873,
      "息": 874,
      "恶": 875,
      "患": 876,
      "悦": 877,
      "您": 878,
      "悬": 879,
      "悲": 880,
      "悸": 881,
      "情": 882,
      "惊": 883,
      "惕": 884,
      "惠": 885,
      "惧": 886,
      "惩": 887,
      "惫": 888,
      "惯": 889,
      "想": 890,
      "惹": 891,
      "愈": 892,
      "愉": 893,
      "意": 894,
      "感": 895,
      "愤": 896,
      "愿": 897,
      "慌": 898,
      "慎": 899,
      "慢": 900,
      "慰": 901,
      "憋": 902,
      "憩": 903,
      "懂": 904,
      "戈": 905,
      "戊": 906,
      "戎": 907,
      "戏": 908,
      "成": 909,
      "我": 910,
      "戒": 911,
      "或": 912,
      "战": 913,
      "戟": 914,
      "截": 915,
      "戴": 916,
      "户": 917,
      "房": 918,
      "所": 919,
      "扁": 920,
      "手": 921,
      "才": 922,
      "扎": 923,
      "扑": 924,
      "打": 925,
      "托": 926,
      "执": 927,
      "扩": 928,
      "扫": 929,
      "扭": 930,
      "扮": 931,
      "扯": 932,
      "扰": 933,
      "扶": 934,
      "批": 935,
      "找": 936,
      "承": 937,
      "技": 938,
      "把": 939,
      "抑": 940,
      "抓": 941,
      "投": 942,
      "抖": 943,
      "抗": 944,
      "折": 945,
      "抚": 946,
      "抢": 947,
      "护": 948,
      "报": 949,
      "抬": 950,
      "抱": 951,
      "抵": 952,
      "抹": 953,
      "抽": 954,
      "担": 955,
      "拆": 956,
      "拇": 957,
      "拉": 958,
      "拌": 959,
      "拍": 960,
      "拐": 961,
      "拒": 962,
      "拓": 963,
      "拔": 964,
      "拖": 965,
      "拜": 966,
      "拟": 967,
      "拥": 968,
      "拧": 969,
      "拨": 970,
      "择": 971,
      "括": 972,
      "拭": 973,
      "拮": 974,
      "拳": 975,
      "拷": 976,
      "拾": 977,
      "拿": 978,
      "持": 979,
      "挂": 980,
      "指": 981,
      "按": 982,
      "挑": 983,
      "挖": 984,
      "挛": 985,
      "挠": 986,
      "挤": 987,
      "挥": 988,
      "挫": 989,
      "振": 990,
      "挺": 991,
      "挽": 992,
      "捂": 993,
      "捉": 994,
      "捏": 995,
      "捕": 996,
      "损": 997,
      "换": 998,
      "捣": 999,
      "据": 1000,
      "捷": 1001,
      "捻": 1002,
      "授": 1003,
      "掉": 1004,
      "掌": 1005,
      "掏": 1006,
      "排": 1007,
      "探": 1008,
      "接": 1009,
      "控": 1010,
      "推": 1011,
      "掩": 1012,
      "措": 1013,
      "揉": 1014,
      "描": 1015,
      "提": 1016,
      "插": 1017,
      "握": 1018,
      "揭": 1019,
      "搏": 1020,
      "搐": 1021,
      "搓": 1022,
      "搔": 1023,
      "搦": 1024,
      "搬": 1025,
      "搭": 1026,
      "携": 1027,
      "搽": 1028,
      "摄": 1029,
      "摇": 1030,
      "摔": 1031,
      "摘": 1032,
      "摧": 1033,
      "摩": 1034,
      "摸": 1035,
      "撑": 1036,
      "撒": 1037,
      "撕": 1038,
      "撞": 1039,
      "撤": 1040,
      "播": 1041,
      "擅": 1042,
      "操": 1043,
      "擦": 1044,
      "支": 1045,
      "收": 1046,
      "改": 1047,
      "攻": 1048,
      "放": 1049,
      "政": 1050,
      "故": 1051,
      "效": 1052,
      "敏": 1053,
      "救": 1054,
      "教": 1055,
      "敛": 1056,
      "散": 1057,
      "数": 1058,
      "敲": 1059,
      "整": 1060,
      "敷": 1061,
      "文": 1062,
      "斑": 1063,
      "斗": 1064,
      "料": 1065,
      "斜": 1066,
      "斤": 1067,
      "斥": 1068,
      "断": 1069,
      "斯": 1070,
      "新": 1071,
      "方": 1072,
      "施": 1073,
      "旁": 1074,
      "旅": 1075,
      "旋": 1076,
      "族": 1077,
      "无": 1078,
      "既": 1079,
      "日": 1080,
      "旦": 1081,
      "旧": 1082,
      "旨": 1083,
      "早": 1084,
      "时": 1085,
      "旺": 1086,
      "昂": 1087,
      "昆": 1088,
      "明": 1089,
      "昏": 1090,
      "易": 1091,
      "昔": 1092,
      "星": 1093,
      "映": 1094,
      "春": 1095,
      "是": 1096,
      "显": 1097,
      "晃": 1098,
      "晒": 1099,
      "晕": 1100,
      "晚": 1101,
      "晨": 1102,
      "普": 1103,
      "景": 1104,
      "晰": 1105,
      "晶": 1106,
      "智": 1107,
      "晾": 1108,
      "暂": 1109,
      "暑": 1110,
      "暖": 1111,
      "暗": 1112,
      "暴": 1113,
      "曝": 1114,
      "曲": 1115,
      "更": 1116,
      "曼": 1117,
      "曾": 1118,
      "替": 1119,
      "最": 1120,
      "月": 1121,
      "有": 1122,
      "朋": 1123,
      "服": 1124,
      "望": 1125,
      "朝": 1126,
      "期": 1127,
      "木": 1128,
      "未": 1129,
      "末": 1130,
      "本": 1131,
      "术": 1132,
      "朴": 1133,
      "朵": 1134,
      "机": 1135,
      "杀": 1136,
      "杂": 1137,
      "权": 1138,
      "杆": 1139,
      "杉": 1140,
      "李": 1141,
      "杏": 1142,
      "材": 1143,
      "杓": 1144,
      "杖": 1145,
      "杜": 1146,
      "杞": 1147,
      "束": 1148,
      "杠": 1149,
      "条": 1150,
      "来": 1151,
      "杨": 1152,
      "杯": 1153,
      "杵": 1154,
      "松": 1155,
      "板": 1156,
      "极": 1157,
      "构": 1158,
      "析": 1159,
      "枕": 1160,
      "林": 1161,
      "果": 1162,
      "枝": 1163,
      "枢": 1164,
      "枣": 1165,
      "枪": 1166,
      "枯": 1167,
      "枳": 1168,
      "架": 1169,
      "枸": 1170,
      "柄": 1171,
      "柏": 1172,
      "某": 1173,
      "柑": 1174,
      "染": 1175,
      "柔": 1176,
      "柚": 1177,
      "柠": 1178,
      "查": 1179,
      "柯": 1180,
      "柱": 1181,
      "柳": 1182,
      "柴": 1183,
      "柿": 1184,
      "栀": 1185,
      "标": 1186,
      "栏": 1187,
      "树": 1188,
      "栓": 1189,
      "栖": 1190,
      "校": 1191,
      "株": 1192,
      "样": 1193,
      "核": 1194,
      "根": 1195,
      "格": 1196,
      "桂": 1197,
      "桃": 1198,
      "框": 1199,
      "案": 1200,
      "桑": 1201,
      "桡": 1202,
      "桥": 1203,
      "桶": 1204,
      "梁": 1205,
      "梅": 1206,
      "梗": 1207,
      "梢": 1208,
      "梦": 1209,
      "梨": 1210,
      "梭": 1211,
      "梯": 1212,
      "械": 1213,
      "梳": 1214,
      "检": 1215,
      "棉": 1216,
      "棒": 1217,
      "棕": 1218,
      "棘": 1219,
      "森": 1220,
      "植": 1221,
      "椎": 1222,
      "椒": 1223,
      "椭": 1224,
      "椰": 1225,
      "椿": 1226,
      "楂": 1227,
      "楔": 1228,
      "楚": 1229,
      "楼": 1230,
      "概": 1231,
      "榄": 1232,
      "榆": 1233,
      "榈": 1234,
      "榨": 1235,
      "榴": 1236,
      "槐": 1237,
      "槲": 1238,
      "樟": 1239,
      "模": 1240,
      "横": 1241,
      "樱": 1242,
      "橄": 1243,
      "橘": 1244,
      "橙": 1245,
      "橡": 1246,
      "橼": 1247,
      "檬": 1248,
      "欠": 1249,
      "次": 1250,
      "欢": 1251,
      "欣": 1252,
      "欧": 1253,
      "欲": 1254,
      "歇": 1255,
      "止": 1256,
      "正": 1257,
      "此": 1258,
      "步": 1259,
      "歧": 1260,
      "歪": 1261,
      "死": 1262,
      "殊": 1263,
      "残": 1264,
      "殖": 1265,
      "段": 1266,
      "毁": 1267,
      "母": 1268,
      "每": 1269,
      "毒": 1270,
      "毓": 1271,
      "比": 1272,
      "毕": 1273,
      "毗": 1274,
      "毛": 1275,
      "毫": 1276,
      "毯": 1277,
      "氏": 1278,
      "民": 1279,
      "气": 1280,
      "氛": 1281,
      "氟": 1282,
      "氢": 1283,
      "氧": 1284,
      "氨": 1285,
      "氮": 1286,
      "氯": 1287,
      "氰": 1288,
      "水": 1289,
      "永": 1290,
      "汀": 1291,
      "汁": 1292,
      "求": 1293,
      "汇": 1294,
      "汉": 1295,
      "汗": 1296,
      "汞": 1297,
      "池": 1298,
      "污": 1299,
      "汤": 1300,
      "汽": 1301,
      "沉": 1302,
      "沐": 1303,
      "沓": 1304,
      "沙": 1305,
      "沟": 1306,
      "没": 1307,
      "沥": 1308,
      "沫": 1309,
      "河": 1310,
      "沸": 1311,
      "油": 1312,
      "治": 1313,
      "沾": 1314,
      "沿": 1315,
      "泄": 1316,
      "泉": 1317,
      "泊": 1318,
      "泌": 1319,
      "法": 1320,
      "泛": 1321,
      "泡": 1322,
      "波": 1323,
      "泣": 1324,
      "泥": 1325,
      "注": 1326,
      "泪": 1327,
      "泮": 1328,
      "泰": 1329,
      "泳": 1330,
      "泵": 1331,
      "泻": 1332,
      "泼": 1333,
      "泽": 1334,
      "洁": 1335,
      "洋": 1336,
      "洒": 1337,
      "洗": 1338,
      "洛": 1339,
      "洞": 1340,
      "津": 1341,
      "洱": 1342,
      "活": 1343,
      "流": 1344,
      "浅": 1345,
      "浆": 1346,
      "浊": 1347,
      "测": 1348,
      "济": 1349,
      "浑": 1350,
      "浓": 1351,
      "浮": 1352,
      "浴": 1353,
      "海": 1354,
      "浸": 1355,
      "涂": 1356,
      "消": 1357,
      "涉": 1358,
      "涌": 1359,
      "涕": 1360,
      "涤": 1361,
      "润": 1362,
      "涨": 1363,
      "涩": 1364,
      "液": 1365,
      "涵": 1366,
      "淀": 1367,
      "淆": 1368,
      "淇": 1369,
      "淋": 1370,
      "淡": 1371,
      "淤": 1372,
      "淫": 1373,
      "深": 1374,
      "混": 1375,
      "添": 1376,
      "清": 1377,
      "渐": 1378,
      "渗": 1379,
      "渠": 1380,
      "渡": 1381,
      "渣": 1382,
      "温": 1383,
      "渴": 1384,
      "游": 1385,
      "湍": 1386,
      "湿": 1387,
      "溃": 1388,
      "溏": 1389,
      "源": 1390,
      "溢": 1391,
      "溪": 1392,
      "溯": 1393,
      "溴": 1394,
      "溶": 1395,
      "溺": 1396,
      "滋": 1397,
      "滑": 1398,
      "滞": 1399,
      "满": 1400,
      "滤": 1401,
      "滥": 1402,
      "滨": 1403,
      "滴": 1404,
      "漂": 1405,
      "漏": 1406,
      "漓": 1407,
      "演": 1408,
      "漠": 1409,
      "漫": 1410,
      "漱": 1411,
      "潘": 1412,
      "潜": 1413,
      "潮": 1414,
      "潴": 1415,
      "澡": 1416,
      "激": 1417,
      "濒": 1418,
      "濡": 1419,
      "灌": 1420,
      "火": 1421,
      "灭": 1422,
      "灯": 1423,
      "灰": 1424,
      "灵": 1425,
      "灶": 1426,
      "灸": 1427,
      "灼": 1428,
      "炉": 1429,
      "炎": 1430,
      "炒": 1431,
      "炔": 1432,
      "炖": 1433,
      "炙": 1434,
      "炭": 1435,
      "炸": 1436,
      "点": 1437,
      "炼": 1438,
      "烁": 1439,
      "烂": 1440,
      "烈": 1441,
      "烟": 1442,
      "烤": 1443,
      "烦": 1444,
      "烧": 1445,
      "烫": 1446,
      "热": 1447,
      "烯": 1448,
      "烷": 1449,
      "烹": 1450,
      "焦": 1451,
      "然": 1452,
      "煎": 1453,
      "煤": 1454,
      "照": 1455,
      "煮": 1456,
      "煲": 1457,
      "熄": 1458,
      "熊": 1459,
      "熏": 1460,
      "熟": 1461,
      "熬": 1462,
      "燃": 1463,
      "燕": 1464,
      "燥": 1465,
      "爆": 1466,
      "爪": 1467,
      "爬": 1468,
      "爱": 1469,
      "父": 1470,
      "片": 1471,
      "牌": 1472,
      "牙": 1473,
      "牛": 1474,
      "牡": 1475,
      "牢": 1476,
      "物": 1477,
      "牵": 1478,
      "特": 1479,
      "犬": 1480,
      "犯": 1481,
      "状": 1482,
      "狂": 1483,
      "狐": 1484,
      "独": 1485,
      "狭": 1486,
      "狼": 1487,
      "猕": 1488,
      "猜": 1489,
      "猝": 1490,
      "猩": 1491,
      "猪": 1492,
      "献": 1493,
      "猴": 1494,
      "玄": 1495,
      "率": 1496,
      "玉": 1497,
      "玛": 1498,
      "玩": 1499,
      "玫": 1500,
      "环": 1501,
      "现": 1502,
      "玻": 1503,
      "珀": 1504,
      "珍": 1505,
      "珠": 1506,
      "班": 1507,
      "球": 1508,
      "理": 1509,
      "琥": 1510,
      "瑜": 1511,
      "瑞": 1512,
      "瑟": 1513,
      "瑰": 1514,
      "璃": 1515,
      "瓜": 1516,
      "瓣": 1517,
      "瓦": 1518,
      "瓶": 1519,
      "瓷": 1520,
      "甘": 1521,
      "甙": 1522,
      "甚": 1523,
      "甜": 1524,
      "生": 1525,
      "用": 1526,
      "田": 1527,
      "由": 1528,
      "甲": 1529,
      "电": 1530,
      "男": 1531,
      "甾": 1532,
      "畅": 1533,
      "界": 1534,
      "畏": 1535,
      "留": 1536,
      "略": 1537,
      "番": 1538,
      "畴": 1539,
      "畸": 1540,
      "疏": 1541,
      "疑": 1542,
      "疖": 1543,
      "疗": 1544,
      "疙": 1545,
      "疝": 1546,
      "疟": 1547,
      "疡": 1548,
      "疣": 1549,
      "疤": 1550,
      "疫": 1551,
      "疮": 1552,
      "疯": 1553,
      "疱": 1554,
      "疲": 1555,
      "疳": 1556,
      "疸": 1557,
      "疹": 1558,
      "疼": 1559,
      "疽": 1560,
      "疾": 1561,
      "痂": 1562,
      "痄": 1563,
      "病": 1564,
      "症": 1565,
      "痈": 1566,
      "痉": 1567,
      "痊": 1568,
      "痒": 1569,
      "痔": 1570,
      "痕": 1571,
      "痘": 1572,
      "痛": 1573,
      "痢": 1574,
      "痣": 1575,
      "痤": 1576,
      "痨": 1577,
      "痪": 1578,
      "痫": 1579,
      "痰": 1580,
      "痱": 1581,
      "痴": 1582,
      "痹": 1583,
      "痿": 1584,
      "瘀": 1585,
      "瘕": 1586,
      "瘘": 1587,
      "瘙": 1588,
      "瘟": 1589,
      "瘢": 1590,
      "瘤": 1591,
      "瘦": 1592,
      "瘩": 1593,
      "瘪": 1594,
      "瘫": 1595,
      "瘾": 1596,
      "癌": 1597,
      "癖": 1598,
      "癜": 1599,
      "癣": 1600,
      "癫": 1601,
      "登": 1602,
      "白": 1603,
      "百": 1604,
      "皂": 1605,
      "的": 1606,
      "皙": 1607,
      "皮": 1608,
      "皱": 1609,
      "皲": 1610,
      "盂": 1611,
      "盆": 1612,
      "盈": 1613,
      "益": 1614,
      "盏": 1615,
      "盐": 1616,
      "监": 1617,
      "盒": 1618,
      "盖": 1619,
      "盗": 1620,
      "盘": 1621,
      "盛": 1622,
      "目": 1623,
      "盯": 1624,
      "盲": 1625,
      "直": 1626,
      "相": 1627,
      "眉": 1628,
      "看": 1629,
      "真": 1630,
      "眠": 1631,
      "眦": 1632,
      "眨": 1633,
      "眩": 1634,
      "眶": 1635,
      "眺": 1636,
      "眼": 1637,
      "着": 1638,
      "睁": 1639,
      "睑": 1640,
      "睛": 1641,
      "睡": 1642,
      "督": 1643,
      "睫": 1644,
      "睾": 1645,
      "瞬": 1646,
      "瞳": 1647,
      "矢": 1648,
      "知": 1649,
      "矫": 1650,
      "短": 1651,
      "矮": 1652,
      "石": 1653,
      "矽": 1654,
      "矾": 1655,
      "矿": 1656,
      "码": 1657,
      "砂": 1658,
      "研": 1659,
      "砰": 1660,
      "破": 1661,
      "砷": 1662,
      "砸": 1663,
      "础": 1664,
      "硅": 1665,
      "硒": 1666,
      "硝": 1667,
      "硫": 1668,
      "硬": 1669,
      "确": 1670,
      "硼": 1671,
      "碍": 1672,
      "碎": 1673,
      "碗": 1674,
      "碘": 1675,
      "碰": 1676,
      "碱": 1677,
      "碳": 1678,
      "碾": 1679,
      "磁": 1680,
      "磕": 1681,
      "磨": 1682,
      "磷": 1683,
      "磺": 1684,
      "示": 1685,
      "社": 1686,
      "祖": 1687,
      "祛": 1688,
      "神": 1689,
      "祸": 1690,
      "禀": 1691,
      "禁": 1692,
      "福": 1693,
      "离": 1694,
      "禽": 1695,
      "秀": 1696,
      "私": 1697,
      "秃": 1698,
      "秋": 1699,
      "种": 1700,
      "科": 1701,
      "秒": 1702,
      "秘": 1703,
      "秤": 1704,
      "秦": 1705,
      "积": 1706,
      "称": 1707,
      "移": 1708,
      "稀": 1709,
      "程": 1710,
      "稍": 1711,
      "稚": 1712,
      "稠": 1713,
      "稳": 1714,
      "穗": 1715,
      "穴": 1716,
      "究": 1717,
      "空": 1718,
      "穿": 1719,
      "突": 1720,
      "窄": 1721,
      "窍": 1722,
      "窒": 1723,
      "窗": 1724,
      "窘": 1725,
      "窜": 1726,
      "窝": 1727,
      "窥": 1728,
      "窦": 1729,
      "立": 1730,
      "竖": 1731,
      "站": 1732,
      "竞": 1733,
      "童": 1734,
      "竭": 1735,
      "端": 1736,
      "竹": 1737,
      "竿": 1738,
      "笑": 1739,
      "笔": 1740,
      "符": 1741,
      "笨": 1742,
      "第": 1743,
      "等": 1744,
      "筋": 1745,
      "答": 1746,
      "策": 1747,
      "筛": 1748,
      "筷": 1749,
      "签": 1750,
      "简": 1751,
      "算": 1752,
      "管": 1753,
      "箭": 1754,
      "箱": 1755,
      "篮": 1756,
      "簇": 1757,
      "米": 1758,
      "类": 1759,
      "籽": 1760,
      "粉": 1761,
      "粒": 1762,
      "粗": 1763,
      "粘": 1764,
      "粟": 1765,
      "粥": 1766,
      "粪": 1767,
      "粮": 1768,
      "精": 1769,
      "糊": 1770,
      "糕": 1771,
      "糖": 1772,
      "糙": 1773,
      "糜": 1774,
      "糠": 1775,
      "糯": 1776,
      "系": 1777,
      "紊": 1778,
      "素": 1779,
      "索": 1780,
      "紧": 1781,
      "紫": 1782,
      "累": 1783,
      "絮": 1784,
      "繁": 1785,
      "纠": 1786,
      "红": 1787,
      "纤": 1788,
      "约": 1789,
      "级": 1790,
      "纯": 1791,
      "纱": 1792,
      "纳": 1793,
      "纵": 1794,
      "纸": 1795,
      "纹": 1796,
      "线": 1797,
      "绀": 1798,
      "练": 1799,
      "组": 1800,
      "细": 1801,
      "织": 1802,
      "终": 1803,
      "经": 1804,
      "绑": 1805,
      "绒": 1806,
      "结": 1807,
      "绕": 1808,
      "绘": 1809,
      "给": 1810,
      "络": 1811,
      "绝": 1812,
      "绞": 1813,
      "统": 1814,
      "绦": 1815,
      "继": 1816,
      "绩": 1817,
      "绪": 1818,
      "续": 1819,
      "绳": 1820,
      "维": 1821,
      "绵": 1822,
      "绷": 1823,
      "综": 1824,
      "绿": 1825,
      "缓": 1826,
      "缔": 1827,
      "编": 1828,
      "缘": 1829,
      "缚": 1830,
      "缝": 1831,
      "缠": 1832,
      "缩": 1833,
      "缬": 1834,
      "缭": 1835,
      "缺": 1836,
      "罐": 1837,
      "网": 1838,
      "罕": 1839,
      "罗": 1840,
      "罚": 1841,
      "罩": 1842,
      "罪": 1843,
      "置": 1844,
      "罹": 1845,
      "羊": 1846,
      "美": 1847,
      "羞": 1848,
      "羟": 1849,
      "群": 1850,
      "羧": 1851,
      "羹": 1852,
      "羽": 1853,
      "翘": 1854,
      "翳": 1855,
      "翻": 1856,
      "翼": 1857,
      "老": 1858,
      "考": 1859,
      "者": 1860,
      "而": 1861,
      "耍": 1862,
      "耐": 1863,
      "耗": 1864,
      "耦": 1865,
      "耳": 1866,
      "耵": 1867,
      "耻": 1868,
      "聋": 1869,
      "职": 1870,
      "聍": 1871,
      "联": 1872,
      "聚": 1873,
      "聪": 1874,
      "肃": 1875,
      "肉": 1876,
      "肋": 1877,
      "肌": 1878,
      "肘": 1879,
      "肚": 1880,
      "肛": 1881,
      "肝": 1882,
      "肟": 1883,
      "肠": 1884,
      "股": 1885,
      "肢": 1886,
      "肤": 1887,
      "肥": 1888,
      "肩": 1889,
      "肪": 1890,
      "肱": 1891,
      "育": 1892,
      "肴": 1893,
      "肺": 1894,
      "肼": 1895,
      "肽": 1896,
      "肾": 1897,
      "肿": 1898,
      "胀": 1899,
      "胁": 1900,
      "胃": 1901,
      "胆": 1902,
      "背": 1903,
      "胍": 1904,
      "胎": 1905,
      "胖": 1906,
      "胚": 1907,
      "胛": 1908,
      "胜": 1909,
      "胝": 1910,
      "胞": 1911,
      "胡": 1912,
      "胫": 1913,
      "胯": 1914,
      "胰": 1915,
      "胱": 1916,
      "胳": 1917,
      "胶": 1918,
      "胸": 1919,
      "胺": 1920,
      "胼": 1921,
      "能": 1922,
      "脂": 1923,
      "脆": 1924,
      "脉": 1925,
      "脊": 1926,
      "脏": 1927,
      "脐": 1928,
      "脑": 1929,
      "脓": 1930,
      "脖": 1931,
      "脘": 1932,
      "脚": 1933,
      "脯": 1934,
      "脱": 1935,
      "脲": 1936,
      "脸": 1937,
      "脾": 1938,
      "腊": 1939,
      "腋": 1940,
      "腌": 1941,
      "腐": 1942,
      "腑": 1943,
      "腓": 1944,
      "腔": 1945,
      "腕": 1946,
      "腘": 1947,
      "腙": 1948,
      "腠": 1949,
      "腥": 1950,
      "腧": 1951,
      "腭": 1952,
      "腮": 1953,
      "腰": 1954,
      "腱": 1955,
      "腹": 1956,
      "腺": 1957,
      "腻": 1958,
      "腾": 1959,
      "腿": 1960,
      "膀": 1961,
      "膈": 1962,
      "膊": 1963,
      "膏": 1964,
      "膜": 1965,
      "膝": 1966,
      "膦": 1967,
      "膨": 1968,
      "膳": 1969,
      "膻": 1970,
      "臀": 1971,
      "臂": 1972,
      "自": 1973,
      "臭": 1974,
      "至": 1975,
      "致": 1976,
      "臼": 1977,
      "舌": 1978,
      "舍": 1979,
      "舒": 1980,
      "舞": 1981,
      "舟": 1982,
      "航": 1983,
      "般": 1984,
      "舱": 1985,
      "良": 1986,
      "色": 1987,
      "艳": 1988,
      "艺": 1989,
      "艾": 1990,
      "节": 1991,
      "芋": 1992,
      "芍": 1993,
      "芎": 1994,
      "芒": 1995,
      "芝": 1996,
      "芥": 1997,
      "芦": 1998,
      "芩": 1999,
      "芪": 2000,
      "芬": 2001,
      "芯": 2002,
      "花": 2003,
      "芳": 2004,
      "芷": 2005,
      "芸": 2006,
      "芹": 2007,
      "芽": 2008,
      "苄": 2009,
      "苍": 2010,
      "苏": 2011,
      "苓": 2012,
      "苔": 2013,
      "苗": 2014,
      "苛": 2015,
      "若": 2016,
      "苦": 2017,
      "苯": 2018,
      "英": 2019,
      "苷": 2020,
      "苹": 2021,
      "范": 2022,
      "茄": 2023,
      "茎": 2024,
      "茨": 2025,
      "茯": 2026,
      "茱": 2027,
      "茴": 2028,
      "茵": 2029,
      "茶": 2030,
      "茸": 2031,
      "荆": 2032,
      "草": 2033,
      "荐": 2034,
      "荔": 2035,
      "荚": 2036,
      "荞": 2037,
      "荠": 2038,
      "荡": 2039,
      "荤": 2040,
      "荧": 2041,
      "荨": 2042,
      "药": 2043,
      "荷": 2044,
      "莓": 2045,
      "莨": 2046,
      "莫": 2047,
      "莲": 2048,
      "获": 2049,
      "菁": 2050,
      "菇": 2051,
      "菊": 2052,
      "菌": 2053,
      "菖": 2054,
      "菜": 2055,
      "菠": 2056,
      "菪": 2057,
      "萃": 2058,
      "萄": 2059,
      "萎": 2060,
      "萘": 2061,
      "萝": 2062,
      "营": 2063,
      "萨": 2064,
      "萸": 2065,
      "落": 2066,
      "葆": 2067,
      "著": 2068,
      "葚": 2069,
      "葛": 2070,
      "葡": 2071,
      "葱": 2072,
      "葵": 2073,
      "蒂": 2074,
      "蒙": 2075,
      "蒜": 2076,
      "蒡": 2077,
      "蒲": 2078,
      "蒸": 2079,
      "蒽": 2080,
      "蓄": 2081,
      "蓝": 2082,
      "蓟": 2083,
      "蔓": 2084,
      "蔗": 2085,
      "蔬": 2086,
      "蔹": 2087,
      "蔽": 2088,
      "蕈": 2089,
      "蕉": 2090,
      "蕨": 2091,
      "蕴": 2092,
      "薄": 2093,
      "薏": 2094,
      "薯": 2095,
      "薰": 2096,
      "藏": 2097,
      "藓": 2098,
      "藜": 2099,
      "藤": 2100,
      "藻": 2101,
      "藿": 2102,
      "蘑": 2103,
      "虎": 2104,
      "虑": 2105,
      "虚": 2106,
      "虫": 2107,
      "虱": 2108,
      "虹": 2109,
      "虽": 2110,
      "虾": 2111,
      "蚀": 2112,
      "蚊": 2113,
      "蚓": 2114,
      "蚝": 2115,
      "蚯": 2116,
      "蚴": 2117,
      "蛋": 2118,
      "蛎": 2119,
      "蛔": 2120,
      "蛙": 2121,
      "蛛": 2122,
      "蛲": 2123,
      "蛸": 2124,
      "蜀": 2125,
      "蜂": 2126,
      "蜒": 2127,
      "蜕": 2128,
      "蜗": 2129,
      "蜘": 2130,
      "蜜": 2131,
      "蜡": 2132,
      "蜿": 2133,
      "蝉": 2134,
      "蝶": 2135,
      "螃": 2136,
      "融": 2137,
      "螨": 2138,
      "螵": 2139,
      "螺": 2140,
      "蟹": 2141,
      "蠕": 2142,
      "血": 2143,
      "行": 2144,
      "衍": 2145,
      "衡": 2146,
      "衣": 2147,
      "补": 2148,
      "表": 2149,
      "衬": 2150,
      "衰": 2151,
      "袋": 2152,
      "袖": 2153,
      "袜": 2154,
      "袢": 2155,
      "被": 2156,
      "袭": 2157,
      "裁": 2158,
      "裂": 2159,
      "装": 2160,
      "裆": 2161,
      "裤": 2162,
      "裹": 2163,
      "褐": 2164,
      "褥": 2165,
      "褪": 2166,
      "褶": 2167,
      "襞": 2168,
      "西": 2169,
      "要": 2170,
      "覆": 2171,
      "见": 2172,
      "观": 2173,
      "规": 2174,
      "视": 2175,
      "觉": 2176,
      "觑": 2177,
      "角": 2178,
      "解": 2179,
      "触": 2180,
      "言": 2181,
      "謇": 2182,
      "警": 2183,
      "计": 2184,
      "订": 2185,
      "认": 2186,
      "讨": 2187,
      "让": 2188,
      "训": 2189,
      "议": 2190,
      "记": 2191,
      "讲": 2192,
      "许": 2193,
      "论": 2194,
      "设": 2195,
      "访": 2196,
      "证": 2197,
      "评": 2198,
      "识": 2199,
      "诉": 2200,
      "诊": 2201,
      "词": 2202,
      "试": 2203,
      "话": 2204,
      "询": 2205,
      "该": 2206,
      "详": 2207,
      "语": 2208,
      "误": 2209,
      "诱": 2210,
      "说": 2211,
      "请": 2212,
      "诸": 2213,
      "诺": 2214,
      "读": 2215,
      "课": 2216,
      "调": 2217,
      "谈": 2218,
      "谐": 2219,
      "谓": 2220,
      "谢": 2221,
      "谣": 2222,
      "谨": 2223,
      "谱": 2224,
      "谷": 2225,
      "豆": 2226,
      "象": 2227,
      "貌": 2228,
      "贝": 2229,
      "负": 2230,
      "财": 2231,
      "责": 2232,
      "败": 2233,
      "货": 2234,
      "质": 2235,
      "贪": 2236,
      "贫": 2237,
      "购": 2238,
      "贮": 2239,
      "贲": 2240,
      "贴": 2241,
      "贵": 2242,
      "费": 2243,
      "贺": 2244,
      "资": 2245,
      "赋": 2246,
      "赏": 2247,
      "赔": 2248,
      "赖": 2249,
      "赘": 2250,
      "赛": 2251,
      "赤": 2252,
      "走": 2253,
      "起": 2254,
      "趁": 2255,
      "超": 2256,
      "越": 2257,
      "趋": 2258,
      "趣": 2259,
      "足": 2260,
      "趾": 2261,
      "跃": 2262,
      "跌": 2263,
      "跑": 2264,
      "跖": 2265,
      "跚": 2266,
      "跛": 2267,
      "距": 2268,
      "跟": 2269,
      "跨": 2270,
      "跪": 2271,
      "路": 2272,
      "跳": 2273,
      "践": 2274,
      "踝": 2275,
      "踢": 2276,
      "踩": 2277,
      "踪": 2278,
      "踮": 2279,
      "踵": 2280,
      "蹄": 2281,
      "蹈": 2282,
      "蹒": 2283,
      "蹦": 2284,
      "蹬": 2285,
      "蹲": 2286,
      "躁": 2287,
      "身": 2288,
      "躯": 2289,
      "躺": 2290,
      "车": 2291,
      "轨": 2292,
      "转": 2293,
      "轮": 2294,
      "软": 2295,
      "轴": 2296,
      "轻": 2297,
      "载": 2298,
      "较": 2299,
      "辅": 2300,
      "辆": 2301,
      "辈": 2302,
      "辐": 2303,
      "输": 2304,
      "辛": 2305,
      "辣": 2306,
      "辨": 2307,
      "边": 2308,
      "达": 2309,
      "迁": 2310,
      "迂": 2311,
      "迅": 2312,
      "过": 2313,
      "迈": 2314,
      "迎": 2315,
      "运": 2316,
      "近": 2317,
      "返": 2318,
      "还": 2319,
      "这": 2320,
      "进": 2321,
      "远": 2322,
      "违": 2323,
      "连": 2324,
      "迟": 2325,
      "迣": 2326,
      "迫": 2327,
      "述": 2328,
      "迷": 2329,
      "迹": 2330,
      "追": 2331,
      "退": 2332,
      "送": 2333,
      "适": 2334,
      "逃": 2335,
      "逆": 2336,
      "选": 2337,
      "逍": 2338,
      "透": 2339,
      "逐": 2340,
      "递": 2341,
      "途": 2342,
      "逗": 2343,
      "通": 2344,
      "速": 2345,
      "造": 2346,
      "逸": 2347,
      "逼": 2348,
      "遂": 2349,
      "遇": 2350,
      "遍": 2351,
      "遏": 2352,
      "道": 2353,
      "遗": 2354,
      "遥": 2355,
      "遭": 2356,
      "遮": 2357,
      "遵": 2358,
      "避": 2359,
      "那": 2360,
      "邦": 2361,
      "邪": 2362,
      "邻": 2363,
      "郁": 2364,
      "部": 2365,
      "都": 2366,
      "酊": 2367,
      "酌": 2368,
      "配": 2369,
      "酐": 2370,
      "酒": 2371,
      "酗": 2372,
      "酚": 2373,
      "酞": 2374,
      "酪": 2375,
      "酮": 2376,
      "酯": 2377,
      "酰": 2378,
      "酱": 2379,
      "酵": 2380,
      "酶": 2381,
      "酸": 2382,
      "醇": 2383,
      "醉": 2384,
      "醋": 2385,
      "醒": 2386,
      "醚": 2387,
      "醛": 2388,
      "采": 2389,
      "释": 2390,
      "里": 2391,
      "重": 2392,
      "野": 2393,
      "量": 2394,
      "金": 2395,
      "鉴": 2396,
      "针": 2397,
      "钉": 2398,
      "钙": 2399,
      "钛": 2400,
      "钝": 2401,
      "钟": 2402,
      "钠": 2403,
      "钡": 2404,
      "钢": 2405,
      "钥": 2406,
      "钩": 2407,
      "钬": 2408,
      "钮": 2409,
      "钱": 2410,
      "钳": 2411,
      "钴": 2412,
      "钻": 2413,
      "钼": 2414,
      "钾": 2415,
      "铁": 2416,
      "铂": 2417,
      "铃": 2418,
      "铅": 2419,
      "铋": 2420,
      "铛": 2421,
      "铜": 2422,
      "铝": 2423,
      "铬": 2424,
      "铵": 2425,
      "银": 2426,
      "链": 2427,
      "锁": 2428,
      "锅": 2429,
      "锈": 2430,
      "锋": 2431,
      "锌": 2432,
      "锐": 2433,
      "错": 2434,
      "锥": 2435,
      "锦": 2436,
      "键": 2437,
      "锯": 2438,
      "锰": 2439,
      "锻": 2440,
      "镁": 2441,
      "镇": 2442,
      "镊": 2443,
      "镜": 2444,
      "镰": 2445,
      "镶": 2446,
      "长": 2447,
      "门": 2448,
      "闪": 2449,
      "闭": 2450,
      "问": 2451,
      "间": 2452,
      "闷": 2453,
      "闹": 2454,
      "闻": 2455,
      "阀": 2456,
      "阅": 2457,
      "阈": 2458,
      "阑": 2459,
      "阜": 2460,
      "队": 2461,
      "防": 2462,
      "阳": 2463,
      "阴": 2464,
      "阵": 2465,
      "阶": 2466,
      "阻": 2467,
      "阿": 2468,
      "附": 2469,
      "际": 2470,
      "陈": 2471,
      "降": 2472,
      "限": 2473,
      "院": 2474,
      "除": 2475,
      "险": 2476,
      "陶": 2477,
      "陷": 2478,
      "隆": 2479,
      "随": 2480,
      "隐": 2481,
      "隔": 2482,
      "隙": 2483,
      "障": 2484,
      "隧": 2485,
      "难": 2486,
      "雄": 2487,
      "雅": 2488,
      "集": 2489,
      "雌": 2490,
      "雍": 2491,
      "雨": 2492,
      "雪": 2493,
      "零": 2494,
      "雷": 2495,
      "雾": 2496,
      "需": 2497,
      "震": 2498,
      "霉": 2499,
      "霍": 2500,
      "霜": 2501,
      "露": 2502,
      "青": 2503,
      "静": 2504,
      "非": 2505,
      "靠": 2506,
      "靡": 2507,
      "面": 2508,
      "革": 2509,
      "靶": 2510,
      "鞋": 2511,
      "鞍": 2512,
      "鞘": 2513,
      "鞣": 2514,
      "鞭": 2515,
      "韦": 2516,
      "韧": 2517,
      "韭": 2518,
      "音": 2519,
      "顶": 2520,
      "项": 2521,
      "顺": 2522,
      "须": 2523,
      "顽": 2524,
      "顾": 2525,
      "顿": 2526,
      "预": 2527,
      "颅": 2528,
      "领": 2529,
      "颈": 2530,
      "颊": 2531,
      "颌": 2532,
      "频": 2533,
      "颗": 2534,
      "题": 2535,
      "颚": 2536,
      "颜": 2537,
      "额": 2538,
      "颞": 2539,
      "颠": 2540,
      "颤": 2541,
      "颧": 2542,
      "风": 2543,
      "飘": 2544,
      "飞": 2545,
      "食": 2546,
      "餐": 2547,
      "饥": 2548,
      "饪": 2549,
      "饭": 2550,
      "饮": 2551,
      "饰": 2552,
      "饱": 2553,
      "饲": 2554,
      "饼": 2555,
      "饿": 2556,
      "馈": 2557,
      "馒": 2558,
      "首": 2559,
      "香": 2560,
      "馨": 2561,
      "马": 2562,
      "驱": 2563,
      "驴": 2564,
      "驶": 2565,
      "驹": 2566,
      "驼": 2567,
      "驾": 2568,
      "验": 2569,
      "骑": 2570,
      "骤": 2571,
      "骨": 2572,
      "骶": 2573,
      "骺": 2574,
      "骼": 2575,
      "髁": 2576,
      "髂": 2577,
      "髋": 2578,
      "髌": 2579,
      "髓": 2580,
      "高": 2581,
      "魏": 2582,
      "魔": 2583,
      "鱼": 2584,
      "鲁": 2585,
      "鲍": 2586,
      "鲑": 2587,
      "鲜": 2588,
      "鲤": 2589,
      "鲫": 2590,
      "鳅": 2591,
      "鳕": 2592,
      "鳖": 2593,
      "鳞": 2594,
      "鸟": 2595,
      "鸡": 2596,
      "鸣": 2597,
      "鸽": 2598,
      "鹅": 2599,
      "鹰": 2600,
      "鹿": 2601,
      "麝": 2602,
      "麟": 2603,
      "麦": 2604,
      "麸": 2605,
      "麻": 2606,
      "黄": 2607,
      "黎": 2608,
      "黏": 2609,
      "黑": 2610,
      "默": 2611,
      "鼓": 2612,
      "鼠": 2613,
      "鼻": 2614,
      "鼾": 2615,
      "齐": 2616,
      "齿": 2617,
      "龄": 2618,
      "龈": 2619,
      "龋": 2620,
      "龙": 2621,
      "龟": 2622,
      "％": 2623,
      "（": 2624,
      "）": 2625,
      "，": 2626,
      "：": 2627,
      "；": 2628,
      "？": 2629,
      "～": 2630,
      "可能": 2631,
      "治疗": 2632,
      "导致": 2633,
      "患者": 2634,
      "症状": 2635,
      "进行": 2636,
      "引起": 2637,
      "药物": 2638,
      "建议": 2639,
      "可以": 2640,
      "功能": 2641,
      "感染": 2642,
      "需要": 2643,
      "检查": 2644,
      "通过": 2645,
      "出现": 2646,
      "情况": 2647,
      "避免": 2648,
      "使用": 2649,
      "影响": 2650,
      "通常": 2651,
      "手术": 2652,
      "疾病": 2653,
      "注意": 2654,
      "及时": 2655,
      "医生": 2656,
      "引起的": 2657,
      "对于": 2658,
      "疼痛": 2659,
      "激素": 2660,
      "如果": 2661,
      "减少": 2662,
      "针对": 2663,
      "饮食": 2664,
      "发生": 2665,
      "存在": 2666,
      "定期": 2667,
      "从而": 2668,
      "由于": 2669,
      "生活": 2670,
      "异常": 2671,
      "炎症": 2672,
      "水平": 2673,
      "甲状": 2674,
      "可能会": 2675,
      "增加": 2676,
      "甲状腺": 2677,
      "就医": 2678,
      "保持": 2679,
      "运动": 2680,
      "包括": 2681,
      "时间": 2682,
      "心脏": 2683,
      "可能导致": 2684,
      "同时": 2685,
      "血糖": 2686,
      "子宫": 2687,
      "神经": 2688,
      "组织": 2689,
      "用于": 2690,
      "监测": 2691,
      "身体": 2692,
      "病情": 2693,
      "血压": 2694,
      "评估": 2695,
      "血液": 2696,
      "反应": 2697,
      "风险": 2698,
      "及时就医": 2699,
      "严重": 2700,
      "刺激": 2701,
      "食物": 2702,
      "缓解": 2703,
      "其他": 2704,
      "因素": 2705,
      "指导": 2706,
      "摄入": 2707,
      "以及": 2708,
      "促进": 2709,
      "恢复": 2710,
      "作用": 2711,
      "不适": 2712,
      "正常": 2713,
      "细胞": 2714,
      "助于": 2715,
      "有助于": 2716,
      "改善": 2717,
      "主要": 2718,
      "这些": 2719,
      "健康": 2720,
      "方法": 2721,
      "控制": 2722,
      "血管": 2723,
      "进而": 2724,
      "方式": 2725,
      "生素": 2726,
      "等症状": 2727,
      "系统": 2728,
      "变化": 2729,
      "分泌": 2730,
      "指导下": 2731,
      "因此": 2732,
      "是否": 2733,
      "损伤": 2734,
      "一种": 2735,
      "会导致": 2736,
      "的情况": 2737,
      "习惯": 2738,
      "医嘱": 2739,
      "过度": 2740,
      "免疫": 2741,
      "可能是": 2742,
      "病毒": 2743,
      "关节": 2744,
      "好的": 2745,
      "的症状": 2746,
      "局部": 2747,
      "加重": 2748,
      "肌肉": 2749,
      "处理": 2750,
      "原因": 2751,
      "持续": 2752,
      "以免": 2753,
      "形成": 2754,
      "适当": 2755,
      "考虑": 2756,
      "此外": 2757,
      "结石": 2758,
      "出血": 2759,
      "代谢": 2760,
      "调整": 2761,
      "降低": 2762,
      "医生指导下": 2763,
      "蛋白": 2764,
      "脂肪": 2765,
      "诊断": 2766,
      "问题": 2767,
      "呼吸": 2768,
      "服用": 2769,
      "良好的": 2770,
      "长期": 2771,
      "进行治疗": 2772,
      "什么": 2773,
      "内膜": 2774,
      "表现": 2775,
      "动脉": 2776,
      "尿道": 2777,
      "此时": 2778,
      "细菌": 2779,
      "产生": 2780,
      "减肥": 2781,
      "专业": 2782,
      "因为": 2783,
      "的治疗": 2784,
      "效果": 2785,
      "体内": 2786,
      "建议患者": 2787,
      "疗法": 2788,
      "在医生指导下": 2789,
      "伴有": 2790,
      "营养": 2791,
      "保持良好的": 2792,
      "具体": 2793,
      "状态": 2794,
      "发育": 2795,
      "减轻": 2796,
      "并发": 2797,
      "是一种": 2798,
      "检测": 2799,
      "前列": 2800,
      "超声": 2801,
      "前列腺": 2802,
      "并发症": 2803,
      "现象": 2804,
      "膀胱": 2805,
      "子宫内膜": 2806,
      "抗生素": 2807,
      "困难": 2808,
      "障碍": 2809,
      "食用": 2810,
      "抑制": 2811,
      "结构": 2812,
      "发现": 2813,
      "皮肤": 2814,
      "确保": 2815,
      "措施": 2816,
      "适量": 2817,
      "导致的": 2818,
      "具有": 2819,
      "糖尿": 2820,
      "糖尿病": 2821,
      "激素水平": 2822,
      "切除": 2823,
      "怀孕": 2824,
      "患者应": 2825,
      "遵医嘱": 2826,
      "建议定期": 2827,
      "必要": 2828,
      "引发": 2829,
      "适用于": 2830,
      "体重": 2831,
      "预防": 2832,
      "胎儿": 2833,
      "心肌": 2834,
      "不适症状": 2835,
      "一定": 2836,
      "的风险": 2837,
      "循环": 2838,
      "炎症反应": 2839,
      "休息": 2840,
      "压力": 2841,
      "增生": 2842,
      "相关": 2843,
      "怎么": 2844,
      "剧烈": 2845,
      "肿瘤": 2846,
      "避免过度": 2847,
      "阴道": 2848,
      "的发生": 2849,
      "以减少": 2850,
      "下降": 2851,
      "活动": 2852,
      "过程": 2853,
      "腹部": 2854,
      "一般": 2855,
      "根据": 2856,
      "一步": 2857,
      "宫颈": 2858,
      "进一步": 2859,
      "是指": 2860,
      "期间": 2861,
      "月经": 2862,
      "等药物": 2863,
      "以便": 2864,
      "机体": 2865,
      "慢性": 2866,
      "生长": 2867,
      "有效": 2868,
      "能够": 2869,
      "静脉": 2870,
      "或其他": 2871,
      "不良": 2872,
      "状况": 2873,
      "孕妇": 2874,
      "均衡": 2875,
      "中的": 2876,
      "术后": 2877,
      "肝脏": 2878,
      "过敏": 2879,
      "升高": 2880,
      "病变": 2881,
      "药物治疗": 2882,
      "水肿": 2883,
      "这种": 2884,
      "物质": 2885,
      "口服": 2886,
      "高血压": 2887,
      "个体": 2888,
      "患者的": 2889,
      "生活习惯": 2890,
      "日常": 2891,
      "以评估": 2892,
      "消化": 2893,
      "观察": 2894,
      "胶囊": 2895,
      "个人": 2896,
      "复查": 2897,
      "综合": 2898,
      "选择": 2899,
      "生活方式": 2900,
      "中药": 2901,
      "所致": 2902,
      "血液循环": 2903,
      "伴随": 2904,
      "压迫": 2905,
      "应注意": 2906,
      "受到": 2907,
      "会引起": 2908,
      "无法": 2909,
      "女性": 2910,
      "是由于": 2911,
      "周围": 2912,
      "收缩": 2913,
      "充足": 2914,
      "卫生": 2915,
      "或者": 2916,
      "表现为": 2917,
      "肠道": 2918,
      "甲状腺功能": 2919,
      "部位": 2920,
      "00": 2921,
      "调节": 2922,
      "接受": 2923,
      "睡眠": 2924,
      "结核": 2925,
      "纤维": 2926,
      "维生素": 2927,
      "黏膜": 2928,
      "可能出现": 2929,
      "输卵": 2930,
      "注射": 2931,
      "输卵管": 2932,
      "程度": 2933,
      "有关": 2934,
      "针对性": 2935,
      "不能": 2936,
      "提高": 2937,
      "遵循": 2938,
      "受损": 2939,
      "明显": 2940,
      "建议患者及时就医": 2941,
      "囊肿": 2942,
      "咨询": 2943,
      "呕吐": 2944,
      "是由": 2945,
      "的患者": 2946,
      "遗传": 2947,
      "采取": 2948,
      "辅助": 2949,
      "减退": 2950,
      "胰岛": 2951,
      "确定": 2952,
      "调理": 2953,
      "轻度": 2954,
      "不足": 2955,
      "卵巢": 2956,
      "剧烈运动": 2957,
      "合成": 2958,
      "排尿": 2959,
      "淋巴": 2960,
      "原体": 2961,
      "头孢": 2962,
      "含有": 2963,
      "潜在": 2964,
      "必要时": 2965,
      "进行针对性": 2966,
      "多种": 2967,
      "自身": 2968,
      "规律": 2969,
      "达到": 2970,
      "可能需要": 2971,
      "日常生活": 2972,
      "急性": 2973,
      "抗炎": 2974,
      "差异": 2975,
      "患者可": 2976,
      "和治疗": 2977,
      "乳腺": 2978,
      "排出": 2979,
      "的现象": 2980,
      "个人卫生": 2981,
      "狭窄": 2982,
      "从而引起": 2983,
      "例如": 2984,
      "直接": 2985,
      "片等": 2986,
      "硬化": 2987,
      "内分泌": 2988,
      "过多": 2989,
      "建议进行": 2990,
      "造成": 2991,
      "如果患者": 2992,
      "可以通过": 2993,
      "能力": 2994,
      "保持良好的生活习惯": 2995,
      "睾丸": 2996,
      "补充": 2997,
      "尿液": 2998,
      "恶心": 2999,
      "针灸": 3000,
      "发热": 3001,
      "应避免": 3002,
      "妊娠": 3003,
      "病情变化": 3004,
      "上述": 3005,
      "孩子": 3006,
      "定期复查": 3007,
      "进行针对性治疗": 3008,
      "等疾病": 3009,
      "不会": 3010,
      "没有": 3011,
      "呼吸困难": 3012,
      "愈合": 3013,
      "干预": 3014,
      "的食物": 3015,
      "瘙痒": 3016,
      "肿胀": 3017,
      "长时间": 3018,
      "适合": 3019,
      "精子": 3020,
      "骨折": 3021,
      "均衡饮食": 3022,
      "紊乱": 3023,
      "伤口": 3024,
      "孕期": 3025,
      "在医生指导下使用": 3026,
      "帮助": 3027,
      "劳累": 3028,
      "某些": 3029,
      "明确": 3030,
      "可通过": 3031,
      "腹痛": 3032,
      "病因": 3033,
      "一定的": 3034,
      "是什么": 3035,
      "日常生活中": 3036,
      "方案": 3037,
      "早期": 3038,
      "增多": 3039,
      "肛门": 3040,
      "增强": 3041,
      "生殖": 3042,
      "人群": 3043,
      "以免加重": 3044,
      "咳嗽": 3045,
      "肝炎": 3046,
      "胰岛素": 3047,
      "扩张": 3048,
      "是否存在": 3049,
      "根据具体": 3050,
      "的作用": 3051,
      "管理": 3052,
      "利于": 3053,
      "诱发": 3054,
      "重要": 3055,
      "建议及时就医": 3056,
      "通常在": 3057,
      "性疾病": 3058,
      "尿频": 3059,
      "密切": 3060,
      "等方法": 3061,
      "可能会导致": 3062,
      "增高": 3063,
      "个体差异": 3064,
      "吸收": 3065,
      "结节": 3066,
      "而异": 3067,
      "固醇": 3068,
      "性的": 3069,
      "综合征": 3070,
      "常见": 3071,
      "特殊": 3072,
      "过程中": 3073,
      "负担": 3074,
      "冠状": 3075,
      "医生的": 3076,
      "可能是由": 3077,
      "获得": 3078,
      "质量": 3079,
      "常规": 3080,
      "类药物": 3081,
      "血糖水平": 3082,
      "适当的": 3083,
      "接触": 3084,
      "以确定": 3085,
      "可能与": 3086,
      "患者可以": 3087,
      "医师": 3088,
      "是因为": 3089,
      "稳定": 3090,
      "疲劳": 3091,
      "儿童": 3092,
      "甚至": 3093,
      "冠状动脉": 3094,
      "改变": 3095,
      "避免过度劳累": 3096,
      "热量": 3097,
      "病毒感染": 3098,
      "合理": 3099,
      "心血管": 3100,
      "正常的": 3101,
      "超声波": 3102,
      "肾脏": 3103,
      "功能障碍": 3104,
      "甾体": 3105,
      "遵医嘱使用": 3106,
      "抗炎药": 3107,
      "区域": 3108,
      "头痛": 3109,
      "非甾体": 3110,
      "属于": 3111,
      "副作用": 3112,
      "特定": 3113,
      "需注意": 3114,
      "需根据具体": 3115,
      "相应": 3116,
      "及时发现": 3117,
      "神经系统": 3118,
      "发性": 3119,
      "水分": 3120,
      "定期监测": 3121,
      "决于": 3122,
      "取决于": 3123,
      "皮质": 3124,
      "腹腔": 3125,
      "会出现": 3126,
      "肥胖": 3127,
      "肿大": 3128,
      "可以考虑": 3129,
      "容易": 3130,
      "心理": 3131,
      "的是": 3132,
      "治疗措施": 3133,
      "应及时就医": 3134,
      "结合": 3135,
      "息肉": 3136,
      "训练": 3137,
      "发展": 3138,
      "失调": 3139,
      "轻微": 3140,
      "血脂": 3141,
      "霉素": 3142,
      "之间": 3143,
      "抗生素治疗": 3144,
      "敏感": 3145,
      "积液": 3146,
      "维持": 3147,
      "部分": 3148,
      "关注": 3149,
      "电解": 3150,
      "电解质": 3151,
      "支持": 3152,
      "任何": 3153,
      "常用": 3154,
      "采用": 3155,
      "较大": 3156,
      "胆固醇": 3157,
      "逐渐": 3158,
      "可用于": 3159,
      "避免剧烈运动": 3160,
      "要注意": 3161,
      "紧张": 3162,
      "肝功能": 3163,
      "富含": 3164,
      "腹泻": 3165,
      "分泌物": 3166,
      "充足的": 3167,
      "非甾体抗炎药": 3168,
      "平衡": 3169,
      "环境": 3170,
      "肾功能": 3171,
      "淋巴结": 3172,
      "偏高": 3173,
      "先天": 3174,
      "康复": 3175,
      "心悸": 3176,
      "明确诊断": 3177,
      "严重的": 3178,
      "堵塞": 3179,
      "男性": 3180,
      "手段": 3181,
      "结果": 3182,
      "葡萄": 3183,
      "遵循医嘱": 3184,
      "以确保": 3185,
      "修复": 3186,
      "血症": 3187,
      "分析": 3188,
      "建议定期进行": 3189,
      "衰竭": 3190,
      "手术切除": 3191,
      "病原体": 3192,
      "蛋白质": 3193,
      "杆菌": 3194,
      "肾上": 3195,
      "全身": 3196,
      "成分": 3197,
      "排除": 3198,
      "生理": 3199,
      "潜在的": 3200,
      "肾上腺": 3201,
      "监测病情变化": 3202,
      "CT": 3203,
      "洛芬": 3204,
      "位置": 3205,
      "妇科": 3206,
      "安全": 3207,
      "沙星": 3208,
      "情况下": 3209,
      "适量运动": 3210,
      "价格": 3211,
      "干燥": 3212,
      "细菌感染": 3213,
      "利用": 3214,
      "梗阻": 3215,
      "剂量": 3216,
      "处于": 3217,
      "食欲": 3218,
      "行为": 3219,
      "扫描": 3220,
      "超声波检查": 3221,
      "严重时": 3222,
      "布洛芬": 3223,
      "因素进行针对性治疗": 3224,
      "的人群": 3225,
      "需根据具体因素进行针对性治疗": 3226,
      "定期进行": 3227,
      "疫苗": 3228,
      "大量": 3229,
      "的影响": 3230,
      "红肿": 3231,
      "心率": 3232,
      "曲张": 3233,
      "用药": 3234,
      "同时注意": 3235,
      "增大": 3236,
      "尿管": 3237,
      "排卵": 3238,
      "发生在": 3239,
      "切除术": 3240,
      "清洁": 3241,
      "泌尿": 3242,
      "亢进": 3243,
      "异位": 3244,
      "周期": 3245,
      "浓度": 3246,
      "等引起的": 3247,
      "锻炼": 3248,
      "进而影响": 3249,
      "不同": 3250,
      "乳房": 3251,
      "特别": 3252,
      "目的": 3253,
      "甲状腺激素": 3254,
      "中度": 3255,
      "输尿管": 3256,
      "加剧": 3257,
      "提供": 3258,
      "胸部": 3259,
      "贫血": 3260,
      "尤其": 3261,
      "指标": 3262,
      "膳食": 3263,
      "受体": 3264,
      "尿路": 3265,
      "可能包括": 3266,
      "静脉曲张": 3267,
      "有利于": 3268,
      "确诊": 3269,
      "不全": 3270,
      "生育": 3271,
      "等问题": 3272,
      "胸痛": 3273,
      "虽然": 3274,
      "会影响": 3275,
      "通常需要": 3276,
      "外伤": 3277,
      "症状持续": 3278,
      "需要注意": 3279,
      "中药调理": 3280,
      "超声检查": 3281,
      "缺乏": 3282,
      "垂体": 3283,
      "阴囊": 3284,
      "心动": 3285,
      "痉挛": 3286,
      "在专业": 3287,
      "结肠": 3288,
      "肾结石": 3289,
      "西林": 3290,
      "绞痛": 3291,
      "肌瘤": 3292,
      "因子": 3293,
      "恶性": 3294,
      "疾病的": 3295,
      "孕酮": 3296,
      "立即": 3297,
      "进展": 3298,
      "颗粒": 3299,
      "体检": 3300,
      "操作": 3301,
      "阴茎": 3302,
      "尤其是": 3303,
      "体积": 3304,
      "手术治疗": 3305,
      "则需要": 3306,
      "年龄": 3307,
      "过量": 3308,
      "个月": 3309,
      "则需": 3310,
      "莫西林": 3311,
      "阿莫西林": 3312,
      "完全": 3313,
      "微创": 3314,
      "可能是由于": 3315,
      "以促进": 3316,
      "器官": 3317,
      "医疗": 3318,
      "复杂": 3319,
      "范围": 3320,
      "酒精": 3321,
      "频繁": 3322,
      "个人卫生习惯": 3323,
      "大小": 3324,
      "尿急": 3325,
      "类型": 3326,
      "葡萄糖": 3327,
      "并接受": 3328,
      "盐酸": 3329,
      "进入": 3330,
      "并且": 3331,
      "氨基": 3332,
      "下肢": 3333,
      "流产": 3334,
      "缓解症状": 3335,
      "等情况": 3336,
      "可能会出现": 3337,
      "多囊": 3338,
      "本品": 3339,
      "胸闷": 3340,
      "进而引发": 3341,
      "建议定期监测": 3342,
      "的一种": 3343,
      "发作": 3344,
      "较高": 3345,
      "情绪": 3346,
      "缓释": 3347,
      "雌激素": 3348,
      "免疫系统": 3349,
      "临床": 3350,
      "盆腔": 3351,
      "先天性": 3352,
      "学检查": 3353,
      "小时": 3354,
      "肺部": 3355,
      "可能伴随": 3356,
      "需要注意的是": 3357,
      "传播": 3358,
      "宝宝": 3359,
      "波动": 3360,
      "可能影响": 3361,
      "不宜": 3362,
      "关键": 3363,
      "坏死": 3364,
      "空腹": 3365,
      "不需要": 3366,
      "等方式": 3367,
      "摄入量": 3368,
      "传染": 3369,
      "止痛": 3370,
      "这些症状": 3371,
      "健康的": 3372,
      "位于": 3373,
      "感觉": 3374,
      "技术": 3375,
      "放射": 3376,
      "主动脉": 3377,
      "并处理": 3378,
      "的方式": 3379,
      "胚胎": 3380,
      "便秘": 3381,
      "准确": 3382,
      "胃肠道": 3383,
      "至中度": 3384,
      "刺激性": 3385,
      "不孕": 3386,
      "包皮": 3387,
      "能量": 3388,
      "较低": 3389,
      "头孢克": 3390,
      "中枢": 3391,
      "心律": 3392,
      "感到": 3393,
      "焦虑": 3394,
      "突出": 3395,
      "自愈": 3396,
      "心脏病": 3397,
      "延长": 3398,
      "随着": 3399,
      "干扰": 3400,
      "新陈": 3401,
      "遗传因素": 3402,
      "腹腔镜": 3403,
      "新陈代谢": 3404,
      "表明": 3405,
      "破裂": 3406,
      "相对": 3407,
      "膜炎": 3408,
      "饮食习惯": 3409,
      "是否有": 3410,
      "为了": 3411,
      "回事": 3412,
      "对于存在": 3413,
      "中含有": 3414,
      "精索": 3415,
      "自行": 3416,
      "手术后": 3417,
      "关节炎": 3418,
      "的治疗方法": 3419,
      "乏力": 3420,
      "抗体": 3421,
      "的变化": 3422,
      "配合": 3423,
      "不适感": 3424,
      "这种情况": 3425,
      "作为": 3426,
      "家长": 3427,
      "消耗": 3428,
      "生物": 3429,
      "甲状腺功能亢进": 3430,
      "影像": 3431,
      "相关检查": 3432,
      "婴儿": 3433,
      "自身免疫": 3434,
      "有时": 3435,
      "氟沙星": 3436,
      "同时还": 3437,
      "进食": 3438,
      "但是": 3439,
      "精神": 3440,
      "充血": 3441,
      "替代": 3442,
      "造影": 3443,
      "保证": 3444,
      "松弛": 3445,
      "直肠": 3446,
      "健康状况": 3447,
      "受孕": 3448,
      "合适": 3449,
      "治愈": 3450,
      "畸形": 3451,
      "饮酒": 3452,
      "前列腺炎": 3453,
      "诊断和治疗": 3454,
      "怎么回事": 3455,
      "产后": 3456,
      "大脑": 3457,
      "以便及时发现": 3458,
      "医院": 3459,
      "心跳": 3460,
      "来改善": 3461,
      "的功能": 3462,
      "利尿": 3463,
      "精管": 3464,
      "因人": 3465,
      "黄体": 3466,
      "排便": 3467,
      "旨在": 3468,
      "的目的": 3469,
      "较小": 3470,
      "阳性": 3471,
      "身体恢复": 3472,
      "不良反应": 3473,
      "因人而异": 3474,
      "体外": 3475,
      "测定": 3476,
      "这些疾病": 3477,
      "周围组织": 3478,
      "染色": 3479,
      "若患者": 3480,
      "费用": 3481,
      "骨骼": 3482,
      "月经周期": 3483,
      "咨询医生": 3484,
      "心室": 3485,
      "负荷": 3486,
      "CT扫描": 3487,
      "外科": 3488,
      "并注意": 3489,
      "椎间": 3490,
      "高血糖": 3491,
      "以免影响": 3492,
      "膳食纤维": 3493,
      "之一": 3494,
      "等因素": 3495,
      "恢复时间": 3496,
      "乙肝": 3497,
      "力衰竭": 3498,
      "心力衰竭": 3499,
      "起到": 3500,
      "泌尿系统": 3501,
      "增长": 3502,
      "所以": 3503,
      "气管": 3504,
      "良性": 3505,
      "避孕": 3506,
      "可能伴有": 3507,
      "受阻": 3508,
      "粥样": 3509,
      "输精管": 3510,
      "尿道口": 3511,
      "保持良好的个人卫生习惯": 3512,
      "较为": 3513,
      "瓣膜": 3514,
      "软骨": 3515,
      "特别是": 3516,
      "涉及": 3517,
      "物理": 3518,
      "的时间": 3519,
      "颅内": 3520,
      "有助于改善": 3521,
      "遵医嘱服用": 3522,
      "是什么原因": 3523,
      "头孢克肟": 3524,
      "丰富": 3525,
      "功效": 3526,
      "氧氟沙星": 3527,
      "子宫内膜异位": 3528,
      "不建议": 3529,
      "意见": 3530,
      "穿刺": 3531,
      "释放": 3532,
      "防止": 3533,
      "甲亢": 3534,
      "呼吸道": 3535,
      "医师指导下": 3536,
      "夜间": 3537,
      "按摩": 3538,
      "速度": 3539,
      "粥样硬化": 3540,
      "免疫力": 3541,
      "必要的": 3542,
      "多久": 3543,
      "左氧氟沙星": 3544,
      "片等药物": 3545,
      "穴位": 3546,
      "胃肠": 3547,
      "适量食用": 3548,
      "怎么办": 3549,
      "型肝炎": 3550,
      "来说": 3551,
      "这些因素": 3552,
      "子宫内膜异位症": 3553,
      "或伴有": 3554,
      "肚子": 3555,
      "患者可在医生指导下使用": 3556,
      "保护": 3557,
      "阻塞": 3558,
      "进而引起": 3559,
      "伤口愈合": 3560,
      "MR": 3561,
      "勃起": 3562,
      "生活方式干预": 3563,
      "快速": 3564,
      "染色体": 3565,
      "活性": 3566,
      "治疗方法": 3567,
      "以获得": 3568,
      "供血": 3569,
      "此方法": 3570,
      "超过": 3571,
      "药物如": 3572,
      "MRI": 3573,
      "加快": 3574,
      "的主要": 3575,
      "该药物": 3576,
      "常见的": 3577,
      "可能性": 3578,
      "血流": 3579,
      "咨询专业": 3580,
      "皮质激素": 3581,
      "以排除": 3582,
      "在治疗": 3583,
      "溃疡": 3584,
      "抗感染": 3585,
      "软组织": 3586,
      "食品": 3587,
      "食管": 3588,
      "密度": 3589,
      "经皮": 3590,
      "含量": 3591,
      "并不能": 3592,
      "抗病毒": 3593,
      "可能会影响": 3594,
      "身体健康": 3595,
      "外敷": 3596,
      "患有": 3597,
      "等原因": 3598,
      "附睾": 3599,
      "平滑": 3600,
      "炎症因子": 3601,
      "或加重": 3602,
      "缺血": 3603,
      "元素": 3604,
      "基因": 3605,
      "心绞痛": 3606,
      "通过抑制": 3607,
      "主要用于": 3608,
      "胶囊等": 3609,
      "支气管": 3610,
      "积极": 3611,
      "患者需要": 3612,
      "调整饮食": 3613,
      "微创手术": 3614,
      "在使用": 3615,
      "损害": 3616,
      "电图": 3617,
      "辛辣": 3618,
      "生殖系统": 3619,
      "的正常": 3620,
      "血栓": 3621,
      "身体状况": 3622,
      "平时": 3623,
      "真菌": 3624,
      "疼痛和": 3625,
      "膀胱炎": 3626,
      "反流": 3627,
      "风湿": 3628,
      "从而引发": 3629,
      "椎间盘": 3630,
      "伤风": 3631,
      "应尽": 3632,
      "性功能": 3633,
      "水痘": 3634,
      "破伤风": 3635,
      "骨质": 3636,
      "平滑肌": 3637,
      "人体": 3638,
      "影像学检查": 3639,
      "受精": 3640,
      "才能": 3641,
      "颜色": 3642,
      "子宫肌瘤": 3643,
      "多囊卵巢": 3644,
      "产妇": 3645,
      "液体": 3646,
      "从而影响": 3647,
      "丰富的": 3648,
      "性生活": 3649,
      "病理": 3650,
      "有助于促进": 3651,
      "过敏反应": 3652,
      "燕麦": 3653,
      "生活方式调整": 3654,
      "早期发现": 3655,
      "心血管疾病": 3656,
      "上升": 3657,
      "作息": 3658,
      "典型": 3659,
      "肾小": 3660,
      "以减轻": 3661,
      "的药物": 3662,
      "谨慎": 3663,
      "适当治疗": 3664,
      "乙酰": 3665,
      "外阴": 3666,
      "失常": 3667,
      "激光": 3668,
      "盆底": 3669,
      "尿道炎": 3670,
      "可能出现的": 3671,
      "mm": 3672,
      "中医": 3673,
      "难以": 3674,
      "通常由": 3675,
      "以上": 3676,
      "家族": 3677,
      "不当": 3678,
      "内的": 3679,
      "和疼痛": 3680,
      "所有": 3681,
      "等不适症状": 3682,
      "摄入过多": 3683,
      "生长发育": 3684,
      "饮食和": 3685,
      "000": 3686,
      "X线": 3687,
      "抽脂": 3688,
      "接种": 3689,
      "氧化": 3690,
      "排尿困难": 3691,
      "他汀": 3692,
      "传导": 3693,
      "即可": 3694,
      "羊水": 3695,
      "颈椎": 3696,
      "可以进行": 3697,
      "避免食用": 3698,
      "兴奋": 3699,
      "毒素": 3700,
      "氨酶": 3701,
      "繁殖": 3702,
      "胆管": 3703,
      "表面": 3704,
      "转氨酶": 3705,
      "量减少": 3706,
      "麻醉": 3707,
      "主要针对": 3708,
      "孩子的": 3709,
      "也可能": 3710,
      "侵入": 3711,
      "卵泡": 3712,
      "小儿": 3713,
      "肿块": 3714,
      "以免引起": 3715,
      "不畅": 3716,
      "宫腔": 3717,
      "测试": 3718,
      "肝硬化": 3719,
      "需求": 3720,
      "验室": 3721,
      "对于有": 3722,
      "缓解不适症状": 3723,
      "精索静脉曲张": 3724,
      "出汗": 3725,
      "应立即": 3726,
      "膝关节": 3727,
      "阻滞": 3728,
      "降压": 3729,
      "如果症状持续": 3730,
      "心律失常": 3731,
      "制定": 3732,
      "所致的": 3733,
      "计划": 3734,
      "镇痛": 3735,
      "内分泌失调": 3736,
      "妊娠期": 3737,
      "着床": 3738,
      "颈部": 3739,
      "等方法进行治疗": 3740,
      "头晕": 3741,
      "注射液": 3742,
      "医生的意见": 3743,
      "不育": 3744,
      "基础": 3745,
      "完成": 3746,
      "胀痛": 3747,
      "胸膜": 3748,
      "病情进展": 3749,
      "正常范围": 3750,
      "失衡": 3751,
      "护理": 3752,
      "牛奶": 3753,
      "超声心动": 3754,
      "体重下降": 3755,
      "超声心动图": 3756,
      "以监测病情变化": 3757,
      "囊炎": 3758,
      "球蛋白": 3759,
      "脂蛋白": 3760,
      "恢复正常": 3761,
      "恶心呕吐": 3762,
      "供应": 3763,
      "吃什么": 3764,
      "破坏": 3765,
      "如果患者存在": 3766,
      "化疗": 3767,
      "可导致": 3768,
      "实验室": 3769,
      "的效果": 3770,
      "保持规律": 3771,
      "胎儿的": 3772,
      "常用药物": 3773,
      "吸烟": 3774,
      "突然": 3775,
      "治疗方案": 3776,
      "炎症刺激": 3777,
      "严重程度": 3778,
      "心肌炎": 3779,
      "尿路感染": 3780,
      "原发性": 3781,
      "引流": 3782,
      "术等": 3783,
      "比较": 3784,
      "源性": 3785,
      "粘连": 3786,
      "治疗措施包括": 3787,
      "妇科检查": 3788,
      "清洁干燥": 3789,
      "合物": 3790,
      "孕激素": 3791,
      "功能紊乱": 3792,
      "从而出现": 3793,
      "体内的": 3794,
      "不规律": 3795,
      "分钟": 3796,
      "增厚": 3797,
      "对乙酰": 3798,
      "食欲减退": 3799,
      "重度": 3800,
      "糖尿病患者": 3801,
      "各种": 3802,
      "精液": 3803,
      "以确定具体": 3804,
      "氨基酚": 3805,
      "对乙酰氨基酚": 3806,
      "乙型肝炎": 3807,
      "使得": 3808,
      "快就医": 3809,
      "痔疮": 3810,
      "集中": 3811,
      "异常情况": 3812,
      "因个体差异": 3813,
      "转移": 3814,
      "通常发生在": 3815,
      "适当的治疗": 3816,
      "选择合适": 3817,
      "辅助治疗": 3818,
      "针灸治疗": 3819,
      "水分摄入": 3820,
      "也会": 3821,
      "左右": 3822,
      "潴留": 3823,
      "从而导致": 3824,
      "适用于轻度": 3825,
      "等药物进行治疗": 3826,
      "开始": 3827,
      "无需": 3828,
      "比如": 3829,
      "甘油": 3830,
      "移植": 3831,
      "而言": 3832,
      "侵犯": 3833,
      "加速": 3834,
      "反复": 3835,
      "已经": 3836,
      "的方法": 3837,
      "明显的": 3838,
      "供血不足": 3839,
      "支原体": 3840,
      "从而达到": 3841,
      "成像": 3842,
      "站立": 3843,
      "医生可能会": 3844,
      "适合于": 3845,
      "乳头": 3846,
      "体温": 3847,
      "糖皮质激素": 3848,
      "紧急": 3849,
      "钙化": 3850,
      "椎间盘突出": 3851,
      "停止": 3852,
      "敏感性": 3853,
      "恶性肿瘤": 3854,
      "调整饮食结构": 3855,
      "暂时": 3856,
      "毛细": 3857,
      "可能引起": 3858,
      "阴道出血": 3859,
      "充足睡眠": 3860,
      "毛细血管": 3861,
      "初期": 3862,
      "力量": 3863,
      "固酮": 3864,
      "的可能性": 3865,
      "抑制剂": 3866,
      "甲状腺功能减退": 3867,
      "单纯": 3868,
      "可考虑": 3869,
      "堆积": 3870,
      "心电图": 3871,
      "蠕动": 3872,
      "持续性": 3873,
      "多少": 3874,
      "足够": 3875,
      "维生素B": 3876,
      "密切监测": 3877,
      "缓释胶囊": 3878,
      "冷敷": 3879,
      "这是因为": 3880,
      "醛固酮": 3881,
      "韧带": 3882,
      "饮食调整": 3883,
      "局部组织": 3884,
      "地平": 3885,
      "摩擦": 3886,
      "的表现": 3887,
      "餐后": 3888,
      "出现在": 3889,
      "以监测": 3890,
      "低血糖": 3891,
      "小孩": 3892,
      "应考虑": 3893,
      "得到": 3894,
      "致病": 3895,
      "足部": 3896,
      "在医生指导下服用": 3897,
      "避免过度劳累和": 3898,
      "化合物": 3899,
      "梗死": 3900,
      "缺氧": 3901,
      "脱落": 3902,
      "腰部": 3903,
      "可以促进": 3904,
      "密切观察": 3905,
      "行为疗法": 3906,
      "利尿剂": 3907,
      "回流": 3908,
      "并采取": 3909,
      "患处": 3910,
      "更为": 3911,
      "高糖": 3912,
      "意思": 3913,
      "晕厥": 3914,
      "肠溶": 3915,
      "药物进行治疗": 3916,
      "保持充足的": 3917,
      "形成的": 3918,
      "状态下": 3919,
      "会刺激": 3920,
      "固定": 3921,
      "大便": 3922,
      "酸钠": 3923,
      "可能表明": 3924,
      "心脏负荷": 3925,
      "中药外敷": 3926,
      "甲状腺功能亢进症": 3927,
      "低下": 3928,
      "哺乳": 3929,
      "抵抗": 3930,
      "清除": 3931,
      "的重要": 3932,
      "脓肿": 3933,
      "血脂水平": 3934,
      "并接受适当治疗": 3935,
      "刺激性食物": 3936,
      "工作": 3937,
      "开放": 3938,
      "肝细胞": 3939,
      "血常规": 3940,
      "介入": 3941,
      "发挥": 3942,
      "患儿": 3943,
      "是怎么回事": 3944,
      "溶液": 3945,
      "腺炎": 3946,
      "试管": 3947,
      "镜下": 3948,
      "评估和治疗": 3949,
      "降低血压": 3950,
      "维生素D": 3951,
      "潜在的问题": 3952,
      "类型的": 3953,
      "抗感染治疗": 3954,
      "10": 3955,
      "分娩": 3956,
      "前检查": 3957,
      "来缓解": 3958,
      "高脂": 3959,
      "上述症状": 3960,
      "冠状动脉粥样硬化": 3961,
      "替代疗法": 3962,
      "下腹部": 3963,
      "体质": 3964,
      "并不": 3965,
      "然而": 3966,
      "自然": 3967,
      "较好的": 3968,
      "应尽快就医": 3969,
      "多囊卵巢综合征": 3970,
      "热敷": 3971,
      "血尿": 3972,
      "过高": 3973,
      "饮用": 3974,
      "减肥吗": 3975,
      "来评估": 3976,
      "红素": 3977,
      "胆汁": 3978,
      "可能存在": 3979,
      "通常采用": 3980,
      "也有助于": 3981,
      "实现": 3982,
      "项目": 3983,
      "可能表现为": 3984,
      "控制病情": 3985,
      "特殊处理": 3986,
      "伐他汀": 3987,
      "应及时": 3988,
      "的关键": 3989,
      "肝病": 3990,
      "遵照": 3991,
      "症状包括": 3992,
      "的原因": 3993,
      "间接": 3994,
      "阻断": 3995,
      "子宫内膜炎": 3996,
      "密度脂蛋白": 3997,
      "以防": 3998,
      "减弱": 3999,
      "离子": 4000,
      "系列": 4001,
      "除了": 4002,
      "血液中的": 4003,
      "的情况发生": 4004,
      "前列腺增生": 4005,
      "淋巴结肿大": 4006,
      "一系列": 4007,
      "冠脉": 4008,
      "喝水": 4009,
      "扩散": 4010,
      "腹胀": 4011,
      "频率": 4012,
      "复杂的": 4013,
      "中枢神经系统": 4014,
      "因个体差异而异": 4015,
      "多的": 4016,
      "曲松": 4017,
      "发育异常": 4018,
      "消化道": 4019,
      "头孢曲松": 4020,
      "B超": 4021,
      "卵子": 4022,
      "在日常生活中": 4023,
      "沉积": 4024,
      "球菌": 4025,
      "的感觉": 4026,
      "矿物质": 4027,
      "可以帮助": 4028,
      "具有一定的": 4029,
      "布洛芬缓释胶囊": 4030,
      "以确定具体原因": 4031,
      "刺痛": 4032,
      "培养": 4033,
      "环丙": 4034,
      "肺结核": 4035,
      "胆红素": 4036,
      "腿部": 4037,
      "健康问题": 4038,
      "是否需要": 4039,
      "生育能力": 4040,
      "但如果": 4041,
      "切口": 4042,
      "和其他": 4043,
      "或存在": 4044,
      "方面": 4045,
      "有益": 4046,
      "洛尔": 4047,
      "雄激素": 4048,
      "用于治疗": 4049,
      "进而出现": 4050,
      "前列腺素": 4051,
      "足够的": 4052,
      "内科": 4053,
      "内部": 4054,
      "在进行": 4055,
      "如有": 4056,
      "性肝炎": 4057,
      "氨酸": 4058,
      "股沟": 4059,
      "腹股沟": 4060,
      "镜检查": 4061,
      "阑尾": 4062,
      "生活质量": 4063,
      "血糖高": 4064,
      "主要是": 4065,
      "局部血液循环": 4066,
      "患者应注意": 4067,
      "部位的": 4068,
      "三酯": 4069,
      "关重要": 4070,
      "分枝": 4071,
      "合并": 4072,
      "至关重要": 4073,
      "转化": 4074,
      "饮食疗法": 4075,
      "的情况下": 4076,
      "受精卵": 4077,
      "甘油三酯": 4078,
      "分枝杆菌": 4079,
      "人工": 4080,
      "压增高": 4081,
      "同房": 4082,
      "在接受": 4083,
      "射精": 4084,
      "放松": 4085,
      "进行调理": 4086,
      "建议定期复查": 4087,
      "NA": 4088,
      "上皮": 4089,
      "性心脏病": 4090,
      "抗甲状腺": 4091,
      "肾病": 4092,
      "黄疸": 4093,
      "甲状腺素": 4094,
      "结核分枝杆菌": 4095,
      "一个": 4096,
      "气血": 4097,
      "活检": 4098,
      "碳水": 4099,
      "感染风险": 4100,
      "体内激素水平": 4101,
      "建议及时就医进行": 4102,
      "炎症因子刺激": 4103,
      "昔布": 4104,
      "有氧": 4105,
      "栓塞": 4106,
      "膝盖": 4107,
      "血清": 4108,
      "过于": 4109,
      "都可能导致": 4110,
      "高脂肪": 4111,
      "如果孕妇": 4112,
      "可能会引起": 4113,
      "脂肪堆积": 4114,
      "心动过": 4115,
      "集中在": 4116,
      "乳膏": 4117,
      "元之间": 4118,
      "可遵医嘱使用": 4119,
      "并遵循医嘱": 4120,
      "缺陷": 4121,
      "草酸": 4122,
      "限制": 4123,
      "进行抗感染治疗": 4124,
      "避免长时间": 4125,
      "通常包括": 4126,
      "碳水化合物": 4127,
      "侵袭": 4128,
      "其中": 4129,
      "动症": 4130,
      "在医师指导下": 4131,
      "抗菌": 4132,
      "提及": 4133,
      "无力": 4134,
      "酸钾": 4135,
      "饮水": 4136,
      "营养物质": 4137,
      "体重增加": 4138,
      "进一步的": 4139,
      "以便及时发现并处理": 4140,
      "会对": 4141,
      "有一定的": 4142,
      "额外": 4143,
      "但需注意": 4144,
      "尿痛": 4145,
      "的运动": 4146,
      "纠正": 4147,
      "麻木": 4148,
      "功能减退": 4149,
      "怎么治疗": 4150,
      "康复训练": 4151,
      "12": 4152,
      "咖啡": 4153,
      "心房": 4154,
      "有什么": 4155,
      "碎石": 4156,
      "规则": 4157,
      "保持健康的": 4158,
      "代谢率": 4159,
      "营养支持": 4160,
      "消化不良": 4161,
      "确诊为": 4162,
      "临床表现": 4163,
      "有氧运动": 4164,
      "不可": 4165,
      "数量": 4166,
      "甲减": 4167,
      "等并发症": 4168,
      "营养均衡": 4169,
      "是什么意思": 4170,
      "叶酸": 4171,
      "并遵循": 4172,
      "成熟": 4173,
      "早产": 4174,
      "显示": 4175,
      "菌素": 4176,
      "难度": 4177,
      "高压": 4178,
      "患者平时": 4179,
      "感染性": 4180,
      "身体的": 4181,
      "病情恢复": 4182,
      "物理疗法": 4183,
      "不规则": 4184,
      "则可能需要": 4185,
      "失禁": 4186,
      "机制": 4187,
      "降糖": 4188,
      "雌激素水平": 4189,
      "心肌梗死": 4190,
      "CG": 4191,
      "X光": 4192,
      "了解": 4193,
      "塞来": 4194,
      "延缓": 4195,
      "慎用": 4196,
      "戒烟": 4197,
      "排泄": 4198,
      "疱疹": 4199,
      "皮疹": 4200,
      "患者可能会": 4201,
      "感染引起的": 4202,
      "饮食控制": 4203,
      "保持均衡饮食": 4204,
      "严重吗": 4205,
      "严重者": 4206,
      "塞来昔布": 4207,
      "DNA": 4208,
      "体力": 4209,
      "有所": 4210,
      "视力": 4211,
      "进而导致": 4212,
      "减肥效果": 4213,
      "纤维化": 4214,
      "染色体异常": 4215,
      "肾小球": 4216,
      "阻滞剂": 4217,
      "低密度脂蛋白": 4218,
      "受限": 4219,
      "确认": 4220,
      "腰椎间盘突出": 4221,
      "鸡蛋": 4222,
      "有时可": 4223,
      "和功能": 4224,
      "增殖": 4225,
      "复发": 4226,
      "外周": 4227,
      "尿常规": 4228,
      "担心": 4229,
      "老年": 4230,
      "手术方式": 4231,
      "主要是因为": 4232,
      "的症状包括": 4233,
      "乳房胀痛": 4234,
      "测量": 4235,
      "海绵": 4236,
      "龟头": 4237,
      "长期使用": 4238,
      "以便获得": 4239,
      "结核病": 4240,
      "以免加重病情": 4241,
      "保证充足的": 4242,
      "制剂": 4243,
      "和脂肪": 4244,
      "的合成": 4245,
      "脊髓": 4246,
      "进行处理": 4247,
      "配合医生": 4248,
      "避孕药": 4249,
      "一次": 4250,
      "严格": 4251,
      "硝苯": 4252,
      "肺癌": 4253,
      "良好": 4254,
      "软膏": 4255,
      "合理的": 4256,
      "多少钱": 4257,
      "硝苯地平": 4258,
      "上腹部": 4259,
      "信号": 4260,
      "正确": 4261,
      "移动": 4262,
      "钙质": 4263,
      "患者还": 4264,
      "营养不良": 4265,
      "怀孕期间": 4266,
      "消化吸收": 4267,
      "轻微的": 4268,
      "医学": 4269,
      "多余": 4270,
      "眩晕": 4271,
      "甲状腺激素水平": 4272,
      "切开": 4273,
      "劳损": 4274,
      "巨球蛋白": 4275,
      "突变": 4276,
      "脱水": 4277,
      "可能由": 4278,
      "及时处理": 4279,
      "异常增生": 4280,
      "收缩力": 4281,
      "巨球蛋白血症": 4282,
      "下丘": 4283,
      "且无": 4284,
      "处方": 4285,
      "尿失禁": 4286,
      "应答": 4287,
      "形态": 4288,
      "样本": 4289,
      "积聚": 4290,
      "肾上腺素": 4291,
      "盆腔炎": 4292,
      "腹腔镜下": 4293,
      "兴奋性": 4294,
      "下丘脑": 4295,
      "则可能": 4296,
      "小肠": 4297,
      "提前": 4298,
      "斑块": 4299,
      "渗出": 4300,
      "的价格": 4301,
      "菠菜": 4302,
      "酸痛": 4303,
      "疼痛等症状": 4304,
      "是一种常见的": 4305,
      "在专业医生指导下": 4306,
      "一些": 4307,
      "小腿": 4308,
      "微生物": 4309,
      "括约": 4310,
      "时应": 4311,
      "是主要": 4312,
      "舒张": 4313,
      "饮料": 4314,
      "患者可能出现": 4315,
      "通常是": 4316,
      "甲状腺肿大": 4317,
      "多种原因": 4318,
      "正常的生理": 4319,
      "X线检查": 4320,
      "括约肌": 4321,
      "中毒": 4322,
      "奇霉素": 4323,
      "至少": 4324,
      "若出现": 4325,
      "阿奇霉素": 4326,
      "通常位于": 4327,
      "持续时间": 4328,
      "宫颈炎": 4329,
      "药物治疗如": 4330,
      "合理饮食": 4331,
      "上的": 4332,
      "停药": 4333,
      "判断": 4334,
      "吞咽": 4335,
      "复方": 4336,
      "多动症": 4337,
      "意味": 4338,
      "更多的": 4339,
      "满足": 4340,
      "特征": 4341,
      "红细胞": 4342,
      "绒毛": 4343,
      "肋骨": 4344,
      "腹壁": 4345,
      "萎缩": 4346,
      "预后": 4347,
      "可以吃": 4348,
      "血液供应": 4349,
      "阴道分泌物": 4350,
      "机体对": 4351,
      "多种因素": 4352,
      "同时还要注意": 4353,
      "软组织损伤": 4354,
      "降压药": 4355,
      "不利于": 4356,
      "内酯": 4357,
      "后的": 4358,
      "喂养": 4359,
      "完善": 4360,
      "彻底": 4361,
      "有害": 4362,
      "生成": 4363,
      "禁用": 4364,
      "脑部": 4365,
      "腔内": 4366,
      "行性": 4367,
      "药物副作用": 4368,
      "如果不": 4369,
      "食物的": 4370,
      "月经不规律": 4371,
      "等疾病引起的": 4372,
      "尤其是在": 4373,
      "咨询专业医生": 4374,
      "海绵体": 4375,
      "意味着": 4376,
      "久坐": 4377,
      "双氯": 4378,
      "咪唑": 4379,
      "早孕": 4380,
      "环素": 4381,
      "生化": 4382,
      "等检查": 4383,
      "经期": 4384,
      "肥大": 4385,
      "轻至中度": 4386,
      "血液中": 4387,
      "血液回流": 4388,
      "有助于减少": 4389,
      "应注意观察": 4390,
      "应避免剧烈运动": 4391,
      "并不能直接": 4392,
      "双氯芬": 4393,
      "30": 4394,
      "则不建议": 4395,
      "小板": 4396,
      "来缓解症状": 4397,
      "类风湿": 4398,
      "血小板": 4399,
      "解毒": 4400,
      "说明": 4401,
      "神经根": 4402,
      "怀孕初期": 4403,
      "充血水肿": 4404,
      "不佳": 4405,
      "内裤": 4406,
      "只是": 4407,
      "寻求": 4408,
      "整个": 4409,
      "植入": 4410,
      "泵血": 4411,
      "生命": 4412,
      "睾酮": 4413,
      "经常": 4414,
      "联合": 4415,
      "阴道炎": 4416,
      "睡眠质量": 4417,
      "压痛": 4418,
      "最佳": 4419,
      "游泳": 4420,
      "积水": 4421,
      "移除": 4422,
      "蔬菜": 4423,
      "通道": 4424,
      "有效地": 4425,
      "可用于治疗": 4426,
      "准确性": 4427,
      "致病菌": 4428,
      "交感": 4429,
      "减慢": 4430,
      "次数": 4431,
      "血压升高": 4432,
      "缓解疼痛": 4433,
      "免疫应答": 4434,
      "无法正常": 4435,
      "治疗措施可能包括": 4436,
      "同时还要": 4437,
      "吃什么药": 4438,
      "另外": 4439,
      "概率": 4440,
      "等病因": 4441,
      "耐受": 4442,
      "膜积液": 4443,
      "避免接触": 4444,
      "运动疗法": 4445,
      "头孢克肟颗粒": 4446,
      "头孢曲松钠": 4447,
      "信息": 4448,
      "克拉": 4449,
      "按医嘱": 4450,
      "时需注意": 4451,
      "显著": 4452,
      "晚期": 4453,
      "病史": 4454,
      "肛裂": 4455,
      "胎心": 4456,
      "菌群": 4457,
      "试验": 4458,
      "项检查": 4459,
      "控制血压": 4460,
      "调整治疗方案": 4461,
      "较大的": 4462,
      "或伴有其他": 4463,
      "以获得专业": 4464,
      "僵硬": 4465,
      "口腔": 4466,
      "可作为": 4467,
      "哪些": 4468,
      "在处理": 4469,
      "抑郁": 4470,
      "整体": 4471,
      "疝气": 4472,
      "的身体": 4473,
      "面部": 4474,
      "控制血糖水平": 4475,
      "皮肤瘙痒": 4476,
      "炎症反应和": 4477,
      "消化系统": 4478,
      "盆底肌肉": 4479,
      "颈椎病": 4480,
      "应立即就医": 4481,
      "也是": 4482,
      "到医院": 4483,
      "受伤": 4484,
      "司他": 4485,
      "嘧啶": 4486,
      "污染": 4487,
      "白带": 4488,
      "的位置": 4489,
      "肺动脉": 4490,
      "背部": 4491,
      "身高": 4492,
      "阶段": 4493,
      "心脏负担": 4494,
      "代谢异常": 4495,
      "乳腺组织": 4496,
      "等疾病的表现": 4497,
      "哺乳期": 4498,
      "二甲": 4499,
      "准备": 4500,
      "前应": 4501,
      "化学": 4502,
      "双胍": 4503,
      "心病": 4504,
      "本身": 4505,
      "清热": 4506,
      "的压力": 4507,
      "等不良反应": 4508,
      "组胺": 4509,
      "肠梗阻": 4510,
      "需谨慎": 4511,
      "建议在": 4512,
      "甲状腺炎": 4513,
      "促进血液循环": 4514,
      "宫颈癌": 4515,
      "头孢菌素": 4516,
      "狭窄或": 4517,
      "主动脉瓣": 4518,
      "不孕不育": 4519,
      "环丙沙星": 4520,
      "绒毛膜": 4521,
      "二甲双胍": 4522,
      "ol": 4523,
      "人员": 4524,
      "切术": 4525,
      "头部": 4526,
      "强度": 4527,
      "性和": 4528,
      "母体": 4529,
      "每天": 4530,
      "疏松": 4531,
      "脊柱": 4532,
      "药膏": 4533,
      "迅速": 4534,
      "间隔": 4535,
      "疼痛感": 4536,
      "子宫收缩": 4537,
      "改善症状": 4538,
      "在医生指导下进行": 4539,
      "体重减轻": 4540,
      "进一步加重": 4541,
      "过敏性": 4542,
      "睡眠时间": 4543,
      "输卵管堵塞": 4544,
      "适当的运动": 4545,
      "骨质疏松": 4546,
      "选择合适的": 4547,
      "Ig": 4548,
      "不是": 4549,
      "分解": 4550,
      "化脓": 4551,
      "和适量运动": 4552,
      "少量": 4553,
      "抗原": 4554,
      "放疗": 4555,
      "此类": 4556,
      "气道": 4557,
      "消融": 4558,
      "黄色": 4559,
      "可能在": 4560,
      "通常为": 4561,
      "细菌性": 4562,
      "造成的": 4563,
      "针灸疗法": 4564,
      "可以考虑使用": 4565,
      "以排除其他": 4566,
      "遵照医生的意见": 4567,
      "充分": 4568,
      "反射": 4569,
      "可引起": 4570,
      "左心室": 4571,
      "幽门": 4572,
      "异性": 4573,
      "湿疹": 4574,
      "瘦腿": 4575,
      "短暂": 4576,
      "硝唑": 4577,
      "筛查": 4578,
      "胸骨": 4579,
      "酰胺": 4580,
      "量增加": 4581,
      "心脏功能": 4582,
      "血糖控制": 4583,
      "周围的": 4584,
      "颅内压增高": 4585,
      "辛辣刺激性食物": 4586,
      "常用药物包括": 4587,
      "心动过速": 4588,
      "双氯芬酸钠": 4589,
      "哮喘": 4590,
      "并根据": 4591,
      "应用": 4592,
      "强烈": 4593,
      "性质": 4594,
      "扩大": 4595,
      "有较好的": 4596,
      "服药": 4597,
      "条件": 4598,
      "空气": 4599,
      "顺利": 4600,
      "可以使用": 4601,
      "传染性": 4602,
      "以达到": 4603,
      "凝血": 4604,
      "多为": 4605,
      "巯咪唑": 4606,
      "抗结核": 4607,
      "昔洛": 4608,
      "格列": 4609,
      "水果": 4610,
      "灼热": 4611,
      "甲巯咪唑": 4612,
      "磷酸": 4613,
      "血红": 4614,
      "详细": 4615,
      "跑步": 4616,
      "较好": 4617,
      "选用": 4618,
      "透性": 4619,
      "那非": 4620,
      "阿托": 4621,
      "骨头": 4622,
      "功能异常": 4623,
      "发生的": 4624,
      "适用于因": 4625,
      "机体免疫系统": 4626,
      "明显症状": 4627,
      "血栓形成": 4628,
      "昔洛韦": 4629,
      "但也": 4630,
      "内容": 4631,
      "出来": 4632,
      "吸入": 4633,
      "复制": 4634,
      "成功": 4635,
      "抽筋": 4636,
      "特异性": 4637,
      "的松": 4638,
      "的女性": 4639,
      "胎动": 4640,
      "腰痛": 4641,
      "若发现": 4642,
      "辐射": 4643,
      "高盐": 4644,
      "患者在": 4645,
      "需要通过": 4646,
      "产生的": 4647,
      "不会对": 4648,
      "电解质紊乱": 4649,
      "相对较低": 4650,
      "基因突变": 4651,
      "如果症状持续或加重": 4652,
      "血红蛋白": 4653,
      "乳素": 4654,
      "全面": 4655,
      "受压": 4656,
      "可的松": 4657,
      "后果": 4658,
      "多西": 4659,
      "就诊": 4660,
      "广谱": 4661,
      "恶变": 4662,
      "所引起的": 4663,
      "无效": 4664,
      "的诊断": 4665,
      "的问题": 4666,
      "穿着": 4667,
      "耐药": 4668,
      "过大": 4669,
      "通常出现在": 4670,
      "针对上述症状": 4671,
      "水平升高": 4672,
      "受到刺激": 4673,
      "充足休息": 4674,
      "更为明显": 4675,
      "也可能导致": 4676,
      "人绒毛膜": 4677,
      "以预防": 4678,
      "宫缩": 4679,
      "导管": 4680,
      "年期": 4681,
      "并确保": 4682,
      "所需": 4683,
      "拮抗": 4684,
      "是通过": 4685,
      "气体": 4686,
      "白色": 4687,
      "行走": 4688,
      "需要结合": 4689,
      "炎症和": 4690,
      "神经损伤": 4691,
      "局部麻醉": 4692,
      "患者可以在医生指导下使用": 4693,
      "细菌感染引起的": 4694,
      "附睾炎": 4695,
      "降糖药": 4696,
      "产前检查": 4697,
      "传统": 4698,
      "及其": 4699,
      "比例": 4700,
      "氧气": 4701,
      "类抗生素": 4702,
      "红色": 4703,
      "缓慢": 4704,
      "至数": 4705,
      "较长": 4706,
      "过长": 4707,
      "阴性": 4708,
      "通常表现为": 4709,
      "手术干预": 4710,
      "可能会对": 4711,
      "肌肉紧张": 4712,
      "激素水平变化": 4713,
      "相关疾病": 4714,
      "热量摄入": 4715,
      "受体阻滞剂": 4716,
      "保持充足的水分摄入": 4717,
      "B超检查": 4718,
      "保持健康的生活方式": 4719,
      "会增加": 4720,
      "依赖": 4721,
      "化可的松": 4722,
      "双侧": 4723,
      "吸脂": 4724,
      "多喝水": 4725,
      "强的": 4726,
      "氢化可的松": 4727,
      "红霉素": 4728,
      "胆囊": 4729,
      "血肿": 4730,
      "过快": 4731,
      "还可能出现": 4732,
      "血管瘤": 4733,
      "15": 4734,
      "利福": 4735,
      "或有": 4736,
      "托洛尔": 4737,
      "机构": 4738,
      "源于": 4739,
      "经过": 4740,
      "给予": 4741,
      "美托洛尔": 4742,
      "该疾病": 4743,
      "迟缓": 4744,
      "正常吗": 4745,
      "有助于维持": 4746,
      "相关症状": 4747,
      "体积聚": 4748,
      "自身免疫性疾病": 4749,
      "介入治疗": 4750,
      "高脂肪食物": 4751,
      "多西环素": 4752,
      "利福平": 4753,
      "以支持": 4754,
      "以防止": 4755,
      "分布": 4756,
      "创伤": 4757,
      "半月": 4758,
      "暴露": 4759,
      "模糊": 4760,
      "母婴": 4761,
      "缺损": 4762,
      "置换": 4763,
      "检查和": 4764,
      "加重病情": 4765,
      "以减少对": 4766,
      "过量摄入": 4767,
      "精神压力": 4768,
      "内容物": 4769,
      "半月板": 4770,
      "不缓解": 4771,
      "匹林": 4772,
      "司匹林": 4773,
      "尿酸": 4774,
      "新生": 4775,
      "益生": 4776,
      "维酸钾": 4777,
      "诊治": 4778,
      "阿司匹林": 4779,
      "降脂": 4780,
      "骨髓": 4781,
      "患者出现": 4782,
      "建议关注": 4783,
      "通常会": 4784,
      "患者应避免": 4785,
      "功效的": 4786,
      "勃起功能障碍": 4787,
      "克拉维酸钾": 4788,
      "HCG": 4789,
      "反映": 4790,
      "大腿": 4791,
      "心态": 4792,
      "抽取": 4793,
      "推荐": 4794,
      "更年期": 4795,
      "的功效": 4796,
      "纵隔": 4797,
      "肛周": 4798,
      "适应": 4799,
      "适度": 4800,
      "导致局部": 4801,
      "调整剂量": 4802,
      "营养素": 4803,
      "结构异常": 4804,
      "适量摄入": 4805,
      "一定程度": 4806,
      "放射至": 4807,
      "家族史": 4808,
      "灼热感": 4809,
      "6周": 4810,
      "作用于": 4811,
      "保守": 4812,
      "先兆": 4813,
      "共振": 4814,
      "告知": 4815,
      "声音": 4816,
      "姿势": 4817,
      "有哪些": 4818,
      "激动": 4819,
      "的同时": 4820,
      "硝酸": 4821,
      "磁共振": 4822,
      "肾虚": 4823,
      "胃癌": 4824,
      "腺瘤": 4825,
      "螺内酯": 4826,
      "重症": 4827,
      "钙片": 4828,
      "青霉素": 4829,
      "饱腹": 4830,
      "医生会": 4831,
      "从而增加": 4832,
      "心脏瓣膜": 4833,
      "压力增高": 4834,
      "进一步评估": 4835,
      "综合考虑": 4836,
      "伴随着": 4837,
      "轻度至中度": 4838,
      "排出体外": 4839,
      "上皮细胞": 4840,
      "不振": 4841,
      "带状": 4842,
      "感冒": 4843,
      "支撑": 4844,
      "漏尿": 4845,
      "肺功能": 4846,
      "脱垂": 4847,
      "钠片": 4848,
      "需要及时就医": 4849,
      "常用的": 4850,
      "体积增大": 4851,
      "激光治疗": 4852,
      "过于担心": 4853,
      "拮抗剂": 4854,
      "饱腹感": 4855,
      "两种": 4856,
      "偏低": 4857,
      "冲击": 4858,
      "失眠": 4859,
      "异物": 4860,
      "弹性": 4861,
      "手指": 4862,
      "根治": 4863,
      "每次": 4864,
      "由专业": 4865,
      "甲硝唑": 4866,
      "白细胞": 4867,
      "而引起的": 4868,
      "菌感染": 4869,
      "还可以": 4870,
      "醋酸": 4871,
      "对于无": 4872,
      "进而诱发": 4873,
      "含有丰富的": 4874,
      "急性期": 4875,
      "上述提及": 4876,
      "定期监测血压": 4877,
      "淋巴结炎": 4878,
      "情绪波动": 4879,
      "等因素有关": 4880,
      "新生儿": 4881,
      "产品": 4882,
      "动力": 4883,
      "发炎": 4884,
      "吐奶": 4885,
      "在体内": 4886,
      "寄生": 4887,
      "就会": 4888,
      "推迟": 4889,
      "摄取": 4890,
      "是治疗": 4891,
      "氧嘧啶": 4892,
      "活血": 4893,
      "活跃": 4894,
      "的一": 4895,
      "硫氧嘧啶": 4896,
      "碳酸": 4897,
      "腰椎": 4898,
      "递质": 4899,
      "阻力": 4900,
      "非常": 4901,
      "可以采取": 4902,
      "有助于减轻": 4903,
      "规律运动": 4904,
      "非甾体抗炎药如": 4905,
      "黄体酮": 4906,
      "支气管炎": 4907,
      "妊娠期糖尿病": 4908,
      "冠状动脉粥样硬化性心脏病": 4909,
      "吞咽困难": 4910,
      "丙硫氧嘧啶": 4911,
      "希望": 4912,
      "应激": 4913,
      "清洗": 4914,
      "激活": 4915,
      "认知": 4916,
      "适宜": 4917,
      "革兰": 4918,
      "肝脏负担": 4919,
      "肾上腺皮质": 4920,
      "阿莫西林胶囊": 4921,
      "在治疗期间": 4922,
      "保持规律的": 4923,
      "β细胞": 4924,
      "乳汁": 4925,
      "来减轻": 4926,
      "癫痫": 4927,
      "禁忌": 4928,
      "腮腺炎": 4929,
      "腹肌": 4930,
      "较轻": 4931,
      "心脏泵血": 4932,
      "神经递质": 4933,
      "血液流": 4934,
      "指导下进行": 4935,
      "结构和功能": 4936,
      "心肌缺血": 4937,
      "宫颈息肉": 4938,
      "过敏原": 4939,
      "纤维瘤": 4940,
      "维生素C": 4941,
      "乳腺增生": 4942,
      "及时发现并处理": 4943,
      "食欲不振": 4944,
      "益生菌": 4945,
      "带状疱疹": 4946,
      "下进行": 4947,
      "地那非": 4948,
      "备孕": 4949,
      "应该": 4950,
      "应确保": 4951,
      "康唑": 4952,
      "心慌": 4953,
      "抗氧化": 4954,
      "拉唑": 4955,
      "智力": 4956,
      "来调节": 4957,
      "硫酸": 4958,
      "胆碱": 4959,
      "如果出现": 4960,
      "饮食调理": 4961,
      "是否正常": 4962,
      "睾丸炎": 4963,
      "空腹血糖": 4964,
      "良性肿瘤": 4965,
      "肠溶片": 4966,
      "低密度脂蛋白胆固醇": 4967,
      "清热解毒": 4968,
      "保守治疗": 4969,
      "6个月": 4970,
      "二醇": 4971,
      "即使": 4972,
      "奥司他": 4973,
      "性病变": 4974,
      "每日": 4975,
      "滴虫": 4976,
      "的费用": 4977,
      "胃酸": 4978,
      "胆囊炎": 4979,
      "较快": 4980,
      "感染的风险": 4981,
      "血糖波动": 4982,
      "其他并发症": 4983,
      "主要表现为": 4984,
      "因此需要": 4985,
      "以便早期发现": 4986,
      "水肿和": 4987,
      "病因进行针对性治疗": 4988,
      "孕酮片": 4989,
      "阿莫西林克拉维酸钾": 4990,
      "保证充足的睡眠时间": 4991,
      "先兆流产": 4992,
      "告知医生": 4993,
      "磁共振成像": 4994,
      "奥司他韦": 4995,
      "不必": 4996,
      "则可能导致": 4997,
      "周内": 4998,
      "实施": 4999,
      "既往": 5000,
      "消失": 5001,
      "的程度": 5002,
      "糖分": 5003,
      "累及": 5004,
      "结扎": 5005,
      "胃食管": 5006,
      "补液": 5007,
      "解决": 5008,
      "雌二醇": 5009,
      "治疗效果": 5010,
      "感染或": 5011,
      "从而起到": 5012,
      "甲状腺结节": 5013,
      "长期大量": 5014,
      "肾功能不全": 5015,
      "以确保安全": 5016,
      "若患者存在": 5017,
      "mmol": 5018,
      "支原体感染": 5019,
      "24": 5020,
      "但需": 5021,
      "后出现": 5022,
      "在考虑": 5023,
      "射频": 5024,
      "异烟": 5025,
      "晚上": 5026,
      "消毒": 5027,
      "消除": 5028,
      "肾素": 5029,
      "解热": 5030,
      "限酒": 5031,
      "建议采取": 5032,
      "注意休息": 5033,
      "细胞壁": 5034,
      "一般不需要": 5035,
      "保持良好的生活习惯和": 5036,
      "胰岛素抵抗": 5037,
      "环境因素": 5038,
      "严重时甚至": 5039,
      "排卵期": 5040,
      "戒烟限酒": 5041,
      "类风湿关节炎": 5042,
      "异烟肼": 5043,
      "13": 5044,
      "不等": 5045,
      "丧失": 5046,
      "以避免": 5047,
      "以维持": 5048,
      "可采取": 5049,
      "外用": 5050,
      "抗凝": 5051,
      "是关键": 5052,
      "更长时间": 5053,
      "深静脉": 5054,
      "简单": 5055,
      "而发生": 5056,
      "肌腱": 5057,
      "肺炎": 5058,
      "胃黏膜": 5059,
      "腹水": 5060,
      "还需": 5061,
      "还要注意": 5062,
      "顺产": 5063,
      "检查以及": 5064,
      "及时治疗": 5065,
      "从而减轻": 5066,
      "血管紧张": 5067,
      "脂肪瘤": 5068,
      "尿道黏膜": 5069,
      "口服降糖药": 5070,
      "高血压患者": 5071,
      "血管紧张素": 5072,
      "以改善": 5073,
      "再次": 5074,
      "发胖": 5075,
      "宫外": 5076,
      "带孩子": 5077,
      "废物": 5078,
      "扭转": 5079,
      "早泄": 5080,
      "植物": 5081,
      "止血": 5082,
      "疗效": 5083,
      "的人": 5084,
      "的热量": 5085,
      "盲目": 5086,
      "该手术": 5087,
      "采集": 5088,
      "骨盆": 5089,
      "抗生素类药物": 5090,
      "激素水平检测": 5091,
      "综合症": 5092,
      "大小和": 5093,
      "雌激素和": 5094,
      "盆底肌": 5095,
      "并采取相应": 5096,
      "体力活动": 5097,
      "老年人": 5098,
      "低血压": 5099,
      "依靠": 5100,
      "取石": 5101,
      "妇女": 5102,
      "张力": 5103,
      "当患者": 5104,
      "来降低": 5105,
      "涂片": 5106,
      "粪便": 5107,
      "结晶": 5108,
      "而出现": 5109,
      "胸膜炎": 5110,
      "虚弱": 5111,
      "间隙": 5112,
      "阵发性": 5113,
      "这些物质": 5114,
      "并发症的发生": 5115,
      "能够促进": 5116,
      "个体化": 5117,
      "周围神经": 5118,
      "患者可在医生指导下服用": 5119,
      "精子质量": 5120,
      "年龄增长": 5121,
      "抗病毒药物": 5122,
      "基础疾病": 5123,
      "无需特殊处理": 5124,
      "转化为": 5125,
      "且伴有": 5126,
      "右侧": 5127,
      "失去": 5128,
      "尿不": 5129,
      "并定期复查": 5130,
      "异味": 5131,
      "恶化": 5132,
      "或MRI": 5133,
      "撕裂": 5134,
      "正规": 5135,
      "油腻": 5136,
      "痰液": 5137,
      "矫正": 5138,
      "等非": 5139,
      "继发性": 5140,
      "缺钙": 5141,
      "还应注意": 5142,
      "饱和脂肪": 5143,
      "避免使用": 5144,
      "从而降低": 5145,
      "结石排出": 5146,
      "营养成分": 5147,
      "糖尿病肾病": 5148,
      "术后恢复": 5149,
      "收缩和": 5150,
      "定期复查即可": 5151,
      "盐酸左氧氟沙星": 5152,
      "精神紧张": 5153,
      "肾小管": 5154,
      "餐后血糖": 5155,
      "控制病情发展": 5156,
      "寄生虫": 5157,
      "不要": 5158,
      "和代谢": 5159,
      "在于": 5160,
      "左侧": 5161,
      "机会": 5162,
      "此药物": 5163,
      "液体积聚": 5164,
      "目标": 5165,
      "经验": 5166,
      "肺栓塞": 5167,
      "获取": 5168,
      "退行性": 5169,
      "通畅": 5170,
      "通透性": 5171,
      "风疹": 5172,
      "可能对": 5173,
      "感染性疾病": 5174,
      "检查结果": 5175,
      "如果患者的": 5176,
      "损伤和": 5177,
      "持续存在": 5178,
      "胎儿健康": 5179,
      "避免过度疲劳": 5180,
      "过敏者": 5181,
      "胰岛β细胞": 5182,
      "可用于缓解": 5183,
      "超声波检查以评估": 5184,
      "受体拮抗剂": 5185,
      "腹腔镜手术": 5186,
      "中含有的": 5187,
      "站立或": 5188,
      "会逐渐": 5189,
      "分散": 5190,
      "加强": 5191,
      "动作": 5192,
      "多个": 5193,
      "抗组胺": 5194,
      "来确定": 5195,
      "消退": 5196,
      "温度": 5197,
      "的发展": 5198,
      "眼睛": 5199,
      "肝损伤": 5200,
      "能减肥吗": 5201,
      "设备": 5202,
      "途径": 5203,
      "功能性": 5204,
      "注意个人卫生": 5205,
      "时间内": 5206,
      "控制体重": 5207,
      "心肌细胞": 5208,
      "一般不": 5209,
      "充足的休息": 5210,
      "通常需要进行": 5211,
      "放射性": 5212,
      "黄体功能": 5213,
      "开放性": 5214,
      "消融术": 5215,
      "宫外孕": 5216,
      "交叉": 5217,
      "以提高": 5218,
      "决定": 5219,
      "制品": 5220,
      "性欲": 5221,
      "方剂": 5222,
      "消炎": 5223,
      "筋膜炎": 5224,
      "红斑": 5225,
      "绝经": 5226,
      "维护": 5227,
      "能吃": 5228,
      "脾胃": 5229,
      "诺酮": 5230,
      "需监测": 5231,
      "首先": 5232,
      "高热量": 5233,
      "通过刺激": 5234,
      "通过改善": 5235,
      "医生指导": 5236,
      "从而减少": 5237,
      "免疫反应": 5238,
      "持续性的": 5239,
      "患者应避免剧烈运动": 5240,
      "电解质失衡": 5241,
      "医疗机构": 5242,
      "阿托伐他汀": 5243,
      "胃食管反流": 5244,
      "保健": 5245,
      "去除": 5246,
      "多由": 5247,
      "尖瓣": 5248,
      "是将": 5249,
      "然后": 5250,
      "的恢复": 5251,
      "继续": 5252,
      "肥厚": 5253,
      "胰腺": 5254,
      "自己": 5255,
      "警惕": 5256,
      "那么": 5257,
      "饭后": 5258,
      "骨刺": 5259,
      "可能会增加": 5260,
      "控制感染": 5261,
      "的治疗方案": 5262,
      "进一步检查": 5263,
      "有效的": 5264,
      "轻度的": 5265,
      "能力下降": 5266,
      "尿液中": 5267,
      "肝功能异常": 5268,
      "这些症状可能表明": 5269,
      "这些疾病都可能导致": 5270,
      "以获得适当的治疗": 5271,
      "等原因导致": 5272,
      "阑尾炎": 5273,
      "有所不同": 5274,
      "中央": 5275,
      "保暖": 5276,
      "出生": 5277,
      "和处理": 5278,
      "已知": 5279,
      "性贫血": 5280,
      "抽血": 5281,
      "病例": 5282,
      "能有效": 5283,
      "药如": 5284,
      "跳动": 5285,
      "酸奶": 5286,
      "鞘膜积液": 5287,
      "免疫功能": 5288,
      "机体产生": 5289,
      "这种疼痛": 5290,
      "内分泌系统": 5291,
      "稳定性": 5292,
      "传染病": 5293,
      "特别是在": 5294,
      "高糖食物": 5295,
      "前列腺素合成": 5296,
      "有什么症状": 5297,
      "视力模糊": 5298,
      "5000": 5299,
      "坦索": 5300,
      "并非": 5301,
      "性功能障碍": 5302,
      "意识": 5303,
      "支架": 5304,
      "深呼吸": 5305,
      "的诊断和治疗": 5306,
      "罗辛": 5307,
      "花生": 5308,
      "若症状持续": 5309,
      "还会": 5310,
      "高于": 5311,
      "患者可能": 5312,
      "可以遵医嘱使用": 5313,
      "饮食不当": 5314,
      "甲状腺组织": 5315,
      "肌肉力量": 5316,
      "在医生指导下口服": 5317,
      "以便进行针对性治疗": 5318,
      "机体免疫力": 5319,
      "慢性炎症": 5320,
      "乳腺炎": 5321,
      "适量运动和": 5322,
      "同时注意休息": 5323,
      "较高的": 5324,
      "试管婴儿": 5325,
      "患者可能会感到": 5326,
      "寻求专业": 5327,
      "坦索罗辛": 5328,
      "不稳定": 5329,
      "人流": 5330,
      "减缓": 5331,
      "抗真菌": 5332,
      "抽搐": 5333,
      "早搏": 5334,
      "月子": 5335,
      "来减少": 5336,
      "沙坦": 5337,
      "的吸收": 5338,
      "类固醇": 5339,
      "肛瘘": 5340,
      "进程": 5341,
      "高钙": 5342,
      "可能增加": 5343,
      "患者可能会出现": 5344,
      "病情严重程度": 5345,
      "有助于提高": 5346,
      "无法有效": 5347,
      "内分泌紊乱": 5348,
      "如果患者对": 5349,
      "特定穴位": 5350,
      "输尿管结石": 5351,
      "结肠炎": 5352,
      "主要用于治疗": 5353,
      "正常的生理现象": 5354,
      "胸骨后": 5355,
      "20": 5356,
      "一段": 5357,
      "两侧": 5358,
      "使其": 5359,
      "勤换": 5360,
      "完整": 5361,
      "并促进": 5362,
      "手臂": 5363,
      "燃烧": 5364,
      "菌性": 5365,
      "还可能会": 5366,
      "还可能伴随": 5367,
      "这可能导致": 5368,
      "雄激素水平": 5369,
      "骨科": 5370,
      "症状的": 5371,
      "通过手术": 5372,
      "增加运动": 5373,
      "有助于预防": 5374,
      "心肌收缩力": 5375,
      "一般在": 5376,
      "不会影响": 5377,
      "过量食用": 5378,
      "自愈吗": 5379,
      "较小的": 5380,
      "呼吸道感染": 5381,
      "在医师指导下使用": 5382,
      "饱和脂肪酸": 5383,
      "之前": 5384,
      "体育": 5385,
      "器械": 5386,
      "憋尿": 5387,
      "流出": 5388,
      "环磷": 5389,
      "的生长": 5390,
      "等相关检查": 5391,
      "股骨头": 5392,
      "肾炎": 5393,
      "进行相关检查": 5394,
      "通常取决于": 5395,
      "饮食方面": 5396,
      "保持外阴": 5397,
      "动脉粥样硬化": 5398,
      "是指在": 5399,
      "或其他并发症": 5400,
      "通常在1": 5401,
      "需根据具体病因进行针对性治疗": 5402,
      "心理行为疗法": 5403,
      "电解质平衡": 5404,
      "冲击波": 5405,
      "环磷酰胺": 5406,
      "会使": 5407,
      "体位": 5408,
      "保胎": 5409,
      "入侵": 5410,
      "冠心病": 5411,
      "区别": 5412,
      "卧床": 5413,
      "受影响": 5414,
      "宫内": 5415,
      "性关节炎": 5416,
      "胃部": 5417,
      "自我": 5418,
      "这会导致": 5419,
      "钠盐": 5420,
      "闭合": 5421,
      "可以适量食用": 5422,
      "保持局部": 5423,
      "潜在风险": 5424,
      "皮质醇": 5425,
      "这些因素可能导致": 5426,
      "单纯依靠": 5427,
      "以降低": 5428,
      "内痔": 5429,
      "利巴": 5430,
      "和管理": 5431,
      "延误": 5432,
      "拉伸": 5433,
      "有一定": 5434,
      "清淡": 5435,
      "的形成": 5436,
      "的活性": 5437,
      "积累": 5438,
      "胎芽": 5439,
      "苹果": 5440,
      "解剖": 5441,
      "认为": 5442,
      "识别": 5443,
      "走路": 5444,
      "韦林": 5445,
      "感染后": 5446,
      "手术难度": 5447,
      "主要包括": 5448,
      "控制血糖": 5449,
      "分泌过多": 5450,
      "子宫内膜增生": 5451,
      "患者应保持良好的生活习惯": 5452,
      "能够抑制": 5453,
      "选择性": 5454,
      "睡眠障碍": 5455,
      "不会直接": 5456,
      "骨折愈合": 5457,
      "之间的": 5458,
      "建议定期进行妇科检查": 5459,
      "自身免疫性": 5460,
      "此方法适合": 5461,
      "骨质增生": 5462,
      "胸膜增厚": 5463,
      "精液分析": 5464,
      "甲状腺素钠片": 5465,
      "半月板损伤": 5466,
      "利巴韦林": 5467,
      "3个月": 5468,
      "8小时": 5469,
      "HP": 5470,
      "会产生": 5471,
      "多次": 5472,
      "如均衡饮食": 5473,
      "容量": 5474,
      "尝试": 5475,
      "并在": 5476,
      "开具": 5477,
      "更换": 5478,
      "母乳": 5479,
      "海带": 5480,
      "消肿": 5481,
      "等现象": 5482,
      "胃炎": 5483,
      "跟腱": 5484,
      "可以有效": 5485,
      "使用抗生素": 5486,
      "注意力": 5487,
      "疼痛或": 5488,
      "针对这种情况": 5489,
      "血糖偏高": 5490,
      "分泌增多": 5491,
      "原因引起的": 5492,
      "活动受限": 5493,
      "生长激素": 5494,
      "应注意休息": 5495,
      "定期进行体检": 5496,
      "外科手术": 5497,
      "典型症状包括": 5498,
      "营养支持治疗": 5499,
      "131": 5500,
      "HPV": 5501,
      "14": 5502,
      "丙转氨酶": 5503,
      "修补": 5504,
      "储存": 5505,
      "否则": 5506,
      "回声": 5507,
      "在诊断": 5508,
      "在服用": 5509,
      "小于": 5510,
      "彩超": 5511,
      "性出血": 5512,
      "意外": 5513,
      "抗血小板": 5514,
      "无痛": 5515,
      "无论": 5516,
      "来实现": 5517,
      "此药": 5518,
      "短期": 5519,
      "而引起": 5520,
      "荞麦": 5521,
      "西地那非": 5522,
      "较多": 5523,
      "达拉": 5524,
      "还应": 5525,
      "钠离子": 5526,
      "香蕉": 5527,
      "功能受损": 5528,
      "医生建议": 5529,
      "如果只是": 5530,
      "定期体检": 5531,
      "神经痛": 5532,
      "这些药物": 5533,
      "血管壁": 5534,
      "过度劳累": 5535,
      "月经不": 5536,
      "过敏史": 5537,
      "胶囊等药物": 5538,
      "急性发作": 5539,
      "如果患者有": 5540,
      "上述药物": 5541,
      "生殖道": 5542,
      "以确定是否存在": 5543,
      "发展为": 5544,
      "敏感菌": 5545,
      "细菌感染引起": 5546,
      "医生可能会建议进行": 5547,
      "交感神经": 5548,
      "他人": 5549,
      "但具体": 5550,
      "停用": 5551,
      "剖腹": 5552,
      "发病": 5553,
      "后再": 5554,
      "和肌肉": 5555,
      "就会出现": 5556,
      "往往": 5557,
      "数值": 5558,
      "暂停": 5559,
      "注入": 5560,
      "涂抹": 5561,
      "痔核": 5562,
      "等治疗措施": 5563,
      "脊液": 5564,
      "脑脊液": 5565,
      "衣原体": 5566,
      "还可能导致": 5567,
      "遗精": 5568,
      "阻碍": 5569,
      "面对": 5570,
      "增加饱腹感": 5571,
      "细胞增生": 5572,
      "腹部不适": 5573,
      "静脉注射": 5574,
      "全身抽脂": 5575,
      "酒精性": 5576,
      "常用药物有": 5577,
      "暂时性": 5578,
      "以确定具体原因并接受适当治疗": 5579,
      "合并症": 5580,
      "幽门螺": 5581,
      "但仍": 5582,
      "低脂": 5583,
      "佩戴": 5584,
      "厘米": 5585,
      "并避免": 5586,
      "应密切观察": 5587,
      "提升": 5588,
      "早晨": 5589,
      "末梢": 5590,
      "杀菌": 5591,
      "滞留": 5592,
      "甲钴": 5593,
      "痛风": 5594,
      "的分泌": 5595,
      "胸腔": 5596,
      "腱鞘": 5597,
      "还可": 5598,
      "靶向": 5599,
      "可能涉及": 5600,
      "功能不全": 5601,
      "如果存在": 5602,
      "心脏疾病": 5603,
      "脂肪的": 5604,
      "脂肪肝": 5605,
      "糖尿病人": 5606,
      "受损的": 5607,
      "必要时可": 5608,
      "尿液分析": 5609,
      "呼吸困难等症状": 5610,
      "肿胀和疼痛": 5611,
      "建议定期监测血压": 5612,
      "中含有丰富的": 5613,
      "的治疗方法包括": 5614,
      "尿道口红肿": 5615,
      "保持规律作息": 5616,
      "比较严重": 5617,
      "心脏负荷增加": 5618,
      "抵抗力": 5619,
      "发挥作用": 5620,
      "肺动脉高压": 5621,
      "甲钴胺": 5622,
      "一侧": 5623,
      "下腹": 5624,
      "休克": 5625,
      "冲动": 5626,
      "则可能是": 5627,
      "化瘀": 5628,
      "多尿": 5629,
      "好吗": 5630,
      "封闭": 5631,
      "是在": 5632,
      "活菌": 5633,
      "滋生": 5634,
      "移位": 5635,
      "缩短": 5636,
      "肾阴": 5637,
      "肾动脉": 5638,
      "脑血管": 5639,
      "足底": 5640,
      "麻疹": 5641,
      "进行全面": 5642,
      "神经末梢": 5643,
      "主要通过": 5644,
      "适当运动": 5645,
      "长期的": 5646,
      "细菌细胞壁": 5647,
      "适量的运动": 5648,
      "病变部位": 5649,
      "的现象发生": 5650,
      "增多症": 5651,
      "密切关注": 5652,
      "个体差异及": 5653,
      "建议定期进行体检": 5654,
      "高血糖状态": 5655,
      "在治疗过程中": 5656,
      "早产儿": 5657,
      "化脓性": 5658,
      "所需的": 5659,
      "革兰氏": 5660,
      "产检": 5661,
      "但不宜": 5662,
      "低于": 5663,
      "前往": 5664,
      "厚度": 5665,
      "在某些": 5666,
      "如经皮": 5667,
      "易感": 5668,
      "是必要的": 5669,
      "普利": 5670,
      "毒性": 5671,
      "淤积": 5672,
      "肢体": 5673,
      "肩关节": 5674,
      "较少": 5675,
      "齐特": 5676,
      "检查项目": 5677,
      "使用时": 5678,
      "保持充足休息": 5679,
      "缓解因": 5680,
      "因素导致的": 5681,
      "主要是由": 5682,
      "过度活动": 5683,
      "肌肉酸痛": 5684,
      "持续的": 5685,
      "适当增加": 5686,
      "长期服用": 5687,
      "在医生指导下通过": 5688,
      "检测以及": 5689,
      "检测结果": 5690,
      "前列腺组织": 5691,
      "相关问题": 5692,
      "活动后": 5693,
      "病变组织": 5694,
      "特殊治疗": 5695,
      "医生的指导": 5696,
      "可以考虑采取": 5697,
      "富含膳食纤维": 5698,
      "全身麻醉": 5699,
      "心率加快": 5700,
      "异位妊娠": 5701,
      "尿路梗阻": 5702,
      "阴茎海绵体": 5703,
      "缓释片": 5704,
      "先天性心脏病": 5705,
      "家长应注意": 5706,
      "体外冲击波": 5707,
      "胃肠蠕动": 5708,
      "羊水穿刺": 5709,
      "乳头瘤": 5710,
      "受精卵着床": 5711,
      "医学科": 5712,
      "是主要手段": 5713,
      "格列齐特": 5714,
      "非常重要": 5715,
      "EB": 5716,
      "人乳头瘤": 5717,
      "但其": 5718,
      "做好": 5719,
      "克霉": 5720,
      "变得": 5721,
      "寿命": 5722,
      "性激素": 5723,
      "或加剧": 5724,
      "男人": 5725,
      "疑似": 5726,
      "皮脂": 5727,
      "胰腺炎": 5728,
      "脐带": 5729,
      "自主": 5730,
      "薄弱": 5731,
      "长度": 5732,
      "症状或": 5733,
      "感染引起": 5734,
      "避免吸烟": 5735,
      "通常与": 5736,
      "神经内科": 5737,
      "以及是否存在": 5738,
      "免疫调节": 5739,
      "剧烈疼痛": 5740,
      "压迫到": 5741,
      "0000": 5742,
      "发热等症状": 5743,
      "以免加重不适症状": 5744,
      "合理膳食": 5745,
      "垂体瘤": 5746,
      "这些症状可能": 5747,
      "破裂出血": 5748,
      "合适的": 5749,
      "心跳加快": 5750,
      "CT扫描或MRI": 5751,
      "引流术": 5752,
      "对乙酰氨基酚片等": 5753,
      "活血化瘀": 5754,
      "体育锻炼": 5755,
      "月经不调": 5756,
      "体外冲击波碎石": 5757,
      "克霉唑": 5758,
      "不会引起": 5759,
      "丙氨酸": 5760,
      "以确认": 5761,
      "和刺激": 5762,
      "囊性": 5763,
      "室内": 5764,
      "尚未": 5765,
      "并定期监测": 5766,
      "并按医嘱": 5767,
      "微量": 5768,
      "牵引": 5769,
      "癌症": 5770,
      "破损": 5771,
      "策略": 5772,
      "规范": 5773,
      "进行评估": 5774,
      "可以减少": 5775,
      "通常可以": 5776,
      "由于其": 5777,
      "免疫状态": 5778,
      "调整用药": 5779,
      "术后护理": 5780,
      "肠道蠕动": 5781,
      "肠道菌群": 5782,
      "调节中枢": 5783,
      "规律作息": 5784,
      "尿液中的": 5785,
      "密切接触": 5786,
      "特定的": 5787,
      "相应治疗": 5788,
      "医疗干预": 5789,
      "物理治疗": 5790,
      "多久可以": 5791,
      "在专业医生指导下进行": 5792,
      "射频消融术": 5793,
      "延误病情": 5794,
      "体征": 5795,
      "促甲状腺激素": 5796,
      "危害": 5797,
      "嘌呤": 5798,
      "嘶哑": 5799,
      "小便": 5800,
      "年轻": 5801,
      "成年": 5802,
      "扁桃": 5803,
      "旁腺": 5804,
      "时会引起": 5805,
      "替卡": 5806,
      "杀灭": 5807,
      "气短": 5808,
      "流感": 5809,
      "电切术": 5810,
      "的过程中": 5811,
      "的恢复时间": 5812,
      "皮层": 5813,
      "皮炎": 5814,
      "肩部": 5815,
      "胎停": 5816,
      "腹膜": 5817,
      "谷丙转氨酶": 5818,
      "这是": 5819,
      "送至": 5820,
      "需及时就医": 5821,
      "需要更": 5822,
      "出现异常": 5823,
      "时间因人而异": 5824,
      "血糖变化": 5825,
      "会导致局部": 5826,
      "适当食用": 5827,
      "具体情况": 5828,
      "以便进行": 5829,
      "心血管健康": 5830,
      "心理压力": 5831,
      "富含蛋白质": 5832,
      "肾功能损害": 5833,
      "干燥清洁": 5834,
      "保证充足睡眠": 5835,
      "咨询专业医生的意见": 5836,
      "饮食和运动": 5837,
      "外周血管": 5838,
      "食物的摄入": 5839,
      "黄体功能不足": 5840,
      "免疫功能低下": 5841,
      "扁桃体": 5842,
      "但若": 5843,
      "但需要注意的是": 5844,
      "但也可能": 5845,
      "关系": 5846,
      "取出": 5847,
      "含糖": 5848,
      "喘息": 5849,
      "在孕期": 5850,
      "应避免过度": 5851,
      "成人": 5852,
      "攻击": 5853,
      "游离": 5854,
      "痤疮": 5855,
      "瘢痕": 5856,
      "白蛋白": 5857,
      "的能力": 5858,
      "经尿道": 5859,
      "肺水肿": 5860,
      "脂质": 5861,
      "褐色": 5862,
      "通气": 5863,
      "对于由": 5864,
      "从而缓解": 5865,
      "从而诱发": 5866,
      "病毒的": 5867,
      "此时由于": 5868,
      "观察是否有": 5869,
      "医生的建议": 5870,
      "分泌物增多": 5871,
      "疾病的恢复": 5872,
      "可考虑使用": 5873,
      "X光检查": 5874,
      "饮食控制和": 5875,
      "有害物质": 5876,
      "30分钟": 5877,
      "哺乳期妇女": 5878,
      "IgM": 5879,
      "声音嘶哑": 5880,
      "幽门螺杆菌": 5881,
      "他达拉": 5882,
      "以早期发现": 5883,
      "停经": 5884,
      "在选择": 5885,
      "怀疑": 5886,
      "总胆固醇": 5887,
      "提示": 5888,
      "旋转": 5889,
      "流血": 5890,
      "混合": 5891,
      "潮湿": 5892,
      "的刺激": 5893,
      "的状态": 5894,
      "的炎症反应": 5895,
      "的敏感性": 5896,
      "硬块": 5897,
      "类似": 5898,
      "表示": 5899,
      "该方法": 5900,
      "迹象": 5901,
      "进行缓解": 5902,
      "通过口服": 5903,
      "疼痛的情况": 5904,
      "如果是": 5905,
      "针对不同": 5906,
      "保持良好的心态": 5907,
      "是一种通过": 5908,
      "膀胱结石": 5909,
      "预防感染": 5910,
      "的食物如": 5911,
      "建议及时就医以获得专业": 5912,
      "严重时可": 5913,
      "泌尿外科": 5914,
      "等原因引起的": 5915,
      "转移酶": 5916,
      "抗菌作用": 5917,
      "成功率": 5918,
      "不必过于担心": 5919,
      "解热镇痛": 5920,
      "尿不尽": 5921,
      "阿托伐他汀钙片": 5922,
      "他达拉非": 5923,
      "体液": 5924,
      "供氧": 5925,
      "内脏": 5926,
      "右心室": 5927,
      "地高": 5928,
      "坐浴": 5929,
      "外痔": 5930,
      "多发性": 5931,
      "孕前检查": 5932,
      "承受": 5933,
      "新鲜": 5934,
      "旁路": 5935,
      "是利用": 5936,
      "泌乳素": 5937,
      "疲乏": 5938,
      "痛经": 5939,
      "的存在": 5940,
      "睡前": 5941,
      "经历": 5942,
      "触痛": 5943,
      "记录": 5944,
      "试纸": 5945,
      "还能": 5946,
      "雄胺": 5947,
      "面积": 5948,
      "建议孕妇": 5949,
      "血液生化": 5950,
      "严重并发症": 5951,
      "因素引起的": 5952,
      "有助于缓解": 5953,
      "有助于减肥": 5954,
      "长期存在": 5955,
      "减肥期间": 5956,
      "发育不全": 5957,
      "子宫内膜组织": 5958,
      "应避免食用": 5959,
      "某些药物": 5960,
      "敏感度": 5961,
      "遵循医嘱进行": 5962,
      "定期进行产前检查": 5963,
      "特别注意": 5964,
      "酒精性肝炎": 5965,
      "胚胎发育": 5966,
      "适用于轻度至中度": 5967,
      "体温调节中枢": 5968,
      "醛固酮增多症": 5969,
      "高脂血症": 5970,
      "则不建议食用": 5971,
      "地高辛": 5972,
      "三代": 5973,
      "不齐": 5974,
      "代偿": 5975,
      "则应": 5976,
      "卵圆": 5977,
      "各项检查": 5978,
      "咳痰": 5979,
      "咽喉": 5980,
      "复位": 5981,
      "尿潴留": 5982,
      "广泛": 5983,
      "微小": 5984,
      "微生": 5985,
      "性化": 5986,
      "执行": 5987,
      "新的": 5988,
      "最终": 5989,
      "活力": 5990,
      "流入": 5991,
      "熬夜": 5992,
      "的疾病": 5993,
      "的所有": 5994,
      "相互": 5995,
      "精囊炎": 5996,
      "而对于": 5997,
      "肝癌": 5998,
      "色素": 5999,
      "辣椒": 6000,
      "遗症": 6001,
      "那雄胺": 6002,
      "邻近": 6003,
      "阿昔洛韦": 6004,
      "非那雄胺": 6005,
      "骨骨折": 6006,
      "通常不需要": 6007,
      "激素替代疗法": 6008,
      "异常应及时就医": 6009,
      "尿道狭窄": 6010,
      "是一种慢性": 6011,
      "这种情况下": 6012,
      "伴随有": 6013,
      "辅助生殖": 6014,
      "卵巢功能": 6015,
      "特殊的": 6016,
      "患者可以适量食用": 6017,
      "蛋白质合成": 6018,
      "伤口愈合和": 6019,
      "积极治疗": 6020,
      "反复发作": 6021,
      "额外的": 6022,
      "彻底治愈": 6023,
      "并采取相应措施": 6024,
      "肾动脉狭窄": 6025,
      "卵圆孔": 6026,
      "微生态": 6027,
      "不好": 6028,
      "个性化": 6029,
      "会发生": 6030,
      "但不": 6031,
      "促使": 6032,
      "其具有": 6033,
      "包茎": 6034,
      "危险": 6035,
      "反馈": 6036,
      "喷嚏": 6037,
      "多汗": 6038,
      "干咳": 6039,
      "是影响": 6040,
      "疗程": 6041,
      "能抑制": 6042,
      "血钾": 6043,
      "链球菌": 6044,
      "需密切监测": 6045,
      "患者会出现": 6046,
      "可以改善": 6047,
      "可以适量": 6048,
      "功能减弱": 6049,
      "炎症性疾病": 6050,
      "血糖浓度": 6051,
      "身体各": 6052,
      "病情加重": 6053,
      "血管扩张": 6054,
      "分泌不足": 6055,
      "调整生活方式": 6056,
      "动脉硬化": 6057,
      "术后患者应": 6058,
      "口服溶液": 6059,
      "中药材": 6060,
      "受到影响": 6061,
      "尿液排出": 6062,
      "在专业医师指导下": 6063,
      "这些疾病可能导致": 6064,
      "血液回流受阻": 6065,
      "过敏者禁用": 6066,
      "胃食管反流病": 6067,
      "肾阴虚": 6068,
      "上呼吸道感染": 6069,
      "不存在": 6070,
      "专门": 6071,
      "中医师": 6072,
      "以利于": 6073,
      "共用": 6074,
      "内镜下": 6075,
      "参与": 6076,
      "如使用": 6077,
      "常伴有": 6078,
      "并伴有": 6079,
      "打喷嚏": 6080,
      "携带": 6081,
      "更容易": 6082,
      "止痒": 6083,
      "滑膜": 6084,
      "的疼痛": 6085,
      "的摄入量": 6086,
      "的准确性": 6087,
      "管腔": 6088,
      "缩小": 6089,
      "补肾": 6090,
      "这是由于": 6091,
      "间歇": 6092,
      "飞沫": 6093,
      "高度": 6094,
      "感染时": 6095,
      "感染者": 6096,
      "需要进行": 6097,
      "疼痛的症状": 6098,
      "甲状旁腺": 6099,
      "主要是由于": 6100,
      "肌肉劳损": 6101,
      "代谢紊乱": 6102,
      "细菌DNA": 6103,
      "减肥的效果": 6104,
      "以评估病情": 6105,
      "压迫周围组织": 6106,
      "维生素和": 6107,
      "过多摄入": 6108,
      "疲劳感": 6109,
      "病毒感染引起的": 6110,
      "结肠息肉": 6111,
      "则需考虑": 6112,
      "尿急等症状": 6113,
      "多久能": 6114,
      "破伤风梭": 6115,
      "原发性醛固酮增多症": 6116,
      "辅助治疗手段": 6117,
      "有时可放射至": 6118,
      "间隔缺损": 6119,
      "取石术": 6120,
      "保持局部清洁干燥": 6121,
      "细菌细胞壁合成": 6122,
      "40": 6123,
      "不耐受": 6124,
      "分子": 6125,
      "可在": 6126,
      "可促进": 6127,
      "并减少": 6128,
      "并定期": 6129,
      "性行为": 6130,
      "或损伤": 6131,
      "数周": 6132,
      "断裂": 6133,
      "更长": 6134,
      "杀死": 6135,
      "来达到": 6136,
      "甲羟": 6137,
      "的区别": 6138,
      "窦性": 6139,
      "等待": 6140,
      "糖化": 6141,
      "肾囊肿": 6142,
      "胎盘": 6143,
      "见于": 6144,
      "除术": 6145,
      "饥饿": 6146,
      "首选": 6147,
      "导致其": 6148,
      "可以减肥吗": 6149,
      "从而使": 6150,
      "心脏的": 6151,
      "以及是否有": 6152,
      "持续升高": 6153,
      "激素水平异常": 6154,
      "腹部压痛": 6155,
      "日常活动": 6156,
      "注射用": 6157,
      "可能需要进行": 6158,
      "日常生活中应注意": 6159,
      "扩张血管": 6160,
      "等方法来": 6161,
      "任何潜在的问题": 6162,
      "结肠癌": 6163,
      "是什么原因引起的": 6164,
      "多囊卵巢综合症": 6165,
      "抽脂手术": 6166,
      "注射液等": 6167,
      "维生素B12": 6168,
      "高脂食物": 6169,
      "说明书": 6170,
      "等病因引起的": 6171,
      "整体健康状况": 6172,
      "有较好的效果": 6173,
      "醋酸甲羟": 6174,
      "60": 6175,
      "介质": 6176,
      "包块": 6177,
      "含碘": 6178,
      "听力": 6179,
      "喉咙": 6180,
      "坐骨": 6181,
      "大于": 6182,
      "并预防": 6183,
      "性骨折": 6184,
      "恩替卡": 6185,
      "戒酒": 6186,
      "易消化": 6187,
      "物品": 6188,
      "病症": 6189,
      "的因素": 6190,
      "的有效": 6191,
      "练习": 6192,
      "组成": 6193,
      "联活菌": 6194,
      "聚集": 6195,
      "这类药物": 6196,
      "酸雌二醇": 6197,
      "钙盐": 6198,
      "钝痛": 6199,
      "防御": 6200,
      "阳痿": 6201,
      "附近": 6202,
      "高频": 6203,
      "症状变化": 6204,
      "如果发现": 6205,
      "包括均衡饮食": 6206,
      "主要取决于": 6207,
      "这些食物": 6208,
      "损伤或": 6209,
      "的症状可能包括": 6210,
      "肌肉痉挛": 6211,
      "结石形成": 6212,
      "呼吸暂停": 6213,
      "遵医嘱口服": 6214,
      "的发生风险": 6215,
      "维生素E": 6216,
      "患者可遵医嘱使用": 6217,
      "患者可遵医嘱服用": 6218,
      "心血管系统": 6219,
      "环境中": 6220,
      "排卵障碍": 6221,
      "干扰素": 6222,
      "有助于改善症状": 6223,
      "片等药物进行治疗": 6224,
      "的正常功能": 6225,
      "醛固酮系统": 6226,
      "扩散到": 6227,
      "如果孕妇存在": 6228,
      "咖啡因": 6229,
      "以便获得适当的": 6230,
      "母婴健康": 6231,
      "非甾体抗炎药如布洛芬": 6232,
      "血液流动": 6233,
      "微量元素": 6234,
      "恩替卡韦": 6235,
      "倾向": 6236,
      "冲洗": 6237,
      "则会导致": 6238,
      "嗜睡": 6239,
      "在子宫": 6240,
      "如头孢曲松钠": 6241,
      "当结石": 6242,
      "急促": 6243,
      "患病": 6244,
      "戊酸雌二醇": 6245,
      "抗抑郁": 6246,
      "排空": 6247,
      "暴食": 6248,
      "暴饮": 6249,
      "有限": 6250,
      "核桃": 6251,
      "清晰": 6252,
      "潮热": 6253,
      "甲胎": 6254,
      "瘦肚子": 6255,
      "癌细胞": 6256,
      "盗汗": 6257,
      "穿孔": 6258,
      "等副作用": 6259,
      "管狭窄": 6260,
      "耳鸣": 6261,
      "肝囊肿": 6262,
      "胸壁": 6263,
      "腹内": 6264,
      "艾滋": 6265,
      "莫司": 6266,
      "衣物": 6267,
      "记忆": 6268,
      "质地": 6269,
      "还要": 6270,
      "酶活性": 6271,
      "雌孕激素": 6272,
      "高热": 6273,
      "麝香": 6274,
      "建议咨询医生": 6275,
      "影响了": 6276,
      "激素疗法": 6277,
      "如果疼痛": 6278,
      "可能会相应": 6279,
      "神经元": 6280,
      "不适或": 6281,
      "因此会出现": 6282,
      "呼吸急促": 6283,
      "细菌滋生": 6284,
      "减轻症状": 6285,
      "膀胱壁": 6286,
      "适用于治疗": 6287,
      "以评估病情变化": 6288,
      "无法通过": 6289,
      "不能自愈": 6290,
      "呕吐等症状": 6291,
      "卵巢囊肿": 6292,
      "过多的": 6293,
      "如果患者在": 6294,
      "没有其他": 6295,
      "胰岛素敏感性": 6296,
      "特殊情况": 6297,
      "肾脏负担": 6298,
      "肝功能指标": 6299,
      "先天发育异常": 6300,
      "肾上腺皮质激素": 6301,
      "甲状腺激素合成": 6302,
      "有利于促进": 6303,
      "本品为": 6304,
      "自行恢复": 6305,
      "该药物具有": 6306,
      "颜色改变": 6307,
      "典型表现为": 6308,
      "可能出现的副作用": 6309,
      "制定个性化": 6310,
      "冠脉介入治疗": 6311,
      "龟头炎": 6312,
      "正确的": 6313,
      "兴奋性增高": 6314,
      "以排除其他潜在的": 6315,
      "红霉素软膏": 6316,
      "肛周脓肿": 6317,
      "一定程度上": 6318,
      "剖腹产": 6319,
      "暴饮暴食": 6320,
      "甲胎蛋白": 6321,
      "也可能是": 6322,
      "以增强": 6323,
      "传递": 6324,
      "几天": 6325,
      "固体": 6326,
      "寒冷": 6327,
      "对抗": 6328,
      "射线": 6329,
      "并及时就医": 6330,
      "数量减少": 6331,
      "材料": 6332,
      "来提高": 6333,
      "淀粉": 6334,
      "球囊": 6335,
      "疙瘩": 6336,
      "的过程": 6337,
      "的病因": 6338,
      "等措施": 6339,
      "糜烂": 6340,
      "紫菜": 6341,
      "腺体": 6342,
      "膨出": 6343,
      "酸中毒": 6344,
      "镇静": 6345,
      "非处方": 6346,
      "进行检查": 6347,
      "建议就医": 6348,
      "避免感染": 6349,
      "避免辛辣刺激性食物": 6350,
      "激素失调": 6351,
      "血糖监测": 6352,
      "有助于降低": 6353,
      "改善病情": 6354,
      "是否怀孕": 6355,
      "肌肉萎缩": 6356,
      "原因导致的": 6357,
      "专业评估和治疗": 6358,
      "一般不会": 6359,
      "月经推迟": 6360,
      "肛门括约肌": 6361,
      "常见于": 6362,
      "严重的并发症": 6363,
      "妇科疾病": 6364,
      "严重时可能导致": 6365,
      "葡萄糖酸": 6366,
      "刺激性强的": 6367,
      "基因检测": 6368,
      "人体后": 6369,
      "乙型肝炎病毒": 6370,
      "服药期间": 6371,
      "禁忌证": 6372,
      "增加运动量": 6373,
      "钠盐摄入": 6374,
      "辅助生殖技术": 6375,
      "糖化血红蛋白": 6376,
      "2小时": 6377,
      "但需要": 6378,
      "喹诺酮": 6379,
      "图像": 6380,
      "坠胀": 6381,
      "引导": 6382,
      "心内膜": 6383,
      "怎样": 6384,
      "或需要": 6385,
      "抗胆碱": 6386,
      "搭配": 6387,
      "来月经": 6388,
      "毛巾": 6389,
      "气促": 6390,
      "水飞": 6391,
      "永久": 6392,
      "激酶": 6393,
      "白天": 6394,
      "的产生": 6395,
      "等指标": 6396,
      "胃内容物": 6397,
      "脾脏": 6398,
      "臀部": 6399,
      "节律": 6400,
      "蓟宾": 6401,
      "血浆": 6402,
      "退热": 6403,
      "重建": 6404,
      "阴囊肿": 6405,
      "阿米": 6406,
      "颈动脉": 6407,
      "高胆固醇": 6408,
      "可以缓解": 6409,
      "通过增加": 6410,
      "通常是由于": 6411,
      "手术或": 6412,
      "对于某些": 6413,
      "从而产生": 6414,
      "组织损伤": 6415,
      "血压上升": 6416,
      "进而形成": 6417,
      "分泌减少": 6418,
      "过度生长": 6419,
      "肌肉松弛": 6420,
      "以免延误病情": 6421,
      "专业治疗": 6422,
      "膀胱癌": 6423,
      "糖尿病等": 6424,
      "引发的": 6425,
      "避免过度摄入": 6426,
      "的发生和": 6427,
      "慢性疾病": 6428,
      "甲状腺功能测定": 6429,
      "排尿次数": 6430,
      "乳腺结节": 6431,
      "日常生活中注意": 6432,
      "根据具体情况": 6433,
      "医生的指导下": 6434,
      "合理饮食和": 6435,
      "以促进身体恢复": 6436,
      "宝宝的": 6437,
      "的方式进行治疗": 6438,
      "以上提及": 6439,
      "家族中": 6440,
      "实验室检查": 6441,
      "刺痛感": 6442,
      "患者平时应注意": 6443,
      "生成素": 6444,
      "条件下": 6445,
      "置换术": 6446,
      "靶向治疗": 6447,
      "在某些情况下": 6448,
      "相互作用": 6449,
      "水飞蓟宾": 6450,
      "4周": 6451,
      "下来": 6452,
      "事件": 6453,
      "二尖瓣": 6454,
      "代表": 6455,
      "但并不": 6456,
      "咀嚼": 6457,
      "咽炎": 6458,
      "多样": 6459,
      "多见于": 6460,
      "奈德": 6461,
      "安奈德": 6462,
      "并结合": 6463,
      "延迟": 6464,
      "微波": 6465,
      "技巧": 6466,
      "曲安奈德": 6467,
      "未经": 6468,
      "来控制": 6469,
      "模式": 6470,
      "深度": 6471,
      "溶血": 6472,
      "瘦肉": 6473,
      "的摄入": 6474,
      "的早期": 6475,
      "眼部": 6476,
      "磨损": 6477,
      "等食物": 6478,
      "等不良": 6479,
      "等影像学检查": 6480,
      "绷带": 6481,
      "芹菜": 6482,
      "计数": 6483,
      "负责": 6484,
      "较短": 6485,
      "量的": 6486,
      "食道": 6487,
      "鼻腔": 6488,
      "药物引起的": 6489,
      "检查前": 6490,
      "通过减少": 6491,
      "对于因": 6492,
      "发生变化": 6493,
      "由于个体差异": 6494,
      "保持室内": 6495,
      "同时也": 6496,
      "用于评估": 6497,
      "是否为": 6498,
      "是否异常": 6499,
      "出血量": 6500,
      "脂肪酸": 6501,
      "保持良好的饮食习惯": 6502,
      "胎儿发育": 6503,
      "是由各种": 6504,
      "是由细菌感染引起的": 6505,
      "淋巴瘤": 6506,
      "硬化剂": 6507,
      "定期复查以监测病情变化": 6508,
      "日常生活中应": 6509,
      "电解质分析": 6510,
      "定期进行妇科检查": 6511,
      "确诊后": 6512,
      "以上各项检查": 6513,
      "维生素B6": 6514,
      "避免接触已知": 6515,
      "瘦腿针": 6516,
      "经验丰富的": 6517,
      "旁路移植": 6518,
      "中医师指导下": 6519,
      "二指": 6520,
      "元至": 6521,
      "内侧": 6522,
      "再生": 6523,
      "前后": 6524,
      "化验": 6525,
      "十二指": 6526,
      "危及": 6527,
      "原则": 6528,
      "可缓解": 6529,
      "后跟": 6530,
      "和炎症反应": 6531,
      "地屈": 6532,
      "坐着": 6533,
      "坚果": 6534,
      "姨妈": 6535,
      "对身体": 6536,
      "小型": 6537,
      "尿血": 6538,
      "应在": 6539,
      "应根据": 6540,
      "建立": 6541,
      "当其": 6542,
      "性皮炎": 6543,
      "房颤": 6544,
      "无菌": 6545,
      "早衰": 6546,
      "易发生": 6547,
      "术或": 6548,
      "机能": 6549,
      "样改变": 6550,
      "桥本": 6551,
      "洗液": 6552,
      "浆细胞": 6553,
      "的孕妇": 6554,
      "的安全": 6555,
      "硬度": 6556,
      "筋膜": 6557,
      "能治": 6558,
      "脱发": 6559,
      "舒适": 6560,
      "解除": 6561,
      "运输": 6562,
      "闭塞": 6563,
      "进行局部": 6564,
      "感染的": 6565,
      "通常不会": 6566,
      "对于患有": 6567,
      "对于糖尿病患者": 6568,
      "从而改善": 6569,
      "促进新陈代谢": 6570,
      "细胞异常增生": 6571,
      "健康风险": 6572,
      "病毒性": 6573,
      "减轻炎症反应": 6574,
      "一般集中在": 6575,
      "以评估心脏": 6576,
      "进行针对性处理": 6577,
      "抗炎作用": 6578,
      "通常在2": 6579,
      "患者可以遵医嘱服用": 6580,
      "心理因素": 6581,
      "抗生素治疗是主要手段": 6582,
      "肝功能不全": 6583,
      "尿路结石": 6584,
      "则需要及时就医": 6585,
      "下肢深静脉": 6586,
      "乙肝病毒": 6587,
      "良性病变": 6588,
      "紧急避孕药": 6589,
      "多余的": 6590,
      "甲状腺激素水平升高": 6591,
      "化学物质": 6592,
      "吸脂手术": 6593,
      "一段时间": 6594,
      "8周": 6595,
      "两者": 6596,
      "也会影响": 6597,
      "产物": 6598,
      "以满足": 6599,
      "会阴": 6600,
      "凹陷": 6601,
      "后遗症": 6602,
      "和压力": 6603,
      "头颅": 6604,
      "家庭": 6605,
      "尿床": 6606,
      "尿糖": 6607,
      "性结肠炎": 6608,
      "成本": 6609,
      "或使用": 6610,
      "或影响": 6611,
      "持久": 6612,
      "推拿": 6613,
      "时使用": 6614,
      "的增长": 6615,
      "皮下": 6616,
      "窒息": 6617,
      "精症": 6618,
      "继发": 6619,
      "老人": 6620,
      "肺大": 6621,
      "萝卜": 6622,
      "还需要": 6623,
      "还应考虑": 6624,
      "透气": 6625,
      "部或": 6626,
      "配方": 6627,
      "酶的活性": 6628,
      "附件": 6629,
      "可能引发": 6630,
      "患者由于": 6631,
      "通常是因为": 6632,
      "引起的炎症反应": 6633,
      "增加体力活动": 6634,
      "血压下降": 6635,
      "血液样本": 6636,
      "恢复期": 6637,
      "以免诱发": 6638,
      "适当进食": 6639,
      "此时需要": 6640,
      "怀孕后": 6641,
      "患者应避免食用": 6642,
      "月经期间": 6643,
      "药物治疗或": 6644,
      "受到压迫": 6645,
      "甲状腺功能指标": 6646,
      "输卵管炎": 6647,
      "必要时的": 6648,
      "乳腺癌": 6649,
      "乳腺纤维瘤": 6650,
      "建议及时就医以确定": 6651,
      "血脂异常": 6652,
      "包皮过长": 6653,
      "随着病情进展": 6654,
      "精索静脉": 6655,
      "造影剂": 6656,
      "较为严重": 6657,
      "穿刺引流": 6658,
      "患者可在医生指导下使用抗生素": 6659,
      "的主要方法": 6660,
      "溃疡性结肠炎": 6661,
      "保持充足的休息": 6662,
      "间接影响": 6663,
      "短暂的": 6664,
      "耐药性": 6665,
      "需要结合合理的": 6666,
      "一天": 6667,
      "不动": 6668,
      "为身体": 6669,
      "乳糖": 6670,
      "乳酸": 6671,
      "以获取": 6672,
      "优化": 6673,
      "但并非": 6674,
      "内服": 6675,
      "内衣": 6676,
      "冷冻": 6677,
      "减压": 6678,
      "凝固": 6679,
      "则不宜": 6680,
      "前叶": 6681,
      "南瓜": 6682,
      "口渴": 6683,
      "可辅助": 6684,
      "呈现": 6685,
      "奶粉": 6686,
      "尽管": 6687,
      "应密切监测": 6688,
      "时更为明显": 6689,
      "来帮助": 6690,
      "标准": 6691,
      "标志": 6692,
      "用品": 6693,
      "的结果": 6694,
      "益气": 6695,
      "短时间内": 6696,
      "给药": 6697,
      "肠炎": 6698,
      "脑膜": 6699,
      "镜取石术": 6700,
      "隐睾": 6701,
      "高纤维": 6702,
      "鼻炎": 6703,
      "进行检测": 6704,
      "引起局部": 6705,
      "可以抑制": 6706,
      "避免摄入": 6707,
      "手术费用": 6708,
      "激素类药物": 6709,
      "饮食均衡": 6710,
      "可能导致局部": 6711,
      "组织结构": 6712,
      "身体对": 6713,
      "促进伤口愈合": 6714,
      "恢复情况": 6715,
      "正常情况下": 6716,
      "代谢障碍": 6717,
      "代谢性疾病": 6718,
      "尿道结石": 6719,
      "前列腺液": 6720,
      "不良影响": 6721,
      "以评估是否存在": 6722,
      "血液循环不畅": 6723,
      "睾丸扭转": 6724,
      "取决于其": 6725,
      "容易出现": 6726,
      "心率和": 6727,
      "进而影响到": 6728,
      "垂体前叶": 6729,
      "破伤风疫苗": 6730,
      "心血管疾病的风险": 6731,
      "外阴瘙痒": 6732,
      "卵泡发育": 6733,
      "肠溶片等": 6734,
      "X光片": 6735,
      "舒张压": 6736,
      "并不能直接治疗": 6737,
      "游泳等": 6738,
      "交感神经系统": 6739,
      "胎心胎芽": 6740,
      "高盐食物": 6741,
      "至数月": 6742,
      "阴性菌": 6743,
      "阿莫西林克拉维酸钾片": 6744,
      "意识丧失": 6745,
      "破伤风梭菌": 6746,
      "危及生命": 6747,
      "不会导致": 6748,
      "中成": 6749,
      "为主": 6750,
      "伤害": 6751,
      "关闭": 6752,
      "可表现为": 6753,
      "地黄": 6754,
      "均匀": 6755,
      "天然": 6756,
      "尤为": 6757,
      "尼龙": 6758,
      "尽量": 6759,
      "常用于": 6760,
      "强调": 6761,
      "或CT扫描": 6762,
      "指数": 6763,
      "泼尼龙": 6764,
      "洗澡": 6765,
      "用力": 6766,
      "甲泼尼龙": 6767,
      "种类": 6768,
      "而导致": 6769,
      "而形成": 6770,
      "耐量": 6771,
      "肝肾功能": 6772,
      "胶原": 6773,
      "腋下": 6774,
      "腺囊肿": 6775,
      "若为": 6776,
      "补钙": 6777,
      "西汀": 6778,
      "解脲": 6779,
      "诱导": 6780,
      "负重": 6781,
      "过早": 6782,
      "需遵医嘱": 6783,
      "可能有": 6784,
      "治疗通常包括": 6785,
      "导致关节": 6786,
      "避免与": 6787,
      "引起的疼痛": 6788,
      "对于较大的": 6789,
      "如果产妇": 6790,
      "异常症状": 6791,
      "心脏扩大": 6792,
      "神经传导": 6793,
      "免疫球蛋白": 6794,
      "可能是因为": 6795,
      "适当进行": 6796,
      "什么原因": 6797,
      "伴有其他": 6798,
      "检测等": 6799,
      "具有清热解毒": 6800,
      "药物治疗和": 6801,
      "这种症状": 6802,
      "生殖器": 6803,
      "皮质类固醇": 6804,
      "心理咨询": 6805,
      "超声波检查以及": 6806,
      "生育需求": 6807,
      "阴囊湿疹": 6808,
      "体积较小": 6809,
      "并接受相应治疗": 6810,
      "盆腔积液": 6811,
      "乏力等症状": 6812,
      "大脑皮层": 6813,
      "骨骼健康": 6814,
      "等原因导致的": 6815,
      "中医认为": 6816,
      "毛细血管扩张": 6817,
      "保持良好的生活习惯和饮食习惯": 6818,
      "雌激素和孕激素": 6819,
      "高于正常范围": 6820,
      "保持外阴清洁干燥": 6821,
      "阴囊肿胀": 6822,
      "十二指肠": 6823,
      "AL": 6824,
      "HB": 6825,
      "一旦": 6826,
      "一直": 6827,
      "下方": 6828,
      "下腹痛": 6829,
      "不一定": 6830,
      "不饱和脂肪酸": 6831,
      "健脾": 6832,
      "催乳素": 6833,
      "则不": 6834,
      "制成": 6835,
      "加工": 6836,
      "厌氧": 6837,
      "去甲": 6838,
      "口干": 6839,
      "周炎": 6840,
      "外源性": 6841,
      "奥美": 6842,
      "如戒烟限酒": 6843,
      "孕早期": 6844,
      "学习": 6845,
      "应遵循": 6846,
      "必须": 6847,
      "手法": 6848,
      "按照": 6849,
      "搔抓": 6850,
      "活化": 6851,
      "浸润": 6852,
      "照射": 6853,
      "特点": 6854,
      "甘草酸": 6855,
      "的检查": 6856,
      "者应": 6857,
      "肠胃": 6858,
      "肾盂": 6859,
      "脚趾": 6860,
      "腰酸": 6861,
      "表浅": 6862,
      "这类": 6863,
      "都需要": 6864,
      "随访": 6865,
      "预期": 6866,
      "可能需": 6867,
      "进行进一步的": 6868,
      "感染可能导致": 6869,
      "通常集中在": 6870,
      "发生改变": 6871,
      "心脏传导": 6872,
      "血压水平": 6873,
      "风险因素": 6874,
      "其他部位": 6875,
      "有助于增强": 6876,
      "过度使用": 6877,
      "过度增生": 6878,
      "并发症风险": 6879,
      "皮肤干燥": 6880,
      "预防措施": 6881,
      "一般无需特殊处理": 6882,
      "宫颈涂片": 6883,
      "肝脏功能": 6884,
      "口服或": 6885,
      "血液循环障碍": 6886,
      "输卵管阻塞": 6887,
      "肛门周围": 6888,
      "属于一种": 6889,
      "避免剧烈运动和": 6890,
      "生理性": 6891,
      "临床症状": 6892,
      "心律不齐": 6893,
      "排便困难": 6894,
      "此方法适用于": 6895,
      "以减轻症状": 6896,
      "镇痛药物": 6897,
      "胆汁淤积": 6898,
      "患者应注意休息": 6899,
      "但需注意的是": 6900,
      "动力学": 6901,
      "通透性增加": 6902,
      "维生素和矿物质": 6903,
      "中成药": 6904,
      "β受体阻滞剂": 6905,
      "一起": 6906,
      "下垂": 6907,
      "也可以": 6908,
      "以明确诊断": 6909,
      "会使得": 6910,
      "低盐": 6911,
      "元左右": 6912,
      "利嗪": 6913,
      "前区": 6914,
      "发烧": 6915,
      "受累": 6916,
      "在关注": 6917,
      "在一定程度上": 6918,
      "型颈椎病": 6919,
      "如合理饮食": 6920,
      "少数": 6921,
      "左旋": 6922,
      "应定期监测": 6923,
      "描述": 6924,
      "放电": 6925,
      "散步": 6926,
      "时会": 6927,
      "时会导致": 6928,
      "更加": 6929,
      "最好": 6930,
      "未闭": 6931,
      "机械": 6932,
      "此类药物": 6933,
      "残留": 6934,
      "溶栓": 6935,
      "炔雌": 6936,
      "牵拉": 6937,
      "电信号": 6938,
      "男科": 6939,
      "疼可能是由": 6940,
      "穿戴": 6941,
      "糖果": 6942,
      "肌劳损": 6943,
      "肝内": 6944,
      "胆道": 6945,
      "脱位": 6946,
      "还可能与": 6947,
      "遗尿": 6948,
      "重吸收": 6949,
      "量增多": 6950,
      "髋关节": 6951,
      "高蛋白": 6952,
      "可能因": 6953,
      "感染或其他": 6954,
      "手术风险": 6955,
      "疾病或": 6956,
      "饮食结构": 6957,
      "存在一定的": 6958,
      "从而形成": 6959,
      "可能会延长": 6960,
      "保持充足睡眠": 6961,
      "心脏健康": 6962,
      "身体变化": 6963,
      "免疫抑制剂": 6964,
      "并发症的风险": 6965,
      "适量饮用": 6966,
      "过程中的": 6967,
      "个人情况": 6968,
      "血液循环和": 6969,
      "排尿时": 6970,
      "等方法来改善": 6971,
      "区域的": 6972,
      "相应的": 6973,
      "电解质水平": 6974,
      "胆固醇水平": 6975,
      "病原体侵袭": 6976,
      "大量的": 6977,
      "小时内": 6978,
      "头孢克洛": 6979,
      "自身免疫反应": 6980,
      "利尿作用": 6981,
      "黄体生成素": 6982,
      "良性前列腺增生": 6983,
      "的主要因素": 6984,
      "抗病毒治疗": 6985,
      "疼痛和肿胀": 6986,
      "他汀类药物": 6987,
      "紧急处理": 6988,
      "风疹病毒": 6989,
      "数周至数月": 6990,
      "高胆固醇血症": 6991,
      "α受体阻滞剂": 6992,
      "不一": 6993,
      "且没有": 6994,
      "为什么": 6995,
      "住院": 6996,
      "促排卵": 6997,
      "共同": 6998,
      "凝胶": 6999,
      "加压": 7000,
      "卧位": 7001,
      "原发": 7002,
      "双歧": 7003,
      "可有效": 7004,
      "吃饭": 7005,
      "如此": 7006,
      "孕激素水平": 7007,
      "安排": 7008,
      "小切口": 7009,
      "工具": 7010,
      "左甲状腺素钠片": 7011,
      "急诊": 7012,
      "或多西环素": 7013,
      "按时": 7014,
      "时期": 7015,
      "是一": 7016,
      "玉米": 7017,
      "矫形": 7018,
      "禁食": 7019,
      "稀释": 7020,
      "紧缩": 7021,
      "终止": 7022,
      "缺失": 7023,
      "者慎用": 7024,
      "脚踝": 7025,
      "覆盖": 7026,
      "轮状": 7027,
      "软化": 7028,
      "较慢": 7029,
      "这可能是由于": 7030,
      "酗酒": 7031,
      "阿替": 7032,
      "高温": 7033,
      "可能的": 7034,
      "可能加重": 7035,
      "可能源于": 7036,
      "患者需": 7037,
      "药物性": 7038,
      "功能下降": 7039,
      "使用药物": 7040,
      "通常是由": 7041,
      "饮食管理": 7042,
      "炎症引起的": 7043,
      "免疫抑制": 7044,
      "以免导致": 7045,
      "产生压迫": 7046,
      "具体时间": 7047,
      "发育迟缓": 7048,
      "确保充足的休息": 7049,
      "慢性乙型肝炎": 7050,
      "选择正规": 7051,
      "部位出现": 7052,
      "输卵管造影": 7053,
      "辅助手段": 7054,
      "自身的": 7055,
      "适合所有": 7056,
      "以免加重症状": 7057,
      "非甾体类": 7058,
      "病原体侵入": 7059,
      "大量饮水": 7060,
      "胸部X线检查": 7061,
      "自身免疫性肝炎": 7062,
      "排便时": 7063,
      "超过正常范围": 7064,
      "经皮冠脉介入治疗": 7065,
      "患者需要及时就医": 7066,
      "燕麦片": 7067,
      "原发性高血压": 7068,
      "钙化灶": 7069,
      "暂时性的": 7070,
      "乳膏等": 7071,
      "持续时间较长": 7072,
      "如果不及时治疗": 7073,
      "盐酸左氧氟沙星胶囊等": 7074,
      "自己的": 7075,
      "不会直接导致": 7076,
      "杀菌作用": 7077,
      "EB病毒感染": 7078,
      "体外冲击波碎石术": 7079,
      "调整用药方案": 7080,
      "以便获得适当的诊断和治疗": 7081,
      "肌肉松弛剂": 7082,
      "的发生和发展": 7083,
      "旁路移植术": 7084,
      "去甲肾上腺素": 7085,
      "炔雌醇": 7086,
      "双歧杆菌": 7087,
      "三里": 7088,
      "下段": 7089,
      "不安": 7090,
      "丢失": 7091,
      "也有": 7092,
      "于患处": 7093,
      "以控制": 7094,
      "以辅助": 7095,
      "会通过": 7096,
      "保肝": 7097,
      "则价格": 7098,
      "吡嗪": 7099,
      "和分泌": 7100,
      "和损伤": 7101,
      "多巴": 7102,
      "大肠": 7103,
      "奇金": 7104,
      "如何": 7105,
      "如青霉素": 7106,
      "对本品": 7107,
      "尿意": 7108,
      "并形成": 7109,
      "并获得": 7110,
      "或感染": 7111,
      "整形": 7112,
      "是怎么": 7113,
      "服务": 7114,
      "未能": 7115,
      "来源": 7116,
      "枸橼": 7117,
      "氯霉素": 7118,
      "淋球菌": 7119,
      "激综合征": 7120,
      "热水": 7121,
      "的孩子": 7122,
      "红肉": 7123,
      "网膜": 7124,
      "美沙": 7125,
      "肾衰竭": 7126,
      "脖子": 7127,
      "脚后跟": 7128,
      "荨麻疹": 7129,
      "该药": 7130,
      "起床": 7131,
      "足三里": 7132,
      "透明": 7133,
      "酵母": 7134,
      "闭经": 7135,
      "霍奇金": 7136,
      "非霍奇金": 7137,
      "黏液": 7138,
      "进行手术": 7139,
      "进行止痛": 7140,
      "建议家长": 7141,
      "通常是指": 7142,
      "如果这些": 7143,
      "可能会加重": 7144,
      "子宫颈": 7145,
      "神经营养": 7146,
      "这些异常": 7147,
      "控制摄入量": 7148,
      "血管内": 7149,
      "会导致体内": 7150,
      "肌肉的": 7151,
      "减肥过程中": 7152,
      "阴道流血": 7153,
      "肝脏疾病": 7154,
      "无法自愈": 7155,
      "肠道内": 7156,
      "卵巢早衰": 7157,
      "淋巴细胞": 7158,
      "含有的": 7159,
      "造成一定的": 7160,
      "长时间站立": 7161,
      "生殖器官": 7162,
      "肥胖症": 7163,
      "部分或": 7164,
      "红肿等不良反应": 7165,
      "进食后": 7166,
      "避孕措施": 7167,
      "摄入过多的": 7168,
      "避免过度劳累和精神紧张": 7169,
      "抗甲状腺药物": 7170,
      "以便获得适当的治疗": 7171,
      "多种原因引起": 7172,
      "多种原因引起的": 7173,
      "广谱抗生素": 7174,
      "激动剂": 7175,
      "的一部分": 7176,
      "简单的": 7177,
      "分散片等": 7178,
      "卧床休息": 7179,
      "足底筋膜炎": 7180,
      "易感性": 7181,
      "阿米巴": 7182,
      "奥美拉唑": 7183,
      "非霍奇金淋巴瘤": 7184,
      "hCG": 7185,
      "不稳": 7186,
      "不必要的": 7187,
      "且存在": 7188,
      "他克": 7189,
      "以缓解": 7190,
      "器质": 7191,
      "多数": 7192,
      "天左右": 7193,
      "孕棒": 7194,
      "局限": 7195,
      "快走": 7196,
      "性传播": 7197,
      "成形": 7198,
      "支具": 7199,
      "是不是": 7200,
      "普生": 7201,
      "核酸": 7202,
      "止咳": 7203,
      "流通": 7204,
      "渗透": 7205,
      "牛肉": 7206,
      "用吗": 7207,
      "社交": 7208,
      "科室": 7209,
      "等有关": 7210,
      "缺铁": 7211,
      "者需": 7212,
      "肩背": 7213,
      "胃溃疡": 7214,
      "胳膊": 7215,
      "脾肿大": 7216,
      "萘普生": 7217,
      "该症状": 7218,
      "语言": 7219,
      "说话": 7220,
      "输液": 7221,
      "这两种": 7222,
      "退化": 7223,
      "那些": 7224,
      "醒来": 7225,
      "验孕棒": 7226,
      "可以喝": 7227,
      "可以提高": 7228,
      "可以增强": 7229,
      "影响到": 7230,
      "运动障碍": 7231,
      "同时关注": 7232,
      "血糖升高": 7233,
      "身体反应": 7234,
      "以及是否": 7235,
      "分泌异常": 7236,
      "损伤程度": 7237,
      "关节负担": 7238,
      "产生一定的": 7239,
      "减肥的关键": 7240,
      "因为此时": 7241,
      "的治疗通常包括": 7242,
      "确保安全": 7243,
      "体重变化": 7244,
      "剧烈的": 7245,
      "一般是": 7246,
      "口服避孕药": 7247,
      "受到损伤": 7248,
      "女性在": 7249,
      "女性的": 7250,
      "卵巢多囊": 7251,
      "多种维生素": 7252,
      "接触传播": 7253,
      "容易诱发": 7254,
      "病原体引起的": 7255,
      "同时注意个人卫生": 7256,
      "提供必要的": 7257,
      "并且要": 7258,
      "坏死组织": 7259,
      "止痛药": 7260,
      "胃肠道不适": 7261,
      "直肠癌": 7262,
      "以便及时发现病情变化": 7263,
      "的功能状态": 7264,
      "并注意观察": 7265,
      "真菌感染": 7266,
      "病理因素": 7267,
      "实验室检测": 7268,
      "痔疮膏": 7269,
      "韧带损伤": 7270,
      "体内激素水平变化": 7271,
      "适度运动": 7272,
      "退行性变": 7273,
      "修补术": 7274,
      "送至实验室": 7275,
      "戊酸雌二醇片": 7276,
      "心内膜炎": 7277,
      "ALT": 7278,
      "他克莫司": 7279,
      "2周": 7280,
      "48小时": 7281,
      "SH": 7282,
      "丘疹": 7283,
      "也可能影响": 7284,
      "以恢复": 7285,
      "会相应": 7286,
      "取环": 7287,
      "可采用": 7288,
      "四肢": 7289,
      "在此": 7290,
      "外力": 7291,
      "女人": 7292,
      "如辣椒": 7293,
      "并产生": 7294,
      "并咨询医生": 7295,
      "应关注": 7296,
      "应咨询医生": 7297,
      "应综合考虑": 7298,
      "当归": 7299,
      "当存在": 7300,
      "性地": 7301,
      "所导致的": 7302,
      "是预防": 7303,
      "更高": 7304,
      "海鲜": 7305,
      "滑膜炎": 7306,
      "甲功": 7307,
      "的炎症": 7308,
      "的控制": 7309,
      "穴等": 7310,
      "粘液": 7311,
      "系带": 7312,
      "结束": 7313,
      "胆酸": 7314,
      "节食": 7315,
      "若存在": 7316,
      "蔓延": 7317,
      "西梅": 7318,
      "负面": 7319,
      "较差": 7320,
      "较强的": 7321,
      "还原": 7322,
      "通路": 7323,
      "部疼痛": 7324,
      "高位": 7325,
      "可能由于": 7326,
      "导致体内": 7327,
      "建议及时": 7328,
      "功能亢进": 7329,
      "影响日常生活": 7330,
      "饮食上": 7331,
      "评估和": 7332,
      "血液检查": 7333,
      "反应蛋白": 7334,
      "风险增加": 7335,
      "恢复期间": 7336,
      "因此在": 7337,
      "持续不缓解": 7338,
      "脂肪燃烧": 7339,
      "细菌生长": 7340,
      "的治疗可以考虑": 7341,
      "保持良好的睡眠质量": 7342,
      "膀胱过度活动": 7343,
      "休息后": 7344,
      "肿瘤细胞": 7345,
      "腹部按摩": 7346,
      "等药物进行": 7347,
      "以便及时": 7348,
      "机体处于": 7349,
      "孕妇的": 7350,
      "中的某些": 7351,
      "或者存在": 7352,
      "瘙痒等症状": 7353,
      "孕期饮食": 7354,
      "胰岛素治疗": 7355,
      "患者可以遵医嘱使用": 7356,
      "要注意休息": 7357,
      "放射治疗": 7358,
      "左氧氟沙星等": 7359,
      "胃肠功能紊乱": 7360,
      "此方法适合于": 7361,
      "家族遗传": 7362,
      "宫腔内": 7363,
      "恶心呕吐等症状": 7364,
      "治疗措施包括药物治疗如": 7365,
      "韧带松弛": 7366,
      "血糖高的患者": 7367,
      "主要是通过": 7368,
      "心动过缓": 7369,
      "完善相关检查": 7370,
      "狭窄或阻塞": 7371,
      "IgG": 7372,
      "甲巯咪唑片": 7373,
      "抗组胺药": 7374,
      "高钙食物": 7375,
      "完整性": 7376,
      "自主神经系统": 7377,
      "避免吸烟和": 7378,
      "褐色分泌物": 7379,
      "以上各项检查均": 7380,
      "18": 7381,
      "cm": 7382,
      "一个月": 7383,
      "丙酸": 7384,
      "但并不能": 7385,
      "催乳": 7386,
      "占位": 7387,
      "后天": 7388,
      "吡格": 7389,
      "和减少": 7390,
      "和利用": 7391,
      "哪种": 7392,
      "塑形": 7393,
      "大面积": 7394,
      "实际": 7395,
      "尿流": 7396,
      "常用于治疗": 7397,
      "库欣": 7398,
      "心情": 7399,
      "房结": 7400,
      "手部": 7401,
      "指诊": 7402,
      "摔倒": 7403,
      "数月": 7404,
      "是常用": 7405,
      "氯吡格": 7406,
      "淤血": 7407,
      "滑膜积液": 7408,
      "烧灼": 7409,
      "用什么": 7410,
      "痊愈": 7411,
      "的健康": 7412,
      "盐水": 7413,
      "监督": 7414,
      "相结合": 7415,
      "空间": 7416,
      "窦房结": 7417,
      "缝合": 7418,
      "罗红霉素": 7419,
      "肩周炎": 7420,
      "脑供血不足": 7421,
      "跟骨": 7422,
      "酸软": 7423,
      "钙通道": 7424,
      "铁质": 7425,
      "长高": 7426,
      "骨裂": 7427,
      "骨关节炎": 7428,
      "可能通过": 7429,
      "可以减轻": 7430,
      "感染迹象": 7431,
      "出现的": 7432,
      "通常伴随着": 7433,
      "如果确诊为": 7434,
      "由于炎症刺激": 7435,
      "增加膳食纤维": 7436,
      "甲状腺癌": 7437,
      "甲状腺切除术": 7438,
      "子宫腔": 7439,
      "血压高": 7440,
      "关节肿胀": 7441,
      "长期饮酒": 7442,
      "营养补充": 7443,
      "皮肤表面": 7444,
      "建议定期体检": 7445,
      "一定量的": 7446,
      "休息时间": 7447,
      "能够有效": 7448,
      "中药方剂": 7449,
      "血液循环受阻": 7450,
      "无法完全": 7451,
      "睡眠呼吸暂停": 7452,
      "遗传性": 7453,
      "胰岛细胞": 7454,
      "没有出现": 7455,
      "瘙痒感": 7456,
      "是什么症状": 7457,
      "常规检查": 7458,
      "容易发生": 7459,
      "较大或伴有": 7460,
      "蛋白质和": 7461,
      "排除其他": 7462,
      "外伤后": 7463,
      "在专业人员": 7464,
      "直肠黏膜": 7465,
      "输精管堵塞": 7466,
      "甲亢患者": 7467,
      "以排除潜在的": 7468,
      "甲状腺功能减退症": 7469,
      "避免过度劳累和精神压力": 7470,
      "维生素D缺乏": 7471,
      "头孢克肟颗粒等": 7472,
      "或伴有其他症状": 7473,
      "推荐进行": 7474,
      "轻度至中度的": 7475,
      "弹性绷带": 7476,
      "性欲减退": 7477,
      "勤换内裤": 7478,
      "131治疗": 7479,
      "意外怀孕": 7480,
      "以便进行准确": 7481,
      "卵圆孔未闭": 7482,
      "含碘食物": 7483,
      "保持室内空气": 7484,
      "地黄丸": 7485,
      "氯吡格雷": 7486,
      "Hg": 7487,
      "亚铁": 7488,
      "介导": 7489,
      "催产": 7490,
      "克隆": 7491,
      "内源性": 7492,
      "刮宫": 7493,
      "前需": 7494,
      "割包皮": 7495,
      "协调": 7496,
      "卡因": 7497,
      "吃了": 7498,
      "和改善": 7499,
      "咪康唑": 7500,
      "处的": 7501,
      "多毛": 7502,
      "大姨妈": 7503,
      "存活": 7504,
      "将其": 7505,
      "小米": 7506,
      "带有": 7507,
      "必需": 7508,
      "性交": 7509,
      "性尿失禁": 7510,
      "时应注意": 7511,
      "来恢复": 7512,
      "氨蝶": 7513,
      "洗手": 7514,
      "湿气": 7515,
      "烫伤": 7516,
      "理想": 7517,
      "甲氨蝶": 7518,
      "疏通": 7519,
      "的代谢": 7520,
      "硝普": 7521,
      "碘元素": 7522,
      "积食": 7523,
      "类物质": 7524,
      "耐力": 7525,
      "肺心病": 7526,
      "腹膜炎": 7527,
      "膈肌": 7528,
      "草药": 7529,
      "蜂蜜": 7530,
      "该病": 7531,
      "谷氨": 7532,
      "运行": 7533,
      "还有": 7534,
      "重物": 7535,
      "食材": 7536,
      "可能发生在": 7537,
      "进行分析": 7538,
      "可以刺激": 7539,
      "通过使用": 7540,
      "炎症和疼痛": 7541,
      "可能会刺激": 7542,
      "子宫内": 7543,
      "神经功能": 7544,
      "神经肌肉": 7545,
      "组织间隙": 7546,
      "改善不适症状": 7547,
      "这些检查": 7548,
      "这些病原体": 7549,
      "分泌增加": 7550,
      "过度活跃": 7551,
      "此时会出现": 7552,
      "的治疗效果": 7553,
      "体内雌激素水平": 7554,
      "压力管理": 7555,
      "进一步恶化": 7556,
      "肝脏合成": 7557,
      "压迫神经": 7558,
      "会引起局部": 7559,
      "可以通过生活方式调整": 7560,
      "应避免摄入": 7561,
      "医师的": 7562,
      "水分和": 7563,
      "富含维生素C": 7564,
      "肾功能减退": 7565,
      "安全性": 7566,
      "红肿等不适症状": 7567,
      "浓度增高": 7568,
      "受体激动剂": 7569,
      "立即就医": 7570,
      "颗粒等": 7571,
      "则需要考虑": 7572,
      "氨基酸": 7573,
      "胃肠道平滑肌": 7574,
      "来改善病情": 7575,
      "阳性菌": 7576,
      "抗病毒药物如": 7577,
      "风湿免疫": 7578,
      "mmHg": 7579,
      "对于有家族史": 7580,
      "力量训练": 7581,
      "维生素B族": 7582,
      "并遵循医嘱进行": 7583,
      "植入术": 7584,
      "头孢菌素类": 7585,
      "遵照医生的意见服用": 7586,
      "保守治疗无效": 7587,
      "补液治疗": 7588,
      "当患者存在": 7589,
      "周围神经病变": 7590,
      "腱鞘炎": 7591,
      "年轻人": 7592,
      "幽门螺杆菌感染": 7593,
      "坠胀感": 7594,
      "以上提及的所有": 7595,
      "甘草酸苷": 7596,
      "如果这些症状持续": 7597,
      "缺铁性贫血": 7598,
      "库欣综合征": 7599,
      "甲氨蝶呤": 7600,
      "50": 7601,
      "5岁": 7602,
      "下完成": 7603,
      "为特征": 7604,
      "以外": 7605,
      "但要": 7606,
      "但不能": 7607,
      "减脂": 7608,
      "发黄": 7609,
      "向医生": 7610,
      "和修复": 7611,
      "和焦虑": 7612,
      "坚持": 7613,
      "声带": 7614,
      "多吃": 7615,
      "孕吐": 7616,
      "它们": 7617,
      "室间隔缺损": 7618,
      "带来": 7619,
      "并及时": 7620,
      "应遵循医嘱": 7621,
      "念珠": 7622,
      "想要": 7623,
      "成长": 7624,
      "拉米": 7625,
      "效率": 7626,
      "来促进": 7627,
      "水钠": 7628,
      "油脂": 7629,
      "炔诺": 7630,
      "病灶": 7631,
      "的评估和治疗": 7632,
      "的有氧运动": 7633,
      "福韦": 7634,
      "精确": 7635,
      "经济": 7636,
      "结缔": 7637,
      "肾积水": 7638,
      "背痛": 7639,
      "胡萝卜": 7640,
      "若未": 7641,
      "质子": 7642,
      "足跟": 7643,
      "这个": 7644,
      "阴唇": 7645,
      "导致血液": 7646,
      "症状且": 7647,
      "通过干扰": 7648,
      "通过抽取": 7649,
      "避免熬夜": 7650,
      "通常不": 7651,
      "对于严重的": 7652,
      "针对具体": 7653,
      "发生于": 7654,
      "甲状腺细胞": 7655,
      "心脏供血不足": 7656,
      "神经管": 7657,
      "神经病变": 7658,
      "神经功能障碍": 7659,
      "组织的": 7660,
      "组织器官": 7661,
      "有助于缓解症状": 7662,
      "主要发生在": 7663,
      "进而使": 7664,
      "的症状变化": 7665,
      "持续偏高": 7666,
      "蛋白尿": 7667,
      "减肥药": 7668,
      "怀孕吗": 7669,
      "适用于轻至中度": 7670,
      "体重管理": 7671,
      "活动性": 7672,
      "一般情况下": 7673,
      "慢性支气管炎": 7674,
      "无法顺利": 7675,
      "甲状腺功能异常": 7676,
      "注射部位": 7677,
      "输卵管切除": 7678,
      "卵巢轴": 7679,
      "直接作用于": 7680,
      "伤口护理": 7681,
      "病因并接受适当治疗": 7682,
      "常见的治疗方法": 7683,
      "取决于个体差异": 7684,
      "逐渐增大": 7685,
      "CT检查": 7686,
      "疫苗接种": 7687,
      "肾结石患者": 7688,
      "胸闷等症状": 7689,
      "缓释片等": 7690,
      "空腹状态下": 7691,
      "便秘症状": 7692,
      "抗体检测": 7693,
      "家长应注意观察": 7694,
      "泌尿系统疾病": 7695,
      "穿刺活检": 7696,
      "勃起功能": 7697,
      "破伤风针": 7698,
      "才能达到": 7699,
      "胆管炎": 7700,
      "胆管扩张": 7701,
      "侵犯周围组织": 7702,
      "可能表明存在": 7703,
      "间接地": 7704,
      "除了上述提及": 7705,
      "草酸盐": 7706,
      "配合医生通过": 7707,
      "复方甘草酸苷": 7708,
      "盆底肌肉锻炼": 7709,
      "强烈的": 7710,
      "硝酸酯": 7711,
      "以便早期发现并处理": 7712,
      "避免使用刺激性强的": 7713,
      "绝经后": 7714,
      "通过刺激穴位": 7715,
      "跟腱炎": 7716,
      "肠道菌群失调": 7717,
      "当结石移动": 7718,
      "的早期症状": 7719,
      "风湿免疫科": 7720,
      "结缔组织": 7721,
      "T4": 7722,
      "不完全": 7723,
      "之后": 7724,
      "九价": 7725,
      "也可": 7726,
      "仍有": 7727,
      "他定": 7728,
      "依据": 7729,
      "儿科": 7730,
      "六味": 7731,
      "几率": 7732,
      "则不能": 7733,
      "剖宫": 7734,
      "勤洗手": 7735,
      "包扎": 7736,
      "卡托": 7737,
      "压缩": 7738,
      "及其他": 7739,
      "发性的": 7740,
      "和药物治疗": 7741,
      "唾液": 7742,
      "外界": 7743,
      "大的": 7744,
      "如硝苯地平": 7745,
      "对症": 7746,
      "尿量": 7747,
      "屏障": 7748,
      "并监测": 7749,
      "心衰": 7750,
      "慢跑": 7751,
      "或出现": 7752,
      "抗心律失常": 7753,
      "搭桥": 7754,
      "斜疝": 7755,
      "无关": 7756,
      "普通": 7757,
      "替利嗪": 7758,
      "氨糖": 7759,
      "氯雷": 7760,
      "猕猴": 7761,
      "的相关症状": 7762,
      "盐溶液": 7763,
      "直径": 7764,
      "禁止": 7765,
      "肾气": 7766,
      "血精": 7767,
      "西替利嗪": 7768,
      "轻柔": 7769,
      "迂曲": 7770,
      "酯酶": 7771,
      "酸类药物": 7772,
      "重构": 7773,
      "钙离子": 7774,
      "锰酸钾": 7775,
      "随意": 7776,
      "需考虑": 7777,
      "鞘膜": 7778,
      "高水平": 7779,
      "高锰酸钾": 7780,
      "黑咖啡": 7781,
      "治疗期间": 7782,
      "治疗难度": 7783,
      "药物均": 7784,
      "建议咨询专业医生": 7785,
      "可以作为": 7786,
      "通过调节": 7787,
      "通过阻断": 7788,
      "避免久坐": 7789,
      "手术操作": 7790,
      "引起的症状": 7791,
      "对于这种情况": 7792,
      "疼痛症状": 7793,
      "饮食计划": 7794,
      "存在于": 7795,
      "生活作息": 7796,
      "可能会有": 7797,
      "时间延长": 7798,
      "子宫壁": 7799,
      "神经源性": 7800,
      "其他疾病": 7801,
      "以及必要时的": 7802,
      "细胞内": 7803,
      "控制的": 7804,
      "控制饮食": 7805,
      "因此价格": 7806,
      "关节保护": 7807,
      "代谢综合征": 7808,
      "尿道灼热感": 7809,
      "专业医生": 7810,
      "建议患者定期复查": 7811,
      "是一种微创手术": 7812,
      "并发症发生": 7813,
      "膀胱内": 7814,
      "抗生素进行治疗": 7815,
      "患者应避免过度劳累": 7816,
      "胎儿生长发育": 7817,
      "阴道松弛": 7818,
      "腹部疼痛": 7819,
      "患者可在医生指导下口服": 7820,
      "应避免饮酒": 7821,
      "没有明显的": 7822,
      "长时间站立或": 7823,
      "常见症状包括": 7824,
      "可能与遗传因素": 7825,
      "冠状动脉狭窄": 7826,
      "肝功能测试": 7827,
      "葡萄球菌": 7828,
      "切除术等": 7829,
      "在专业中医师指导下": 7830,
      "孕酮水平": 7831,
      "年龄较大": 7832,
      "复杂性": 7833,
      "建议定期监测血糖水平": 7834,
      "等方式进行治疗": 7835,
      "血流动力学": 7836,
      "性功能下降": 7837,
      "影像学检查如": 7838,
      "病理变化": 7839,
      "可能出现的问题": 7840,
      "通常由细菌感染引起": 7841,
      "以免引起皮肤瘙痒": 7842,
      "可以促进血液循环": 7843,
      "扩散至": 7844,
      "12周": 7845,
      "感染性心内膜炎": 7846,
      "阿奇霉素或多西环素": 7847,
      "早孕试纸": 7848,
      "以排除其他潜在": 7849,
      "详细的": 7850,
      "心脏瓣膜病": 7851,
      "由专业医生": 7852,
      "滴虫性": 7853,
      "抗凝治疗": 7854,
      "胎儿健康发育": 7855,
      "经尿道膀胱": 7856,
      "咽喉部": 7857,
      "球囊扩张": 7858,
      "能治好吗": 7859,
      "描述为": 7860,
      "溶栓治疗": 7861,
      "谷氨酰": 7862,
      "水钠潴留": 7863,
      "六味地黄丸": 7864,
      "卡托普利": 7865,
      "氯雷他定": 7866,
      "猕猴桃": 7867,
      "L属于": 7868,
      "丁酸": 7869,
      "不平衡": 7870,
      "产前": 7871,
      "仍然": 7872,
      "全部": 7873,
      "则可以": 7874,
      "剔除术": 7875,
      "可出现": 7876,
      "可伴有": 7877,
      "可遵医嘱服用": 7878,
      "和使用": 7879,
      "和水肿": 7880,
      "坐姿": 7881,
      "外翻": 7882,
      "如头孢克肟": 7883,
      "如快走": 7884,
      "定时": 7885,
      "并进行": 7886,
      "并定期进行": 7887,
      "应对": 7888,
      "弹力": 7889,
      "强化": 7890,
      "心肺功能": 7891,
      "按压": 7892,
      "易于": 7893,
      "未完全": 7894,
      "柴胡": 7895,
      "氯化": 7896,
      "泵抑制剂": 7897,
      "流动": 7898,
      "温水": 7899,
      "滤过": 7900,
      "生产": 7901,
      "疤痕": 7902,
      "的副作用": 7903,
      "的减肥效果": 7904,
      "的典型症状包括": 7905,
      "盐分": 7906,
      "等严重": 7907,
      "等部位": 7908,
      "等营养成分": 7909,
      "粒细胞": 7910,
      "而且": 7911,
      "而定": 7912,
      "而产生": 7913,
      "肌力": 7914,
      "肝素": 7915,
      "能促进": 7916,
      "脏器": 7917,
      "脱出": 7918,
      "腋窝": 7919,
      "起来": 7920,
      "造口": 7921,
      "骨细胞": 7922,
      "治疗前": 7923,
      "导致心脏": 7924,
      "进行操作": 7925,
      "引起疼痛": 7926,
      "需要及时": 7927,
      "使用时需注意": 7928,
      "医生还可能会": 7929,
      "疼痛程度": 7930,
      "定期检查": 7931,
      "可能会因为": 7932,
      "因素如": 7933,
      "正常生理": 7934,
      "这些都": 7935,
      "是否适合": 7936,
      "关节内": 7937,
      "持续数": 7938,
      "长期未": 7939,
      "细菌入侵": 7940,
      "发育不良": 7941,
      "子宫内膜厚度": 7942,
      "具有活血化瘀": 7943,
      "压力增加": 7944,
      "阴道内": 7945,
      "以减少感染风险": 7946,
      "活动量": 7947,
      "慢性肝炎": 7948,
      "不良后果": 7949,
      "过敏体质": 7950,
      "患者的病情": 7951,
      "观察到": 7952,
      "受到炎症刺激": 7953,
      "受损区域": 7954,
      "急性心肌梗死": 7955,
      "乳腺导管": 7956,
      "建议进行心电图": 7957,
      "建议进行超声波检查以评估": 7958,
      "可以通过生活方式干预": 7959,
      "的食物或": 7960,
      "精子的": 7961,
      "精子生成": 7962,
      "均衡饮食和适量运动": 7963,
      "的作用下": 7964,
      "医生的指导下进行": 7965,
      "结合形成": 7966,
      "甲状腺激素替代疗法": 7967,
      "氨基转移酶": 7968,
      "来改善症状": 7969,
      "软骨损伤": 7970,
      "的时间才能": 7971,
      "颅内出血": 7972,
      "伤口愈合情况": 7973,
      "的主要原因": 7974,
      "缺血缺氧": 7975,
      "疼痛和炎症": 7976,
      "谨慎使用": 7977,
      "胎儿的生长发育": 7978,
      "到医院进行": 7979,
      "的位置和": 7980,
      "狭窄或堵塞": 7981,
      "阿司匹林肠溶片": 7982,
      "功效的中药材": 7983,
      "乳汁分泌": 7984,
      "癫痫发作": 7985,
      "如果出现这些症状": 7986,
      "股骨头坏死": 7987,
      "饮食方面宜": 7988,
      "保胎治疗": 7989,
      "利巴韦林颗粒": 7990,
      "急性发作期": 7991,
      "早晨起床": 7992,
      "飞沫传播": 7993,
      "记忆力": 7994,
      "内衣裤": 7995,
      "钙通道阻滞剂": 7996,
      "质子泵抑制剂": 7997,
      "硝酸酯类药物": 7998,
      "1小时": 7999,
      "5抑制剂": 8000,
      "一条": 8001,
      "与其他": 8002,
      "二次": 8003,
      "交换": 8004,
      "体格": 8005,
      "内窥": 8006,
      "内固定": 8007,
      "劳动": 8008,
      "升糖": 8009,
      "单侧": 8010,
      "变性": 8011,
      "可在医生指导下使用": 8012,
      "唐氏": 8013,
      "壁增厚": 8014,
      "声波": 8015,
      "多发生在": 8016,
      "如感染": 8017,
      "实质": 8018,
      "屁股": 8019,
      "左炔诺": 8020,
      "常伴随": 8021,
      "干净": 8022,
      "并保持": 8023,
      "应龙": 8024,
      "应进行": 8025,
      "应密切关注": 8026,
      "急剧": 8027,
      "感受到": 8028,
      "拉伤": 8029,
      "挂什么": 8030,
      "指的是": 8031,
      "搏动": 8032,
      "效应": 8033,
      "易怒": 8034,
      "杏仁": 8035,
      "此病": 8036,
      "沟通": 8037,
      "油炸": 8038,
      "洛伐他汀": 8039,
      "流涕": 8040,
      "清创": 8041,
      "的异常": 8042,
      "的需求": 8043,
      "监护": 8044,
      "窘迫": 8045,
      "等物质": 8046,
      "肝脓肿": 8047,
      "肺病": 8048,
      "胃排空": 8049,
      "虫病": 8050,
      "西瓜": 8051,
      "要求": 8052,
      "计算": 8053,
      "起搏": 8054,
      "载脂蛋白": 8055,
      "较强": 8056,
      "还含有": 8057,
      "逐步": 8058,
      "针刺": 8059,
      "镜手术": 8060,
      "门冬": 8061,
      "防护": 8062,
      "马应龙": 8063,
      "患者会": 8064,
      "进行性生活": 8065,
      "可以在": 8066,
      "对于轻度的": 8067,
      "如果症状": 8068,
      "针对特定": 8069,
      "异常的": 8070,
      "可能会引发": 8071,
      "增加患": 8072,
      "血糖值": 8073,
      "监测血压": 8074,
      "身体处于": 8075,
      "刺激作用": 8076,
      "摄入不足": 8077,
      "改善血液循环": 8078,
      "主要由": 8079,
      "血管破裂": 8080,
      "是否出现": 8081,
      "病毒复制": 8082,
      "关节腔": 8083,
      "关节僵硬": 8084,
      "局部疼痛": 8085,
      "出血风险": 8086,
      "调整药物": 8087,
      "脂肪和": 8088,
      "表现在": 8089,
      "减肥目标": 8090,
      "膀胱黏膜": 8091,
      "结构和": 8092,
      "心肌病": 8093,
      "休息和": 8094,
      "等药物进行抗感染治疗": 8095,
      "能够起到": 8096,
      "肝脏损伤": 8097,
      "个体的": 8098,
      "必要时进行": 8099,
      "等疾病有关": 8100,
      "骨折后": 8101,
      "患者可以在医生指导下服用": 8102,
      "容易引起": 8103,
      "容易受到": 8104,
      "心理科": 8105,
      "全身各": 8106,
      "结肠镜检查": 8107,
      "的一种疾病": 8108,
      "的方式进行处理": 8109,
      "的变化情况": 8110,
      "治愈吗": 8111,
      "排便习惯": 8112,
      "输精管炎": 8113,
      "胃肠炎": 8114,
      "抗病毒药物进行治疗": 8115,
      "平滑肌收缩": 8116,
      "典型症状": 8117,
      "妊娠期高血压": 8118,
      "正常范围内": 8119,
      "毛细血管破裂": 8120,
      "摩擦和刺激": 8121,
      "放松训练": 8122,
      "建议定期复查以监测病情变化": 8123,
      "抗甲状腺药物如": 8124,
      "避免长时间站立或": 8125,
      "塞来昔布胶囊等": 8126,
      "可能由多种原因引起": 8127,
      "判断是否存在": 8128,
      "白带异常": 8129,
      "HCG检测": 8130,
      "碳酸钙": 8131,
      "应激状态": 8132,
      "消肿止痛": 8133,
      "进行全面的身体": 8134,
      "人乳头瘤病毒感染": 8135,
      "0000元之间": 8136,
      "含糖量": 8137,
      "麝香痔疮膏": 8138,
      "舒适的": 8139,
      "并获得适当治疗": 8140,
      "枸橼酸": 8141,
      "负面影响": 8142,
      "烧灼感": 8143,
      "剖宫产": 8144,
      "马应龙麝香痔疮膏": 8145,
      "T3": 8146,
      "nt": 8147,
      "万元之间": 8148,
      "优甲": 8149,
      "会在": 8150,
      "低钾": 8151,
      "充盈": 8152,
      "克林": 8153,
      "兰花": 8154,
      "冥想": 8155,
      "分化": 8156,
      "到达": 8157,
      "到一定程度": 8158,
      "单克隆": 8159,
      "去氧": 8160,
      "可使用": 8161,
      "和作用": 8162,
      "在儿童": 8163,
      "在特定": 8164,
      "多发": 8165,
      "大多数": 8166,
      "天内": 8167,
      "如牛奶": 8168,
      "如合理饮食和": 8169,
      "对胎儿": 8170,
      "幼儿": 8171,
      "形式": 8172,
      "性腺": 8173,
      "或治疗": 8174,
      "或呕吐": 8175,
      "打嗝": 8176,
      "放置": 8177,
      "无创": 8178,
      "时候": 8179,
      "有点": 8180,
      "来辅助": 8181,
      "来纠正": 8182,
      "枯草": 8183,
      "步骤": 8184,
      "气滞": 8185,
      "气血流": 8186,
      "沉着": 8187,
      "生姜": 8188,
      "甲流": 8189,
      "电子": 8190,
      "男性的": 8191,
      "的颜色": 8192,
      "等处": 8193,
      "置入": 8194,
      "肛管": 8195,
      "肾镜取石术": 8196,
      "脆弱": 8197,
      "脑梗死": 8198,
      "艾灸": 8199,
      "西兰花": 8200,
      "豆类": 8201,
      "跳绳": 8202,
      "辛伐他汀": 8203,
      "过滤": 8204,
      "透析": 8205,
      "采血": 8206,
      "阻止": 8207,
      "青春": 8208,
      "颤动": 8209,
      "高能量": 8210,
      "可能呈": 8211,
      "治疗手段": 8212,
      "进行改善": 8213,
      "可以提供": 8214,
      "通常指": 8215,
      "引起的轻微": 8216,
      "对于确诊为": 8217,
      "疼痛通常位于": 8218,
      "血液检测": 8219,
      "缓解肌肉紧张": 8220,
      "有助于稳定": 8221,
      "这些情况": 8222,
      "免疫缺陷": 8223,
      "出血倾向": 8224,
      "细菌或其他": 8225,
      "效果不佳": 8226,
      "营养师": 8227,
      "减轻压力": 8228,
      "子宫内膜脱落": 8229,
      "皮肤和": 8230,
      "怀孕前": 8231,
      "避免过度焦虑": 8232,
      "宫颈管": 8233,
      "宫颈细胞": 8234,
      "个体情况": 8235,
      "压迫周围": 8236,
      "调节内分泌系统": 8237,
      "睡眠时": 8238,
      "密切监测病情变化": 8239,
      "接触性皮炎": 8240,
      "超声波扫描": 8241,
      "肿大的": 8242,
      "维持正常的": 8243,
      "腹泻等症状": 8244,
      "偏高的情况": 8245,
      "适量运动等": 8246,
      "价格差异": 8247,
      "输尿管下段": 8248,
      "等情况时": 8249,
      "止痛效果": 8250,
      "的方式将": 8251,
      "胚胎着床": 8252,
      "为了确保": 8253,
      "有时伴有": 8254,
      "直肠炎": 8255,
      "体外受精": 8256,
      "软骨素": 8257,
      "是什么原因造成的": 8258,
      "阻塞性": 8259,
      "支气管扩张": 8260,
      "饮食和适量的运动": 8261,
      "食欲减退等症状": 8262,
      "高糖食品": 8263,
      "肝细胞受损": 8264,
      "环丙孕酮片": 8265,
      "人工授": 8266,
      "肾病综合征": 8267,
      "尿痛等症状": 8268,
      "肾小球滤过": 8269,
      "多余脂肪": 8270,
      "停药并": 8271,
      "如果不及时处理": 8272,
      "骨质疏松症": 8273,
      "凝血功能障碍": 8274,
      "但也有": 8275,
      "辐射至": 8276,
      "根治性": 8277,
      "胃酸分泌": 8278,
      "大小和位置": 8279,
      "出生后": 8280,
      "花生米": 8281,
      "月子期间": 8282,
      "封闭针": 8283,
      "家长应注意孩子的": 8284,
      "色素沉着": 8285,
      "钙盐沉积": 8286,
      "抗抑郁药": 8287,
      "阿替洛尔": 8288,
      "部分或全部": 8289,
      "优甲乐": 8290,
      "克林霉素": 8291,
      "气血流通": 8292,
      "三阳": 8293,
      "中等": 8294,
      "也有所不同": 8295,
      "以确诊": 8296,
      "但对于": 8297,
      "使患者出现": 8298,
      "便血": 8299,
      "偶尔": 8300,
      "加深": 8301,
      "动物": 8302,
      "及相关": 8303,
      "反弹": 8304,
      "可乐": 8305,
      "后续": 8306,
      "吻合": 8307,
      "和发育": 8308,
      "啤酒": 8309,
      "外部": 8310,
      "夫定": 8311,
      "尿培养": 8312,
      "干涩": 8313,
      "并严格": 8314,
      "应保持良好的生活习惯": 8315,
      "应严格": 8316,
      "开胸": 8317,
      "感受": 8318,
      "或不规则": 8319,
      "所在": 8320,
      "扁平": 8321,
      "抑菌": 8322,
      "昔康": 8323,
      "更好": 8324,
      "果糖": 8325,
      "气肿": 8326,
      "波长": 8327,
      "洋葱": 8328,
      "流失": 8329,
      "润滑": 8330,
      "溶性": 8331,
      "溶解": 8332,
      "的反应": 8333,
      "的机会": 8334,
      "睡觉": 8335,
      "硬结": 8336,
      "称为": 8337,
      "等不适": 8338,
      "红薯": 8339,
      "纯牛奶": 8340,
      "线条": 8341,
      "罕见": 8342,
      "而引发": 8343,
      "耗氧": 8344,
      "肋间": 8345,
      "胸口": 8346,
      "能自愈吗": 8347,
      "腺肌": 8348,
      "若孕妇": 8349,
      "药流": 8350,
      "还伴有": 8351,
      "远处": 8352,
      "连接": 8353,
      "连续": 8354,
      "遵守": 8355,
      "酮症": 8356,
      "重新": 8357,
      "镜检": 8358,
      "门诊": 8359,
      "阵发性的": 8360,
      "隐隐": 8361,
      "雾剂": 8362,
      "需结合": 8363,
      "高胰岛素": 8364,
      "高血脂": 8365,
      "患者年龄": 8366,
      "药物影响": 8367,
      "可以增加": 8368,
      "出现了": 8369,
      "避免暴饮暴食": 8370,
      "手术吗": 8371,
      "注意观察": 8372,
      "引起的不适症状": 8373,
      "如果在": 8374,
      "水平测定": 8375,
      "可能会诱发": 8376,
      "保持适当的": 8377,
      "心脏问题": 8378,
      "神经功能紊乱": 8379,
      "病情发展": 8380,
      "其他症状": 8381,
      "摄入足够的": 8382,
      "促进病情恢复": 8383,
      "恢复速度": 8384,
      "正常功能": 8385,
      "细胞膜": 8386,
      "控制能力": 8387,
      "会导致身体": 8388,
      "病毒性肝炎": 8389,
      "肌肉收缩": 8390,
      "代谢产物": 8391,
      "脂肪含量": 8392,
      "呼吸系统": 8393,
      "细菌或": 8394,
      "因为其": 8395,
      "建议患者在": 8396,
      "建议患者定期进行": 8397,
      "营养状态": 8398,
      "保持良好的作息": 8399,
      "检测到": 8400,
      "胎儿健康状况": 8401,
      "心肌供血不足": 8402,
      "根据医嘱": 8403,
      "进一步发展": 8404,
      "等药物缓解不适症状": 8405,
      "慢性阻塞性": 8406,
      "生长繁殖": 8407,
      "不能减肥": 8408,
      "提高生活质量": 8409,
      "是由病毒": 8410,
      "内分泌状态": 8411,
      "肿胀和": 8412,
      "腹痛等症状": 8413,
      "建议及时就医以确定具体原因并接受适当治疗": 8414,
      "以确定诊断": 8415,
      "特定波长": 8416,
      "心悸等症状": 8417,
      "手术切除肿瘤": 8418,
      "手术切除病变组织": 8419,
      "的人群而言": 8420,
      "同时注意营养均衡": 8421,
      "超声检查以及": 8422,
      "垂体功能减退": 8423,
      "盐酸二甲双胍": 8424,
      "等情况发生": 8425,
      "感到疲乏": 8426,
      "消耗热量": 8427,
      "心跳加速": 8428,
      "旨在通过": 8429,
      "负荷增加": 8430,
      "所以会出现": 8431,
      "片等药物进行": 8432,
      "这些因素导致": 8433,
      "血流量": 8434,
      "通过抑制前列腺素合成": 8435,
      "避免过度劳累和情绪波动": 8436,
      "的重要手段": 8437,
      "放松技巧": 8438,
      "体内激素水平的变化": 8439,
      "体力劳动": 8440,
      "早孕反应": 8441,
      "等病因导致的": 8442,
      "身高增长": 8443,
      "恶变风险": 8444,
      "骨髓炎": 8445,
      "肺功能测试": 8446,
      "对于无症状的": 8447,
      "碳酸氢": 8448,
      "智力低下": 8449,
      "补液盐溶液": 8450,
      "以确保安全有效": 8451,
      "废物和": 8452,
      "正规医院": 8453,
      "母乳喂养": 8454,
      "术后患者应遵循医嘱": 8455,
      "艾滋病": 8456,
      "葡萄糖酸钙": 8457,
      "避免接触已知过敏原": 8458,
      "尤为明显": 8459,
      "对本品过敏者禁用": 8460,
      "进行止痛治疗": 8461,
      "以便进行准确诊断和治疗": 8462,
      "向医生咨询": 8463,
      "升糖指数": 8464,
      "挂什么科": 8465,
      "枯草杆菌": 8466,
      "青春期": 8467,
      "人工授精": 8468,
      "100": 8469,
      "2周内": 8470,
      "PD": 8471,
      "三尖瓣": 8472,
      "丸等": 8473,
      "二胎": 8474,
      "会不会": 8475,
      "例假": 8476,
      "储备": 8477,
      "决策": 8478,
      "分离": 8479,
      "升主动脉": 8480,
      "华法": 8481,
      "发红": 8482,
      "右上": 8483,
      "咽部": 8484,
      "地尼": 8485,
      "壮阳": 8486,
      "外感": 8487,
      "大吗": 8488,
      "大三阳": 8489,
      "如遵医嘱使用": 8490,
      "如布洛芬缓释胶囊": 8491,
      "寒战": 8492,
      "并配合": 8493,
      "感或": 8494,
      "成为": 8495,
      "或过": 8496,
      "排气": 8497,
      "排石": 8498,
      "有用吗": 8499,
      "来补充": 8500,
      "枸杞": 8501,
      "根部": 8502,
      "洗剂": 8503,
      "添加": 8504,
      "滥用": 8505,
      "炔诺酮": 8506,
      "疼可能是": 8507,
      "的前": 8508,
      "的医疗": 8509,
      "的速度": 8510,
      "稠度": 8511,
      "等功效": 8512,
      "精囊": 8513,
      "紫薯": 8514,
      "耳道": 8515,
      "肚脐": 8516,
      "肺循环": 8517,
      "脑膜炎": 8518,
      "腰肌劳损": 8519,
      "腹压": 8520,
      "良性的": 8521,
      "范畴": 8522,
      "蓝花": 8523,
      "裂开": 8524,
      "西蓝花": 8525,
      "见效": 8526,
      "该物质": 8527,
      "还可能": 8528,
      "还可能伴有": 8529,
      "还需要结合合理的": 8530,
      "通风": 8531,
      "钾元素": 8532,
      "铁剂": 8533,
      "间质": 8534,
      "需个体化": 8535,
      "非特异性": 8536,
      "风寒": 8537,
      "高嘌呤": 8538,
      "导致血管": 8539,
      "导致体重下降": 8540,
      "症状加重": 8541,
      "进行干预": 8542,
      "建议减少": 8543,
      "可以选择": 8544,
      "可以起到": 8545,
      "手术前": 8546,
      "手术矫正": 8547,
      "减少热量摄入": 8548,
      "饮食健康": 8549,
      "发生炎症反应": 8550,
      "炎症或": 8551,
      "身体免疫力": 8552,
      "血压波动": 8553,
      "严重或": 8554,
      "食物过敏": 8555,
      "以及多种": 8556,
      "恢复正常的": 8557,
      "正常人": 8558,
      "细胞瘤": 8559,
      "肌肉无力": 8560,
      "脂肪分布": 8561,
      "什么意思": 8562,
      "细菌蛋白质合成": 8563,
      "体内缺乏": 8564,
      "患者应定期监测": 8565,
      "活动时": 8566,
      "压迫神经根": 8567,
      "调节剂": 8568,
      "黏膜损伤": 8569,
      "程度较轻": 8570,
      "不能被": 8571,
      "头孢地尼": 8572,
      "可能需要更长": 8573,
      "某些类型的": 8574,
      "生殖健康": 8575,
      "胰岛素的敏感性": 8576,
      "等方法来缓解": 8577,
      "腹腔内": 8578,
      "任何时间": 8579,
      "较大或": 8580,
      "通常需要通过": 8581,
      "垂体泌乳素": 8582,
      "恶性转化": 8583,
      "疾病的可能性": 8584,
      "则需及时就医": 8585,
      "下肢麻木": 8586,
      "感觉异常": 8587,
      "的方式来": 8588,
      "胃肠道功能紊乱": 8589,
      "甲状腺功能亢进时": 8590,
      "的时间因人而异": 8591,
      "释放激素": 8592,
      "这些因素会导致": 8593,
      "该药物能够": 8594,
      "的正常发育": 8595,
      "产妇在": 8596,
      "避免食用辛辣": 8597,
      "如果症状持续不缓解": 8598,
      "持续性或": 8599,
      "利尿剂如": 8600,
      "并采取适当的": 8601,
      "一系列临床表现": 8602,
      "前列腺素的合成": 8603,
      "以便及时发现并处理潜在的问题": 8604,
      "经期延长": 8605,
      "含有丰富的膳食纤维": 8606,
      "有助于减轻症状": 8607,
      "希望通过": 8608,
      "保持规律的生活作息": 8609,
      "长期大量使用": 8610,
      "以确保安全有效地": 8611,
      "高热量食物的摄入": 8612,
      "选择性地": 8613,
      "前往医院": 8614,
      "尚未完全": 8615,
      "间歇性": 8616,
      "寒冷刺激": 8617,
      "排尿次数增多": 8618,
      "患者可在医生指导下使用抗生素进行抗感染治疗": 8619,
      "关闭不全": 8620,
      "厌氧菌": 8621,
      "左旋甲状腺素钠片": 8622,
      "共同作用": 8623,
      "非甾体类抗炎药": 8624,
      "成形术": 8625,
      "卵巢多囊样改变": 8626,
      "用什么药": 8627,
      "起搏器": 8628,
      "更好地": 8629,
      "高胰岛素血症": 8630,
      "华法林": 8631,
      "丁胺": 8632,
      "下端": 8633,
      "不吃": 8634,
      "且未": 8635,
      "丝酵母": 8636,
      "乙胺": 8637,
      "优质": 8638,
      "低热": 8639,
      "假丝酵母": 8640,
      "关元": 8641,
      "冰袋": 8642,
      "到正规医院": 8643,
      "前病变": 8644,
      "单一": 8645,
      "双方": 8646,
      "可使": 8647,
      "可靠": 8648,
      "和血脂水平": 8649,
      "咯血": 8650,
      "基本": 8651,
      "多糖": 8652,
      "大概": 8653,
      "天气": 8654,
      "夫妻": 8655,
      "如规律作息": 8656,
      "如散步": 8657,
      "孕囊": 8658,
      "定量": 8659,
      "宽松": 8660,
      "尔蒙": 8661,
      "尿蛋白": 8662,
      "常常": 8663,
      "常表现为": 8664,
      "并按": 8665,
      "并释放": 8666,
      "并制定": 8667,
      "开腹": 8668,
      "当机体": 8669,
      "性粒细胞": 8670,
      "恶露": 8671,
      "恶性的": 8672,
      "指示": 8673,
      "无明显症状": 8674,
      "来缓解不适症状": 8675,
      "来发挥作用": 8676,
      "毛囊": 8677,
      "泵出": 8678,
      "的肌肉": 8679,
      "直视": 8680,
      "真的": 8681,
      "类药膏": 8682,
      "紧身": 8683,
      "练腹肌": 8684,
      "肉毒素": 8685,
      "肋软骨": 8686,
      "肌酐": 8687,
      "肥肉": 8688,
      "肺泡": 8689,
      "胆结石": 8690,
      "能不能": 8691,
      "腓肠": 8692,
      "腮腺": 8693,
      "荷尔蒙": 8694,
      "虾皮": 8695,
      "融合": 8696,
      "豆腐": 8697,
      "跌倒": 8698,
      "过重": 8699,
      "铁元素": 8700,
      "错误": 8701,
      "阳虚": 8702,
      "需定期监测": 8703,
      "鞋子": 8704,
      "高危": 8705,
      "黑米": 8706,
      "导致局部组织": 8707,
      "药物流产": 8708,
      "可以挂": 8709,
      "可以辅助": 8710,
      "功能的": 8711,
      "需要在": 8712,
      "避免因": 8713,
      "避免过量": 8714,
      "手术时": 8715,
      "手术时间": 8716,
      "对于较小的": 8717,
      "可能会形成": 8718,
      "保持伤口": 8719,
      "神经反射": 8720,
      "神经受压": 8721,
      "身体会": 8722,
      "摄入的热量": 8723,
      "促进愈合": 8724,
      "作用的": 8725,
      "细胞增殖": 8726,
      "主要影响": 8727,
      "血管炎": 8728,
      "会导致膀胱": 8729,
      "会导致局部组织": 8730,
      "关节疼痛": 8731,
      "关节软骨": 8732,
      "原因导致": 8733,
      "脂肪分解": 8734,
      "长期如此": 8735,
      "专业评估": 8736,
      "效果较好": 8737,
      "前列腺肥大": 8738,
      "糖尿病患者的": 8739,
      "激素水平的变化": 8740,
      "心肌耗氧": 8741,
      "活动度": 8742,
      "腹部绞痛": 8743,
      "宫颈口": 8744,
      "生长缓慢": 8745,
      "能够为": 8746,
      "孕妇及": 8747,
      "术后管理": 8748,
      "肝脏健康": 8749,
      "这种不适感": 8750,
      "高血压等": 8751,
      "个体对": 8752,
      "收缩压": 8753,
      "的患者而言": 8754,
      "可能需要更长时间": 8755,
      "狭窄甚至": 8756,
      "造成压迫": 8757,
      "肿胀等症状": 8758,
      "日常生活中要注意": 8759,
      "肛门疼痛": 8760,
      "尿频尿急": 8761,
      "疲劳等症状": 8762,
      "冠状动脉旁路移植术": 8763,
      "结果准确性": 8764,
      "以确保其": 8765,
      "建议定期进行产前检查": 8766,
      "病原体感染": 8767,
      "提供能量": 8768,
      "孕酮片等": 8769,
      "则需要通过": 8770,
      "频繁地": 8771,
      "下肢静脉": 8772,
      "临床上": 8773,
      "随着年龄增长": 8774,
      "作为辅助治疗手段": 8775,
      "影像学": 8776,
      "但是需要注意的是": 8777,
      "月经周期不规律": 8778,
      "瓣膜功能不全": 8779,
      "缺血性": 8780,
      "000元之间": 8781,
      "表面抗原": 8782,
      "宫腔镜检查": 8783,
      "持续性疼痛": 8784,
      "发挥杀菌作用": 8785,
      "沉积于": 8786,
      "腹股沟疝气": 8787,
      "甘油三酯水平": 8788,
      "结核分枝杆菌感染引起的": 8789,
      "如果孕妇对": 8790,
      "物理疗法如": 8791,
      "延缓病情进展": 8792,
      "轻至中度的": 8793,
      "类风湿性关节炎": 8794,
      "抗结核治疗": 8795,
      "传统中医": 8796,
      "大腿内侧": 8797,
      "硝酸咪康唑": 8798,
      "非甾体抗炎药如布洛芬缓释胶囊": 8799,
      "备孕期间": 8800,
      "抗氧化作用": 8801,
      "结扎术": 8802,
      "一般不需要特殊处理": 8803,
      "损伤和炎症反应": 8804,
      "功能性锻炼": 8805,
      "一般不严重": 8806,
      "适量运动和充足睡眠": 8807,
      "这些症状可能提示": 8808,
      "供氧不足": 8809,
      "的区别在于": 8810,
      "坐骨神经痛": 8811,
      "家族中有": 8812,
      "浆细胞恶性": 8813,
      "胶原蛋白": 8814,
      "终止妊娠": 8815,
      "热水袋": 8816,
      "丙酸睾酮": 8817,
      "滴虫性阴道炎": 8818,
      "21": 8819,
      "GI": 8820,
      "TSH": 8821,
      "上行": 8822,
      "不利": 8823,
      "不退": 8824,
      "且患者": 8825,
      "且难以": 8826,
      "中断": 8827,
      "中性粒细胞": 8828,
      "也有助于促进": 8829,
      "以帮助": 8830,
      "低压": 8831,
      "低血钾": 8832,
      "促黄体生成素": 8833,
      "倍他": 8834,
      "克力": 8835,
      "原氨酸": 8836,
      "启动": 8837,
      "和技术": 8838,
      "和工作": 8839,
      "团块": 8840,
      "如发现": 8841,
      "如糖尿病": 8842,
      "巧克力": 8843,
      "应定期复查": 8844,
      "当炎症": 8845,
      "或消失": 8846,
      "抗焦虑": 8847,
      "挤压": 8848,
      "提肛": 8849,
      "时的": 8850,
      "是首选": 8851,
      "显微": 8852,
      "晨尿": 8853,
      "欲望": 8854,
      "死胎": 8855,
      "母亲": 8856,
      "毒症": 8857,
      "毛囊炎": 8858,
      "流行性": 8859,
      "浓缩": 8860,
      "烟草": 8861,
      "疼是怎么回事": 8862,
      "癌变": 8863,
      "的小": 8864,
      "的损伤": 8865,
      "的具体": 8866,
      "的排出": 8867,
      "的能量": 8868,
      "的严重程度": 8869,
      "的一个": 8870,
      "禁欲": 8871,
      "等成分": 8872,
      "肩膀": 8873,
      "胀满": 8874,
      "胸椎间盘突出": 8875,
      "脑垂体瘤": 8876,
      "触诊": 8877,
      "诺氟沙星": 8878,
      "豆浆": 8879,
      "豆制品": 8880,
      "边缘": 8881,
      "还是": 8882,
      "通液": 8883,
      "造血": 8884,
      "长效": 8885,
      "间皮": 8886,
      "降温": 8887,
      "降血压": 8888,
      "需在": 8889,
      "预激综合征": 8890,
      "鲑鱼": 8891,
      "症状者": 8892,
      "可以遵医嘱服用": 8893,
      "感染等": 8894,
      "避免饮酒": 8895,
      "通常意味着": 8896,
      "疾病引起的": 8897,
      "对于轻度": 8898,
      "疼痛加剧": 8899,
      "异常放电": 8900,
      "炎症介质": 8901,
      "可能会干扰": 8902,
      "身体造成": 8903,
      "有助于增加饱腹感": 8904,
      "主要成分": 8905,
      "这些激素": 8906,
      "血管收缩": 8907,
      "血管外科": 8908,
      "局部皮肤": 8909,
      "代谢状态": 8910,
      "长期吸烟": 8911,
      "什么症状": 8912,
      "尿道损伤": 8913,
      "细菌引起的": 8914,
      "细菌侵入": 8915,
      "的治疗措施": 8916,
      "皮肤病": 8917,
      "遵医嘱进行": 8918,
      "体重增长": 8919,
      "压力大": 8920,
      "避免过度清洗": 8921,
      "的发生概率": 8922,
      "进一步加剧": 8923,
      "慢性肾衰竭": 8924,
      "生长迟缓": 8925,
      "能够增强": 8926,
      "术后需注意": 8927,
      "消化和": 8928,
      "肠道微生态": 8929,
      "调节体内": 8930,
      "输卵管炎症": 8931,
      "受损组织": 8932,
      "潜在的风险": 8933,
      "必要时还可": 8934,
      "抗炎药物": 8935,
      "内分泌科": 8936,
      "上述情况": 8937,
      "精子活力": 8938,
      "咳嗽等症状": 8939,
      "医生的建议进行": 8940,
      "腹腔积液": 8941,
      "容易导致": 8942,
      "心理健康": 8943,
      "应及时就医进行": 8944,
      "腹泻等": 8945,
      "肾功能衰竭": 8946,
      "同时注意均衡饮食": 8947,
      "不同的": 8948,
      "阴囊内": 8949,
      "频繁的": 8950,
      "进入血液循环": 8951,
      "可能伴随有": 8952,
      "健康的生活方式": 8953,
      "能量消耗": 8954,
      "乙肝病毒感染": 8955,
      "乙肝疫苗": 8956,
      "呼吸道黏膜": 8957,
      "穴位进行": 8958,
      "这些因素都": 8959,
      "子宫内膜异位症是指": 8960,
      "辛辣食物": 8961,
      "心血管疾病的发生": 8962,
      "传导阻滞": 8963,
      "宫腔镜": 8964,
      "突然发生的": 8965,
      "从而达到减肥的效果": 8966,
      "单纯的": 8967,
      "10天": 8968,
      "可能存在的": 8969,
      "频率和": 8970,
      "在接受任何": 8971,
      "气血不足": 8972,
      "心房颤动": 8973,
      "身体的需求": 8974,
      "不规则或": 8975,
      "慎用本品": 8976,
      "切开术": 8977,
      "异常增生的": 8978,
      "是主要治疗方法": 8979,
      "应避免剧烈运动和": 8980,
      "最佳效果": 8981,
      "抗结核药物治疗": 8982,
      "磷酸二": 8983,
      "阿托品": 8984,
      "产生的毒素": 8985,
      "氧气供应": 8986,
      "暴露于": 8987,
      "反映了": 8988,
      "腰椎管狭窄": 8989,
      "血液流入": 8990,
      "低密度脂蛋白胆固醇水平": 8991,
      "既往有": 8992,
      "油腻食物": 8993,
      "抽血化验": 8994,
      "解剖结构": 8995,
      "敏感菌株": 8996,
      "酒精性肝病": 8997,
      "格列齐特片": 8998,
      "丙氨酸氨基转移酶": 8999,
      "醋酸甲羟孕酮片": 9000,
      "微波治疗": 9001,
      "对于糖尿病患者来说": 9002,
      "还应考虑是否存在": 9003,
      "但并非所有": 9004,
      "冷冻治疗": 9005,
      "胆道梗阻": 9006,
      "炔雌醇环丙孕酮片": 9007,
      "多巴胺": 9008,
      "他克莫司软膏": 9009,
      "腺肌症": 9010,
      "16": 9011,
      "5天": 9012,
      "一周": 9013,
      "上长": 9014,
      "下移": 9015,
      "不正常": 9016,
      "与卵子": 9017,
      "专注": 9018,
      "且有": 9019,
      "东西": 9020,
      "也有助于改善": 9021,
      "二联活菌": 9022,
      "其通过抑制": 9023,
      "养血": 9024,
      "初步": 9025,
      "利多": 9026,
      "可进行": 9027,
      "可减少": 9028,
      "可帮助": 9029,
      "后会": 9030,
      "向上": 9031,
      "呕血": 9032,
      "太阳": 9033,
      "婴幼儿": 9034,
      "孕晚期": 9035,
      "少年": 9036,
      "尿多": 9037,
      "尿崩": 9038,
      "当发生": 9039,
      "微循环": 9040,
      "性疼痛": 9041,
      "性低血压": 9042,
      "意义": 9043,
      "或减少": 9044,
      "或更长时间": 9045,
      "抵御": 9046,
      "无排卵": 9047,
      "早上": 9048,
      "是非常重要": 9049,
      "晶体": 9050,
      "有帮助": 9051,
      "末端": 9052,
      "柠檬": 9053,
      "椎体": 9054,
      "此症状": 9055,
      "毫米": 9056,
      "氢氯吡格雷": 9057,
      "水源": 9058,
      "滋养": 9059,
      "灰质": 9060,
      "烟雾": 9061,
      "猪蹄": 9062,
      "的血液": 9063,
      "的危害": 9064,
      "石散": 9065,
      "磷脂": 9066,
      "等方面": 9067,
      "素质": 9068,
      "紧致": 9069,
      "约为": 9070,
      "经络": 9071,
      "而加重": 9072,
      "而加剧": 9073,
      "肌酸": 9074,
      "肠壁": 9075,
      "胸椎": 9076,
      "胸腺": 9077,
      "能喝": 9078,
      "脑炎": 9079,
      "脑电图": 9080,
      "脱石散": 9081,
      "节育": 9082,
      "若是": 9083,
      "若确诊为": 9084,
      "蒙脱石散": 9085,
      "蛲虫": 9086,
      "血丝": 9087,
      "规定": 9088,
      "诊疗": 9089,
      "贝拉唑": 9090,
      "贲门": 9091,
      "较多的": 9092,
      "还具有": 9093,
      "这主要是因为": 9094,
      "送往": 9095,
      "采样": 9096,
      "重体力劳动": 9097,
      "门脉": 9098,
      "除上述提及": 9099,
      "随之": 9100,
      "雷贝拉唑": 9101,
      "青少年": 9102,
      "顺产后": 9103,
      "额叶": 9104,
      "黏稠度": 9105,
      "治疗方式": 9106,
      "导致身体": 9107,
      "患者而言": 9108,
      "对于孕妇": 9109,
      "疼痛一般集中在": 9110,
      "如果女性": 9111,
      "针对此类": 9112,
      "炎症或其他": 9113,
      "可能会压迫": 9114,
      "心脏康复训练": 9115,
      "子宫出血": 9116,
      "神经压迫": 9117,
      "身体素质": 9118,
      "评估后": 9119,
      "评估是否需要": 9120,
      "严重影响": 9121,
      "严重情况下": 9122,
      "促进结石排出": 9123,
      "恢复较快": 9124,
      "有助于控制": 9125,
      "有助于维护": 9126,
      "这些成分": 9127,
      "因此建议": 9128,
      "适当休息": 9129,
      "适当补充": 9130,
      "什么是": 9131,
      "的治疗通常需要": 9132,
      "建议患者平时": 9133,
      "营养摄入": 9134,
      "减轻体重": 9135,
      "是一种由": 9136,
      "增生和": 9137,
      "相关指标": 9138,
      "肿瘤组织": 9139,
      "阴道紧缩": 9140,
      "的发生与": 9141,
      "进一步影响": 9142,
      "机体抵抗力": 9143,
      "有效性": 9144,
      "应注意个人卫生": 9145,
      "结核性": 9146,
      "维生素A": 9147,
      "可能出现的风险": 9148,
      "囊肿增大": 9149,
      "的患者来说": 9150,
      "遗传易感性": 9151,
      "如果患者出现": 9152,
      "恶心感": 9153,
      "恶心或呕吐": 9154,
      "某些药物如": 9155,
      "吸收障碍": 9156,
      "医师指导": 9157,
      "稳定的": 9158,
      "冠状动脉造影": 9159,
      "合理搭配": 9160,
      "肾脏疾病": 9161,
      "水分摄入量": 9162,
      "逐渐增加": 9163,
      "同时注意保持良好的生活习惯": 9164,
      "缺乏运动": 9165,
      "过量的": 9166,
      "氨基葡萄糖": 9167,
      "传染给": 9168,
      "随着时间": 9169,
      "抗体水平": 9170,
      "消耗更多的": 9171,
      "消耗的热量": 9172,
      "婴儿的": 9173,
      "治愈的目的": 9174,
      "月经周期的": 9175,
      "免疫力低下": 9176,
      "生活方式干预通过改善": 9177,
      "染色体分析": 9178,
      "应尽量": 9179,
      "也可能引起": 9180,
      "完成整个": 9181,
      "胸膜间皮": 9182,
      "超声心动图等": 9183,
      "如果患者存在严重的": 9184,
      "胎儿的健康": 9185,
      "医生可能会开具": 9186,
      "阴道出血等症状": 9187,
      "低血糖症": 9188,
      "可以促进新陈代谢": 9189,
      "下腹部疼痛": 9190,
      "自然受孕": 9191,
      "应及时咨询医生": 9192,
      "消化道出血": 9193,
      "卵子和": 9194,
      "如有不适": 9195,
      "炎症因子刺激局部组织": 9196,
      "脊髓灰质": 9197,
      "阴道分泌物增多": 9198,
      "整个孕期": 9199,
      "或伴有其他不适": 9200,
      "白带增多": 9201,
      "人绒毛膜水平": 9202,
      "氢化可的松乳膏": 9203,
      "适应症": 9204,
      "白细胞计数": 9205,
      "黄体酮胶囊": 9206,
      "硫酸氢氯吡格雷": 9207,
      "发胖吗": 9208,
      "寄生虫感染": 9209,
      "菌性尿道炎": 9210,
      "受影响的": 9211,
      "抗血小板治疗": 9212,
      "胸腔积液": 9213,
      "组成部分": 9214,
      "永久性": 9215,
      "标志物": 9216,
      "强调的是": 9217,
      "耐量试验": 9218,
      "是一项": 9219,
      "美沙拉": 9220,
      "中的某些成分": 9221,
      "是常用的治疗方法": 9222,
      "介导的": 9223,
      "内窥镜": 9224,
      "枯草杆菌二联活菌": 9225,
      "提肛运动": 9226,
      "专注于": 9227,
      "利多卡因": 9228,
      "尿崩症": 9229,
      "脊髓灰质炎": 9230,
      "17": 9231,
      "2型": 9232,
      "300": 9233,
      "500": 9234,
      "90": 9235,
      "IV": 9236,
      "β受体拮抗剂": 9237,
      "一阵": 9238,
      "人士": 9239,
      "以增加": 9240,
      "作痛": 9241,
      "入睡": 9242,
      "匮肾气": 9243,
      "医护": 9244,
      "卡波": 9245,
      "原理": 9246,
      "变异": 9247,
      "口罩": 9248,
      "可刺激": 9249,
      "后背": 9250,
      "响声": 9251,
      "唑嗪": 9252,
      "喂食": 9253,
      "四烯": 9254,
      "坚硬": 9255,
      "多沙": 9256,
      "大部分": 9257,
      "如减少": 9258,
      "它是一种": 9259,
      "定点": 9260,
      "宿主": 9261,
      "富马": 9262,
      "对其": 9263,
      "对多种": 9264,
      "尽快就医": 9265,
      "并不会": 9266,
      "并咨询专业医生的意见": 9267,
      "应保持": 9268,
      "微血管": 9269,
      "心源性": 9270,
      "手腕": 9271,
      "打完": 9272,
      "曲唑": 9273,
      "更昔洛韦": 9274,
      "替诺": 9275,
      "标本": 9276,
      "核心": 9277,
      "水样": 9278,
      "泊西汀": 9279,
      "渐进": 9280,
      "渗透性": 9281,
      "滑脱": 9282,
      "炎性": 9283,
      "电流": 9284,
      "疏肝": 9285,
      "的稳定": 9286,
      "眼球": 9287,
      "磺酸": 9288,
      "红柿": 9289,
      "终身": 9290,
      "羟色": 9291,
      "胸主动脉": 9292,
      "脑室": 9293,
      "脑组织": 9294,
      "脑积水": 9295,
      "舌燥": 9296,
      "药品": 9297,
      "药材": 9298,
      "血块": 9299,
      "西红柿": 9300,
      "视网膜": 9301,
      "负压": 9302,
      "输出": 9303,
      "达泊西汀": 9304,
      "这是一种": 9305,
      "远端": 9306,
      "逍遥": 9307,
      "酸胀": 9308,
      "金属": 9309,
      "金匮肾气": 9310,
      "闭锁": 9311,
      "阿卡波": 9312,
      "患者要": 9313,
      "药物来": 9314,
      "建议在专业医生指导下": 9315,
      "可以治疗": 9316,
      "可以用于治疗": 9317,
      "功能锻炼": 9318,
      "需要使用": 9319,
      "需要强调的是": 9320,
      "检查和治疗": 9321,
      "通过促进": 9322,
      "通过血液循环": 9323,
      "避免高糖": 9324,
      "通常情况下": 9325,
      "手术等": 9326,
      "手术修复": 9327,
      "引起的局部": 9328,
      "对于高血压患者": 9329,
      "激素治疗": 9330,
      "炎症细胞": 9331,
      "心脏收缩": 9332,
      "组织发生": 9333,
      "用于缓解": 9334,
      "评估风险": 9335,
      "血液凝固": 9336,
      "严重性": 9337,
      "食物并不能直接治疗": 9338,
      "因素导致": 9339,
      "有助于控制血压": 9340,
      "控制好": 9341,
      "进而促进": 9342,
      "系统性": 9343,
      "因此不": 9344,
      "是否伴有": 9345,
      "关节镜下": 9346,
      "肌肉疲劳": 9347,
      "以免出现": 9348,
      "此外还": 9349,
      "动脉瘤": 9350,
      "尿道感染": 9351,
      "具体价格": 9352,
      "发育不": 9353,
      "前列腺钙化": 9354,
      "前列腺特异性": 9355,
      "剧烈腹痛": 9356,
      "阴道壁": 9357,
      "月经紊乱": 9358,
      "慢性前列腺炎": 9359,
      "以评估病情进展": 9360,
      "综合评估": 9361,
      "无法有效地": 9362,
      "女性生殖系统": 9363,
      "肠道黏膜": 9364,
      "受损或": 9365,
      "合成的": 9366,
      "自身症状变化": 9367,
      "患者可通过": 9368,
      "从而引起疼痛": 9369,
      "内分泌检查": 9370,
      "尿液颜色": 9371,
      "应避免自行": 9372,
      "呼吸困难的症状": 9373,
      "干预措施": 9374,
      "精子数量": 9375,
      "肛门瘙痒": 9376,
      "重要作用": 9377,
      "建议及时就医以获得适当的治疗": 9378,
      "甚至会出现": 9379,
      "容易形成": 9380,
      "心理支持": 9381,
      "葡萄胎": 9382,
      "全身性": 9383,
      "生理反应": 9384,
      "浓度升高": 9385,
      "不同程度": 9386,
      "胸部X线": 9387,
      "下肢静脉曲张": 9388,
      "情绪激动": 9389,
      "肺部疾病": 9390,
      "传播风险": 9391,
      "新陈代谢加快": 9392,
      "生物反馈": 9393,
      "保证营养均衡": 9394,
      "治愈的": 9395,
      "若患者在": 9396,
      "椎间孔": 9397,
      "等因素的影响": 9398,
      "泌尿系统感染": 9399,
      "避孕套": 9400,
      "颅内压": 9401,
      "MRI成像": 9402,
      "含量较高": 9403,
      "附睾囊肿": 9404,
      "糖皮质激素类药物": 9405,
      "敏感性增加": 9406,
      "的关键是": 9407,
      "合并有": 9408,
      "不规则出血": 9409,
      "雌激素水平下降": 9410,
      "血液供应不足": 9411,
      "需谨慎使用": 9412,
      "少量出血": 9413,
      "血糖控制不佳": 9414,
      "但也可能是": 9415,
      "穿着透气": 9416,
      "降脂药物": 9417,
      "通常会在": 9418,
      "益生菌制剂": 9419,
      "交叉感染": 9420,
      "高热量食物": 9421,
      "花生四烯": 9422,
      "勤换洗": 9423,
      "受影响区域": 9424,
      "识别并": 9425,
      "自身免疫性甲状腺炎": 9426,
      "生殖道感染": 9427,
      "衣原体感染": 9428,
      "人乳头瘤病毒": 9429,
      "免疫调节剂": 9430,
      "规范化": 9431,
      "腹膜后": 9432,
      "类似物": 9433,
      "引导下": 9434,
      "下肢深静脉血栓形成": 9435,
      "继发感染": 9436,
      "脑膜瘤": 9437,
      "心率和血压": 9438,
      "药物性肝损伤": 9439,
      "选择正规医疗机构": 9440,
      "神经营养药物": 9441,
      "渗透压": 9442,
      "还原酶": 9443,
      "轻柔地": 9444,
      "隐隐作痛": 9445,
      "保持良好的作息习惯": 9446,
      "特定波长的": 9447,
      "高嘌呤食物": 9448,
      "是非常重要的": 9449,
      "医护人员": 9450,
      "多沙唑嗪": 9451,
      "富马酸": 9452,
      "替诺福韦": 9453,
      "阿卡波糖": 9454,
      "前列腺特异性抗原": 9455,
      "花生四烯酸": 9456,
      "5周": 9457,
      "久站": 9458,
      "二度": 9459,
      "会造成": 9460,
      "但在": 9461,
      "假体": 9462,
      "克罗": 9463,
      "关联": 9464,
      "其为": 9465,
      "分叉": 9466,
      "双顶": 9467,
      "受凉": 9468,
      "变薄": 9469,
      "可改善": 9470,
      "可选用": 9471,
      "后尿道": 9472,
      "和组织": 9473,
      "和呕吐": 9474,
      "和释放": 9475,
      "回心": 9476,
      "在食用": 9477,
      "在观察": 9478,
      "在局部麻醉": 9479,
      "在减肥过程中": 9480,
      "型心绞痛": 9481,
      "增粗": 9482,
      "多饮水": 9483,
      "夜尿频": 9484,
      "夹层": 9485,
      "女生": 9486,
      "奶水": 9487,
      "好处": 9488,
      "如口服": 9489,
      "将血液": 9490,
      "尿量减少": 9491,
      "川芎": 9492,
      "左室": 9493,
      "平稳": 9494,
      "并可能": 9495,
      "应保持良好的个人卫生习惯": 9496,
      "应特别注意": 9497,
      "征兆": 9498,
      "心前区": 9499,
      "患侧": 9500,
      "或抑制": 9501,
      "或全身麻醉": 9502,
      "手足": 9503,
      "抗酸": 9504,
      "拉肚子": 9505,
      "排毒": 9506,
      "接近": 9507,
      "推移": 9508,
      "无菌性": 9509,
      "易受": 9510,
      "普罗": 9511,
      "此法": 9512,
      "气味": 9513,
      "氨氯": 9514,
      "水杨": 9515,
      "淋菌性尿道炎": 9516,
      "湿润": 9517,
      "炉甘": 9518,
      "率下降": 9519,
      "电刺激": 9520,
      "的选择": 9521,
      "的进展": 9522,
      "的概率": 9523,
      "的性质": 9524,
      "石洗剂": 9525,
      "第二": 9526,
      "等营养素": 9527,
      "米芬": 9528,
      "而影响": 9529,
      "肝肾": 9530,
      "股疝": 9531,
      "胸腺瘤": 9532,
      "能增加": 9533,
      "脑出血": 9534,
      "脱肛": 9535,
      "脸部": 9536,
      "膨胀": 9537,
      "自由": 9538,
      "自限": 9539,
      "致癌": 9540,
      "舒缓": 9541,
      "苯丙氨酸": 9542,
      "裂伤": 9543,
      "视野": 9544,
      "赘生物": 9545,
      "起源于": 9546,
      "较弱": 9547,
      "这可能与": 9548,
      "鉴于": 9549,
      "阴超": 9550,
      "阴阳": 9551,
      "降血脂": 9552,
      "限于": 9553,
      "需遵医嘱使用": 9554,
      "需密切观察": 9555,
      "非药物": 9556,
      "非淋菌性尿道炎": 9557,
      "骨密度": 9558,
      "高密度脂蛋白": 9559,
      "鱼类": 9560,
      "可能位于": 9561,
      "治疗后": 9562,
      "导致子宫内膜": 9563,
      "症状时": 9564,
      "建议每": 9565,
      "建议女性": 9566,
      "可以调节": 9567,
      "感染了": 9568,
      "需要空腹": 9569,
      "通过检测": 9570,
      "手术是一种": 9571,
      "疾病进展": 9572,
      "对于急性": 9573,
      "从而抑制": 9574,
      "由于体内": 9575,
      "异常组织": 9576,
      "心脏电信号": 9577,
      "同时使用": 9578,
      "同时配合": 9579,
      "神经细胞": 9580,
      "身体康复": 9581,
      "身体所需的": 9582,
      "病情恶化": 9583,
      "有助于评估": 9584,
      "改善生活方式": 9585,
      "这些变化": 9586,
      "控制高血压": 9587,
      "进而改善": 9588,
      "分泌的": 9589,
      "因此会导致": 9590,
      "是否患有": 9591,
      "诊断和": 9592,
      "长期处于": 9593,
      "此时为了": 9594,
      "产生大量": 9595,
      "专业指导": 9596,
      "的治疗需要": 9597,
      "效果因人而异": 9598,
      "营养神经": 9599,
      "抗生素如": 9600,
      "具有传染性": 9601,
      "患者应保持良好的": 9602,
      "不适症状应及时就医": 9603,
      "压力过大": 9604,
      "怎么调理": 9605,
      "阴道病": 9606,
      "以便监测病情变化": 9607,
      "机体的": 9608,
      "慢性心力衰竭": 9609,
      "有效的治疗": 9610,
      "能够减少": 9611,
      "静脉血": 9612,
      "不良生活习惯": 9613,
      "患者的具体情况": 9614,
      "或者加重": 9615,
      "遗传性疾病": 9616,
      "排尿量": 9617,
      "排尿欲望": 9618,
      "潜在问题": 9619,
      "乳腺囊性": 9620,
      "长时间的": 9621,
      "精子症": 9622,
      "精子形态": 9623,
      "病因进行治疗": 9624,
      "肛门部位": 9625,
      "肛门指诊": 9626,
      "增强免疫力": 9627,
      "胰岛素注射": 9628,
      "心血管风险": 9629,
      "任何异常情况": 9630,
      "肝功能检查": 9631,
      "先天畸形": 9632,
      "潜在的健康问题": 9633,
      "梗阻性": 9634,
      "严重时可引起": 9635,
      "外伤导致的": 9636,
      "阴茎头": 9637,
      "年龄的增长": 9638,
      "个月宝宝": 9639,
      "频繁排尿": 9640,
      "类型和": 9641,
      "进入人体后": 9642,
      "的一种方法": 9643,
      "雌激素替代疗法": 9644,
      "主动脉夹层": 9645,
      "相对较小": 9646,
      "颅内压力": 9647,
      "的主要手段": 9648,
      "该药物通过抑制": 9649,
      "外阴炎": 9650,
      "激光疗法": 9651,
      "转氨酶升高": 9652,
      "对于有生育需求": 9653,
      "牛奶等": 9654,
      "比较好": 9655,
      "孕激素类药物": 9656,
      "乙型肝炎病毒感染": 9657,
      "以监测病情进展": 9658,
      "沉积在": 9659,
      "不可逆": 9660,
      "不可随意": 9661,
      "并遵循医生指导": 9662,
      "塞来昔布胶囊等药物": 9663,
      "合理的饮食控制和": 9664,
      "巨球蛋白血症是一种": 9665,
      "舒张功能": 9666,
      "至少进行": 9667,
      "红细胞数量减少": 9668,
      "阴道分泌物涂片": 9669,
      "尤其是在夜间": 9670,
      "充血水肿和": 9671,
      "生命体征": 9672,
      "蔬菜水果": 9673,
      "过敏性鼻炎": 9674,
      "适当的运动和": 9675,
      "细菌性阴道病": 9676,
      "比例失调": 9677,
      "有助于维持正常的": 9678,
      "丙硫氧嘧啶片等": 9679,
      "应激反应": 9680,
      "抗生素类药物进行抗感染治疗": 9681,
      "并定期复查以监测病情变化": 9682,
      "术后恢复期": 9683,
      "放射性疼痛": 9684,
      "能有效抑制": 9685,
      "这种疼痛通常位于": 9686,
      "雄激素水平升高": 9687,
      "承受能力": 9688,
      "反复发作的": 9689,
      "如果疼痛持续": 9690,
      "经验丰富的医生": 9691,
      "桥本氏": 9692,
      "桥本甲状腺炎": 9693,
      "肺大疱": 9694,
      "口干舌燥": 9695,
      "少数情况下": 9696,
      "加压素": 9697,
      "急诊科": 9698,
      "小米粥": 9699,
      "带来的": 9700,
      "拉米夫定": 9701,
      "避免使用刺激性强的洗液": 9702,
      "神经源性膀胱": 9703,
      "饮食方面宜清淡": 9704,
      "抗甲状腺药物如甲巯咪唑": 9705,
      "去氧胆酸": 9706,
      "支气管扩张剂": 9707,
      "慢性阻塞性肺病": 9708,
      "假丝酵母菌": 9709,
      "浆细胞恶性增殖": 9710,
      "磷酸二酯酶": 9711,
      "肌酸激酶": 9712,
      "美沙拉嗪": 9713,
      "羟色胺": 9714,
      "双顶径": 9715,
      "回心血": 9716,
      "氨氯地平": 9717,
      "炉甘石洗剂": 9718,
      "72小时": 9719,
      "80": 9720,
      "D3": 9721,
      "三联活菌": 9722,
      "上方": 9723,
      "下裂": 9724,
      "不洁": 9725,
      "不可以": 9726,
      "不改善": 9727,
      "不集中": 9728,
      "中耳": 9729,
      "会有": 9730,
      "会自愈吗": 9731,
      "但要注意": 9732,
      "侧弯": 9733,
      "保留": 9734,
      "停胎": 9735,
      "光眼": 9736,
      "其特征": 9737,
      "具备": 9738,
      "前庭": 9739,
      "原料": 9740,
      "只要": 9741,
      "右上腹部": 9742,
      "吃药": 9743,
      "后进行": 9744,
      "吸氧": 9745,
      "和出血": 9746,
      "和预防": 9747,
      "和蛋白质": 9748,
      "和排卵": 9749,
      "嗳气": 9750,
      "地区": 9751,
      "外侧": 9752,
      "外线": 9753,
      "如黄": 9754,
      "如高血压": 9755,
      "如鸡蛋": 9756,
      "学检测": 9757,
      "安静": 9758,
      "射血": 9759,
      "尿结石": 9760,
      "并避免过度": 9761,
      "应定期进行": 9762,
      "性期": 9763,
      "戊型肝炎": 9764,
      "或药物治疗": 9765,
      "房室": 9766,
      "抗利尿": 9767,
      "护肝": 9768,
      "数天": 9769,
      "是一个": 9770,
      "更好的": 9771,
      "有些": 9772,
      "有无": 9773,
      "术前": 9774,
      "来维持": 9775,
      "来降低血压": 9776,
      "构瘤": 9777,
      "柯萨": 9778,
      "止泻": 9779,
      "氟康唑": 9780,
      "泡沫": 9781,
      "洛昔康": 9782,
      "浮肿": 9783,
      "淋病": 9784,
      "温和": 9785,
      "煮熟": 9786,
      "环氧化": 9787,
      "生存": 9788,
      "病程": 9789,
      "的调整": 9790,
      "的大小": 9791,
      "皱襞": 9792,
      "看到": 9793,
      "石症": 9794,
      "破骨细胞": 9795,
      "竞争": 9796,
      "等其他": 9797,
      "等严重并发症": 9798,
      "米松": 9799,
      "类食物": 9800,
      "糙米": 9801,
      "美洛昔康": 9802,
      "而是": 9803,
      "而诱发": 9804,
      "耻骨": 9805,
      "肽酶": 9806,
      "肾阳虚": 9807,
      "能治愈吗": 9808,
      "脂牛奶": 9809,
      "若结石": 9810,
      "血容量": 9811,
      "表皮": 9812,
      "装置": 9813,
      "视觉": 9814,
      "赘肉": 9815,
      "超重": 9816,
      "转肽酶": 9817,
      "轮廓": 9818,
      "较重": 9819,
      "这一": 9820,
      "迷走": 9821,
      "适用": 9822,
      "量和": 9823,
      "错构瘤": 9824,
      "附着": 9825,
      "雄性激素": 9826,
      "需警惕": 9827,
      "青光眼": 9828,
      "韭菜": 9829,
      "预约": 9830,
      "颅骨": 9831,
      "黑色": 9832,
      "导致皮肤": 9833,
      "导致肾脏": 9834,
      "患者感到": 9835,
      "症状较轻": 9836,
      "可以降低": 9837,
      "可以服用": 9838,
      "可以尝试": 9839,
      "功能失调": 9840,
      "避免摄入过多": 9841,
      "避免盲目": 9842,
      "如果怀疑": 9843,
      "发生时": 9844,
      "从而促进": 9845,
      "异常出血": 9846,
      "异常应及时": 9847,
      "运动锻炼": 9848,
      "同时要": 9849,
      "血压持续升高": 9850,
      "食物中毒": 9851,
      "缓解作用": 9852,
      "缓解不适": 9853,
      "因素的影响": 9854,
      "正常值": 9855,
      "正常水平": 9856,
      "有助于诊断": 9857,
      "进而表现为": 9858,
      "的症状有哪些": 9859,
      "肌肉和": 9860,
      "持续无排卵": 9861,
      "代谢性": 9862,
      "脂肪组织": 9863,
      "长期不": 9864,
      "长期便秘": 9865,
      "长期坚持": 9866,
      "尿道下裂": 9867,
      "此时则": 9868,
      "此时应": 9869,
      "产生影响": 9870,
      "的治疗建议": 9871,
      "的治疗通常采用": 9872,
      "体内存在": 9873,
      "是一种以": 9874,
      "膀胱和": 9875,
      "子宫内膜癌": 9876,
      "子宫内膜细胞": 9877,
      "抑制作用": 9878,
      "具有抗炎": 9879,
      "具有较强的": 9880,
      "怀孕时": 9881,
      "患者应保持良好的个人卫生习惯": 9882,
      "患者应保持充足休息": 9883,
      "剧烈活动": 9884,
      "肿瘤生长": 9885,
      "活动范围": 9886,
      "是指由于": 9887,
      "静脉丛": 9888,
      "静脉输液": 9889,
      "术后需要": 9890,
      "肝脏代谢": 9891,
      "患者的整体健康状况": 9892,
      "选择哪种": 9893,
      "压迫或": 9894,
      "结核菌素": 9895,
      "建议进行血液": 9896,
      "建议进行超声心动图": 9897,
      "如果患者处于": 9898,
      "没有明显": 9899,
      "长时间处于": 9900,
      "早期妊娠": 9901,
      "早期诊断和治疗": 9902,
      "咳嗽反射": 9903,
      "通常在5000": 9904,
      "尿频的症状": 9905,
      "常规的": 9906,
      "可能与遗传": 9907,
      "儿童的": 9908,
      "心血管事件": 9909,
      "及时发现异常情况": 9910,
      "肥胖或": 9911,
      "较大或者": 9912,
      "腹泻或": 9913,
      "严重的疾病": 9914,
      "修复和": 9915,
      "手术切除是治疗": 9916,
      "剂量或": 9917,
      "输尿管壁": 9918,
      "胸部中央": 9919,
      "生育计划": 9920,
      "超声检查以评估": 9921,
      "疾病的诊断和治疗": 9922,
      "临床综合征": 9923,
      "便秘的发生": 9924,
      "受孕机会": 9925,
      "受孕几率": 9926,
      "以便及时发现异常情况": 9927,
      "月经周期的变化": 9928,
      "心室壁": 9929,
      "以免影响伤口愈合和": 9930,
      "心力衰竭时": 9931,
      "特别是针对": 9932,
      "并不能达到": 9933,
      "通过抑制细菌细胞壁合成": 9934,
      "液体潴留": 9935,
      "难以控制": 9936,
      "排尿困难等症状": 9937,
      "治疗措施包括抗生素治疗": 9938,
      "成像技术": 9939,
      "患儿的": 9940,
      "除了上述": 9941,
      "局部血液循环受阻": 9942,
      "人工流产": 9943,
      "抗菌活性": 9944,
      "以便及时发现并处理任何潜在的问题": 9945,
      "患者平时还要注意": 9946,
      "有时可辐射至": 9947,
      "的合成和分泌": 9948,
      "配合医生进行": 9949,
      "一次性": 9950,
      "患者还可能出现": 9951,
      "积聚在": 9952,
      "肾上腺素能": 9953,
      "腹壁薄弱": 9954,
      "治疗措施可能包括药物治疗如": 9955,
      "也是预防": 9956,
      "也是必要的": 9957,
      "到医院就诊": 9958,
      "头孢菌素类抗生素": 9959,
      "过敏性咳嗽": 9960,
      "降脂药": 9961,
      "认知行为疗法": 9962,
      "认知重构": 9963,
      "带状疱疹病毒": 9964,
      "的费用因个体差异而异": 9965,
      "盆底肌锻炼": 9966,
      "右侧卵巢": 9967,
      "避免过度疲劳和": 9968,
      "放射性碘": 9969,
      "深呼吸或": 9970,
      "若症状持续或加重": 9971,
      "宫内节育": 9972,
      "注意力不集中": 9973,
      "皮脂腺囊肿": 9974,
      "CT扫描或MRI成像": 9975,
      "以确认诊断": 9976,
      "富含蛋白质的食物": 9977,
      "可以适量吃": 9978,
      "镇静剂": 9979,
      "喹诺酮类抗生素": 9980,
      "的安全性和": 9981,
      "肺大泡": 9982,
      "心脏传导系统": 9983,
      "产生压迫作用": 9984,
      "双歧杆菌三联活菌": 9985,
      "吡嗪酰胺": 9986,
      "减肥的关键在于": 9987,
      "以便及时调整治疗方案": 9988,
      "监督下": 9989,
      "硝普钠": 9990,
      "如果这些症状持续存在": 9991,
      "以外的位置": 9992,
      "氨糖软骨素": 9993,
      "高锰酸钾溶液": 9994,
      "弹力袜": 9995,
      "体格检查": 9996,
      "油炸食品": 9997,
      "关节腔注射": 9998,
      "碳酸钙D3": 9999
    },
    "merges": [
      [
        "可",
        "能"
      ],
      [
        "治",
        "疗"
      ],
      [
        "导",
        "致"
      ],
      [
        "患",
        "者"
      ],
      [
        "症",
        "状"
      ],
      [
        "进",
        "行"
      ],
      [
        "引",
        "起"
      ],
      [
        "药",
        "物"
      ],
      [
        "建",
        "议"
      ],
      [
        "可",
        "以"
      ],
      [
        "功",
        "能"
      ],
      [
        "感",
        "染"
      ],
      [
        "需",
        "要"
      ],
      [
        "检",
        "查"
      ],
      [
        "通",
        "过"
      ],
      [
        "出",
        "现"
      ],
      [
        "情",
        "况"
      ],
      [
        "避",
        "免"
      ],
      [
        "使",
        "用"
      ],
      [
        "影",
        "响"
      ],
      [
        "通",
        "常"
      ],
      [
        "手",
        "术"
      ],
      [
        "疾",
        "病"
      ],
      [
        "注",
        "意"
      ],
      [
        "及",
        "时"
      ],
      [
        "医",
        "生"
      ],
      [
        "引起",
        "的"
      ],
      [
        "对",
        "于"
      ],
      [
        "疼",
        "痛"
      ],
      [
        "激",
        "素"
      ],
      [
        "如",
        "果"
      ],
      [
        "减",
        "少"
      ],
      [
        "针",
        "对"
      ],
      [
        "饮",
        "食"
      ],
      [
        "发",
        "生"
      ],
      [
        "存",
        "在"
      ],
      [
        "定",
        "期"
      ],
      [
        "从",
        "而"
      ],
      [
        "由",
        "于"
      ],
      [
        "生",
        "活"
      ],
      [
        "异",
        "常"
      ],
      [
        "炎",
        "症"
      ],
      [
        "水",
        "平"
      ],
      [
        "甲",
        "状"
      ],
      [
        "可能",
        "会"
      ],
      [
        "增",
        "加"
      ],
      [
        "甲状",
        "腺"
      ],
      [
        "就",
        "医"
      ],
      [
        "保",
        "持"
      ],
      [
        "运",
        "动"
      ],
      [
        "包",
        "括"
      ],
      [
        "时",
        "间"
      ],
      [
        "心",
        "脏"
      ],
      [
        "可能",
        "导致"
      ],
      [
        "同",
        "时"
      ],
      [
        "血",
        "糖"
      ],
      [
        "子",
        "宫"
      ],
      [
        "神",
        "经"
      ],
      [
        "组",
        "织"
      ],
      [
        "用",
        "于"
      ],
      [
        "监",
        "测"
      ],
      [
        "身",
        "体"
      ],
      [
        "病",
        "情"
      ],
      [
        "血",
        "压"
      ],
      [
        "评",
        "估"
      ],
      [
        "血",
        "液"
      ],
      [
        "反",
        "应"
      ],
      [
        "风",
        "险"
      ],
      [
        "及时",
        "就医"
      ],
      [
        "严",
        "重"
      ],
      [
        "刺",
        "激"
      ],
      [
        "食",
        "物"
      ],
      [
        "缓",
        "解"
      ],
      [
        "其",
        "他"
      ],
      [
        "因",
        "素"
      ],
      [
        "指",
        "导"
      ],
      [
        "摄",
        "入"
      ],
      [
        "以",
        "及"
      ],
      [
        "促",
        "进"
      ],
      [
        "恢",
        "复"
      ],
      [
        "作",
        "用"
      ],
      [
        "不",
        "适"
      ],
      [
        "正",
        "常"
      ],
      [
        "细",
        "胞"
      ],
      [
        "助",
        "于"
      ],
      [
        "有",
        "助于"
      ],
      [
        "改",
        "善"
      ],
      [
        "主",
        "要"
      ],
      [
        "这",
        "些"
      ],
      [
        "健",
        "康"
      ],
      [
        "方",
        "法"
      ],
      [
        "控",
        "制"
      ],
      [
        "血",
        "管"
      ],
      [
        "进",
        "而"
      ],
      [
        "方",
        "式"
      ],
      [
        "生",
        "素"
      ],
      [
        "等",
        "症状"
      ],
      [
        "系",
        "统"
      ],
      [
        "变",
        "化"
      ],
      [
        "分",
        "泌"
      ],
      [
        "指导",
        "下"
      ],
      [
        "因",
        "此"
      ],
      [
        "是",
        "否"
      ],
      [
        "损",
        "伤"
      ],
      [
        "一",
        "种"
      ],
      [
        "会",
        "导致"
      ],
      [
        "的",
        "情况"
      ],
      [
        "习",
        "惯"
      ],
      [
        "医",
        "嘱"
      ],
      [
        "过",
        "度"
      ],
      [
        "免",
        "疫"
      ],
      [
        "可能",
        "是"
      ],
      [
        "病",
        "毒"
      ],
      [
        "关",
        "节"
      ],
      [
        "好",
        "的"
      ],
      [
        "的",
        "症状"
      ],
      [
        "局",
        "部"
      ],
      [
        "加",
        "重"
      ],
      [
        "肌",
        "肉"
      ],
      [
        "处",
        "理"
      ],
      [
        "原",
        "因"
      ],
      [
        "持",
        "续"
      ],
      [
        "以",
        "免"
      ],
      [
        "形",
        "成"
      ],
      [
        "适",
        "当"
      ],
      [
        "考",
        "虑"
      ],
      [
        "此",
        "外"
      ],
      [
        "结",
        "石"
      ],
      [
        "出",
        "血"
      ],
      [
        "代",
        "谢"
      ],
      [
        "调",
        "整"
      ],
      [
        "降",
        "低"
      ],
      [
        "医生",
        "指导下"
      ],
      [
        "蛋",
        "白"
      ],
      [
        "脂",
        "肪"
      ],
      [
        "诊",
        "断"
      ],
      [
        "问",
        "题"
      ],
      [
        "呼",
        "吸"
      ],
      [
        "服",
        "用"
      ],
      [
        "良",
        "好的"
      ],
      [
        "长",
        "期"
      ],
      [
        "进行",
        "治疗"
      ],
      [
        "什",
        "么"
      ],
      [
        "内",
        "膜"
      ],
      [
        "表",
        "现"
      ],
      [
        "动",
        "脉"
      ],
      [
        "尿",
        "道"
      ],
      [
        "此",
        "时"
      ],
      [
        "细",
        "菌"
      ],
      [
        "产",
        "生"
      ],
      [
        "减",
        "肥"
      ],
      [
        "专",
        "业"
      ],
      [
        "因",
        "为"
      ],
      [
        "的",
        "治疗"
      ],
      [
        "效",
        "果"
      ],
      [
        "体",
        "内"
      ],
      [
        "建议",
        "患者"
      ],
      [
        "疗",
        "法"
      ],
      [
        "在",
        "医生指导下"
      ],
      [
        "伴",
        "有"
      ],
      [
        "营",
        "养"
      ],
      [
        "保持",
        "良好的"
      ],
      [
        "具",
        "体"
      ],
      [
        "状",
        "态"
      ],
      [
        "发",
        "育"
      ],
      [
        "减",
        "轻"
      ],
      [
        "并",
        "发"
      ],
      [
        "是",
        "一种"
      ],
      [
        "检",
        "测"
      ],
      [
        "前",
        "列"
      ],
      [
        "超",
        "声"
      ],
      [
        "前列",
        "腺"
      ],
      [
        "并发",
        "症"
      ],
      [
        "现",
        "象"
      ],
      [
        "膀",
        "胱"
      ],
      [
        "子宫",
        "内膜"
      ],
      [
        "抗",
        "生素"
      ],
      [
        "困",
        "难"
      ],
      [
        "障",
        "碍"
      ],
      [
        "食",
        "用"
      ],
      [
        "抑",
        "制"
      ],
      [
        "结",
        "构"
      ],
      [
        "发",
        "现"
      ],
      [
        "皮",
        "肤"
      ],
      [
        "确",
        "保"
      ],
      [
        "措",
        "施"
      ],
      [
        "适",
        "量"
      ],
      [
        "导致",
        "的"
      ],
      [
        "具",
        "有"
      ],
      [
        "糖",
        "尿"
      ],
      [
        "糖尿",
        "病"
      ],
      [
        "激素",
        "水平"
      ],
      [
        "切",
        "除"
      ],
      [
        "怀",
        "孕"
      ],
      [
        "患者",
        "应"
      ],
      [
        "遵",
        "医嘱"
      ],
      [
        "建议",
        "定期"
      ],
      [
        "必",
        "要"
      ],
      [
        "引",
        "发"
      ],
      [
        "适",
        "用于"
      ],
      [
        "体",
        "重"
      ],
      [
        "预",
        "防"
      ],
      [
        "胎",
        "儿"
      ],
      [
        "心",
        "肌"
      ],
      [
        "不适",
        "症状"
      ],
      [
        "一",
        "定"
      ],
      [
        "的",
        "风险"
      ],
      [
        "循",
        "环"
      ],
      [
        "炎症",
        "反应"
      ],
      [
        "休",
        "息"
      ],
      [
        "压",
        "力"
      ],
      [
        "增",
        "生"
      ],
      [
        "相",
        "关"
      ],
      [
        "怎",
        "么"
      ],
      [
        "剧",
        "烈"
      ],
      [
        "肿",
        "瘤"
      ],
      [
        "避免",
        "过度"
      ],
      [
        "阴",
        "道"
      ],
      [
        "的",
        "发生"
      ],
      [
        "以",
        "减少"
      ],
      [
        "下",
        "降"
      ],
      [
        "活",
        "动"
      ],
      [
        "过",
        "程"
      ],
      [
        "腹",
        "部"
      ],
      [
        "一",
        "般"
      ],
      [
        "根",
        "据"
      ],
      [
        "一",
        "步"
      ],
      [
        "宫",
        "颈"
      ],
      [
        "进",
        "一步"
      ],
      [
        "是",
        "指"
      ],
      [
        "期",
        "间"
      ],
      [
        "月",
        "经"
      ],
      [
        "等",
        "药物"
      ],
      [
        "以",
        "便"
      ],
      [
        "机",
        "体"
      ],
      [
        "慢",
        "性"
      ],
      [
        "生",
        "长"
      ],
      [
        "有",
        "效"
      ],
      [
        "能",
        "够"
      ],
      [
        "静",
        "脉"
[...]
