{
  "version": "1.0",
  "truncation": null,
  "padding": {
    "strategy": {
      "Fixed": 512
    },
    "direction": "Right",
    "pad_to_multiple_of": null,
    "pad_id": 0,
    "pad_type_id": 0,
    "pad_token": "[PAD]"
  },
  "added_tokens": [
    {
      "id": 0,
      "content": "[PAD]",
      "single_word": false,
      "lstrip": false,
      "rstrip": false,
      "normalized": false,
      "special": true
    },
    {
      "id": 1,
      "content": "[UNK]",
      "single_word": false,
      "lstrip": false,
      "rstrip": false,
      "normalized": false,
      "special": true
    },
    {
      "id": 2,
      "content": "[CLS]",
      "single_word": false,
      "lstrip": false,
      "rstrip": false,
      "normalized": false,
      "special": true
    },
    {
      "id": 3,
      "content": "[SEP]",
      "single_word": false,
      "lstrip": false,
      "rstrip": false,
      "normalized": false,
      "special": true
    },
    {
      "id": 4,
      "content": "[MASK]",
      "single_word": false,
      "lstrip": false,
      "rstrip": false,
      "normalized": false,
      "special": true
    }
  ],
  "normalizer": null,
  "pre_tokenizer": {
    "type": "Whitespace"
  },
  "post_processor": {
    "type": "TemplateProcessing",
    "single": [
      {
        "SpecialToken": {
          "id": "[CLS]",
          "type_id": 0
        }
      },
      {
        "Sequence": {
          "id": "A",
          "type_id": 0
        }
      },
      {
        "SpecialToken": {
          "id": "[SEP]",
          "type_id": 0
        }
      }
    ],
    "pair": [
      {
        "SpecialToken": {
          "id": "[CLS]",
          "type_id": 0
        }
      },
      {
        "Sequence": {
          "id": "A",
          "type_id": 0
        }
      },
      {
        "SpecialToken": {
          "id": "[SEP]",
          "type_id": 0
        }
      },
      {
        "Sequence": {
          "id": "B",
          "type_id": 1
        }
      },
      {
        "SpecialToken": {
          "id": "[SEP]",
          "type_id": 1
        }
      }
    ],
    "special_tokens": {
      "[CLS]": {
        "id": "[CLS]",
        "ids": [
          2
        ],
        "tokens": [
          "[CLS]"
        ]
      },
      "[SEP]": {
        "id": "[SEP]",
        "ids": [
          3
        ],
        "tokens": [
          "[SEP]"
        ]
      }
    }
  },
  "decoder": null,
  "model": {
    "type": "BPE",
    "dropout": null,
    "unk_token": null,
    "continuing_subword_prefix": null,
    "end_of_word_suffix": null,
    "fuse_unk": false,
    "byte_fallback": false,
    "ignore_merges": false,
    "vocab": {
      "[PAD]": 0,
      "[UNK]": 1,
      "[CLS]": 2,
      "[SEP]": 3,
      "[MASK]": 4,
      "%": 5,
      ",": 6,
      "-": 7,
      ".": 8,
      "/": 9,
      "0": 10,
      "1": 11,
      "2": 12,
      "3": 13,
      "4": 14,
      "5": 15,
      "6": 16,
      "7": 17,
      "8": 18,
      "?": 19,
      "A": 20,
      "B": 21,
      "C": 22,
      "D": 23,
      "E": 24,
      "F": 25,
      "G": 26,
      "H": 27,
      "I": 28,
      "K": 29,
      "L": 30,
      "M": 31,
      "N": 32,
      "O": 33,
      "P": 34,
      "R": 35,
      "S": 36,
      "T": 37,
      "V": 38,
      "W": 39,
      "X": 40,
      "a": 41,
      "c": 42,
      "d": 43,
      "e": 44,
      "g": 45,
      "h": 46,
      "i": 47,
      "k": 48,
      "l": 49,
      "m": 50,
      "n": 51,
      "p": 52,
      "r": 53,
      "s": 54,
      "t": 55,
      "α": 56,
      "β": 57,
      "γ": 58,
      "“": 59,
      "”": 60,
      "℃": 61,
      "、": 62,
      "。": 63,
      "一": 64,
      "丁": 65,
      "三": 66,
      "上": 67,
      "下": 68,
      "不": 69,
      "与": 70,
      "专": 71,
      "且": 72,
      "丘": 73,
      "丙": 74,
      "业": 75,
      "丛": 76,
      "东": 77,
      "丝": 78,
      "丢": 79,
      "两": 80,
      "严": 81,
      "丧": 82,
      "个": 83,
      "中": 84,
      "丰": 85,
      "临": 86,
      "丸": 87,
      "丹": 88,
      "为": 89,
      "主": 90,
      "举": 91,
      "久": 92,
      "么": 93,
      "义": 94,
      "之": 95,
      "乎": 96,
      "乏": 97,
      "乐": 98,
      "乙": 99,
      "也": 100,
      "习": 101,
      "书": 102,
      "乱": 103,
      "乳": 104,
      "了": 105,
      "予": 106,
      "争": 107,
      "事": 108,
      "二": 109,
      "于": 110,
      "云": 111,
      "亚": 112,
      "些": 113,
      "亡": 114,
      "亢": 115,
      "交": 116,
      "产": 117,
      "享": 118,
      "亭": 119,
      "亲": 120,
      "人": 121,
      "什": 122,
      "仁": 123,
      "仅": 124,
      "介": 125,
      "仍": 126,
      "从": 127,
      "仑": 128,
      "他": 129,
      "代": 130,
      "以": 131,
      "仪": 132,
      "们": 133,
      "仰": 134,
      "件": 135,
      "价": 136,
      "任": 137,
      "伊": 138,
      "伏": 139,
      "伐": 140,
      "休": 141,
      "众": 142,
      "优": 143,
      "会": 144,
      "伞": 145,
      "传": 146,
      "伤": 147,
      "估": 148,
      "伴": 149,
      "伸": 150,
      "似": 151,
      "但": 152,
      "位": 153,
      "低": 154,
      "住": 155,
      "佐": 156,
      "体": 157,
      "何": 158,
      "余": 159,
      "作": 160,
      "佩": 161,
      "佳": 162,
      "使": 163,
      "例": 164,
      "供": 165,
      "依": 166,
      "侧": 167,
      "侵": 168,
      "便": 169,
      "促": 170,
      "保": 171,
      "信": 172,
      "修": 173,
      "倒": 174,
      "候": 175,
      "借": 176,
      "倡": 177,
      "倦": 178,
      "值": 179,
      "倾": 180,
      "假": 181,
      "偏": 182,
      "做": 183,
      "停": 184,
      "健": 185,
      "偶": 186,
      "偿": 187,
      "储": 188,
      "催": 189,
      "像": 190,
      "僵": 191,
      "儿": 192,
      "允": 193,
      "元": 194,
      "充": 195,
      "先": 196,
      "光": 197,
      "克": 198,
      "免": 199,
      "入": 200,
      "全": 201,
      "公": 202,
      "兰": 203,
      "共": 204,
      "关": 205,
      "兴": 206,
      "兵": 207,
      "其": 208,
      "具": 209,
      "典": 210,
      "养": 211,
      "内": 212,
      "再": 213,
      "冗": 214,
      "写": 215,
      "冠": 216,
      "冥": 217,
      "冰": 218,
      "冲": 219,
      "决": 220,
      "况": 221,
      "冷": 222,
      "冻": 223,
      "净": 224,
      "准": 225,
      "凉": 226,
      "凋": 227,
      "减": 228,
      "凝": 229,
      "几": 230,
      "凭": 231,
      "凳": 232,
      "凸": 233,
      "凹": 234,
      "出": 235,
      "击": 236,
      "刀": 237,
      "分": 238,
      "切": 239,
      "划": 240,
      "列": 241,
      "则": 242,
      "创": 243,
      "初": 244,
      "判": 245,
      "利": 246,
      "别": 247,
      "刮": 248,
      "到": 249,
      "制": 250,
      "刷": 251,
      "刺": 252,
      "刻": 253,
      "剂": 254,
      "前": 255,
      "剑": 256,
      "剔": 257,
      "剖": 258,
      "剥": 259,
      "剧": 260,
      "剩": 261,
      "剪": 262,
      "副": 263,
      "割": 264,
      "力": 265,
      "办": 266,
      "功": 267,
      "加": 268,
      "务": 269,
      "动": 270,
      "助": 271,
      "努": 272,
      "励": 273,
      "劳": 274,
      "势": 275,
      "勃": 276,
      "勒": 277,
      "勤": 278,
      "勺": 279,
      "勿": 280,
      "匀": 281,
      "包": 282,
      "化": 283,
      "匙": 284,
      "匹": 285,
      "区": 286,
      "医": 287,
      "十": 288,
      "升": 289,
      "半": 290,
      "华": 291,
      "协": 292,
      "卒": 293,
      "卓": 294,
      "单": 295,
      "南": 296,
      "博": 297,
      "卜": 298,
      "占": 299,
      "卡": 300,
      "卧": 301,
      "卫": 302,
      "危": 303,
      "即": 304,
      "卵": 305,
      "卷": 306,
      "厄": 307,
      "历": 308,
      "压": 309,
      "厌": 310,
      "厕": 311,
      "厘": 312,
      "厚": 313,
      "原": 314,
      "厨": 315,
      "去": 316,
      "参": 317,
      "叉": 318,
      "及": 319,
      "友": 320,
      "双": 321,
      "反": 322,
      "发": 323,
      "取": 324,
      "受": 325,
      "变": 326,
      "叠": 327,
      "口": 328,
      "古": 329,
      "句": 330,
      "另": 331,
      "叩": 332,
      "只": 333,
      "叫": 334,
      "可": 335,
      "史": 336,
      "右": 337,
      "叶": 338,
      "号": 339,
      "司": 340,
      "吃": 341,
      "各": 342,
      "合": 343,
      "吉": 344,
      "吊": 345,
      "同": 346,
      "后": 347,
      "吐": 348,
      "向": 349,
      "吗": 350,
      "吞": 351,
      "吡": 352,
      "否": 353,
      "含": 354,
      "听": 355,
      "吮": 356,
      "启": 357,
      "吸": 358,
      "吹": 359,
      "吻": 360,
      "呈": 361,
      "告": 362,
      "呕": 363,
      "员": 364,
      "呢": 365,
      "呤": 366,
      "周": 367,
      "味": 368,
      "呼": 369,
      "命": 370,
      "咀": 371,
      "咋": 372,
      "和": 373,
      "咖": 374,
      "咙": 375,
      "咨": 376,
      "咪": 377,
      "咯": 378,
      "咳": 379,
      "咸": 380,
      "咽": 381,
      "品": 382,
      "哌": 383,
      "响": 384,
      "哑": 385,
      "哨": 386,
      "哪": 387,
      "哮": 388,
      "哺": 389,
      "唑": 390,
      "唯": 391,
      "唾": 392,
      "啡": 393,
      "啰": 394,
      "啶": 395,
      "喂": 396,
      "善": 397,
      "喉": 398,
      "喘": 399,
      "喜": 400,
      "喝": 401,
      "喷": 402,
      "喹": 403,
      "嗓": 404,
      "嗜": 405,
      "嗝": 406,
      "嗡": 407,
      "嗪": 408,
      "嗳": 409,
      "嗽": 410,
      "嘌": 411,
      "嘧": 412,
      "嘱": 413,
      "嘶": 414,
      "器": 415,
      "噪": 416,
      "噬": 417,
      "嚏": 418,
      "嚼": 419,
      "囊": 420,
      "四": 421,
      "回": 422,
      "因": 423,
      "团": 424,
      "困": 425,
      "围": 426,
      "固": 427,
      "国": 428,
      "图": 429,
      "圆": 430,
      "圈": 431,
      "土": 432,
      "在": 433,
      "地": 434,
      "场": 435,
      "均": 436,
      "坏": 437,
      "坐": 438,
      "块": 439,
      "坚": 440,
      "坠": 441,
      "坦": 442,
      "垂": 443,
      "型": 444,
      "垫": 445,
      "埃": 446,
      "域": 447,
      "培": 448,
      "基": 449,
      "堆": 450,
      "堵": 451,
      "塑": 452,
      "塞": 453,
      "填": 454,
      "境": 455,
      "增": 456,
      "壁": 457,
      "士": 458,
      "声": 459,
      "壶": 460,
      "处": 461,
      "备": 462,
      "复": 463,
      "外": 464,
      "多": 465,
      "夜": 466,
      "够": 467,
      "大": 468,
      "天": 469,
      "太": 470,
      "夫": 471,
      "央": 472,
      "失": 473,
      "头": 474,
      "奇": 475,
      "奈": 476,
      "奉": 477,
      "奋": 478,
      "套": 479,
      "奥": 480,
      "女": 481,
      "奶": 482,
      "好": 483,
      "如": 484,
      "妇": 485,
      "妊": 486,
      "妥": 487,
      "妨": 488,
      "始": 489,
      "姑": 490,
      "姜": 491,
      "威": 492,
      "娇": 493,
      "娠": 494,
      "婴": 495,
      "嫩": 496,
      "子": 497,
      "孔": 498,
      "孕": 499,
      "字": 500,
      "存": 501,
      "孢": 502,
      "学": 503,
      "孩": 504,
      "宁": 505,
      "它": 506,
      "守": 507,
      "安": 508,
      "完": 509,
      "宗": 510,
      "官": 511,
      "定": 512,
      "宜": 513,
      "宝": 514,
      "实": 515,
      "室": 516,
      "宫": 517,
      "害": 518,
      "家": 519,
      "容": 520,
      "宽": 521,
      "宾": 522,
      "宿": 523,
      "寄": 524,
      "密": 525,
      "富": 526,
      "寒": 527,
      "察": 528,
      "对": 529,
      "寻": 530,
      "导": 531,
      "寿": 532,
      "封": 533,
      "射": 534,
      "将": 535,
      "小": 536,
      "少": 537,
      "尔": 538,
      "尚": 539,
      "尝": 540,
      "尤": 541,
      "就": 542,
      "尼": 543,
      "尽": 544,
      "尾": 545,
      "尿": 546,
      "局": 547,
      "屁": 548,
      "层": 549,
      "居": 550,
      "屈": 551,
      "屏": 552,
      "展": 553,
      "属": 554,
      "履": 555,
      "山": 556,
      "岁": 557,
      "岛": 558,
      "峡": 559,
      "峰": 560,
      "嵌": 561,
      "嵴": 562,
      "川": 563,
      "巢": 564,
      "工": 565,
      "左": 566,
      "巧": 567,
      "巨": 568,
      "巩": 569,
      "差": 570,
      "巯": 571,
      "己": 572,
      "已": 573,
      "巴": 574,
      "巾": 575,
      "布": 576,
      "师": 577,
      "希": 578,
      "帕": 579,
      "带": 580,
      "帮": 581,
      "常": 582,
      "干": 583,
      "平": 584,
      "年": 585,
      "并": 586,
      "幼": 587,
      "幽": 588,
      "广": 589,
      "床": 590,
      "序": 591,
      "库": 592,
      "应": 593,
      "底": 594,
      "废": 595,
      "度": 596,
      "座": 597,
      "庭": 598,
      "康": 599,
      "廓": 600,
      "延": 601,
      "建": 602,
      "开": 603,
      "异": 604,
      "弊": 605,
      "式": 606,
      "引": 607,
      "弛": 608,
      "张": 609,
      "弥": 610,
      "弧": 611,
      "弱": 612,
      "弹": 613,
      "强": 614,
      "归": 615,
      "当": 616,
      "录": 617,
      "形": 618,
      "影": 619,
      "彻": 620,
      "往": 621,
      "征": 622,
      "径": 623,
      "待": 624,
      "很": 625,
      "律": 626,
      "得": 627,
      "御": 628,
      "循": 629,
      "微": 630,
      "德": 631,
      "心": 632,
      "必": 633,
      "忆": 634,
      "忌": 635,
      "忍": 636,
      "志": 637,
      "忧": 638,
      "快": 639,
      "怀": 640,
      "态": 641,
      "怎": 642,
      "怒": 643,
      "怕": 644,
      "思": 645,
      "怠": 646,
      "急": 647,
      "性": 648,
      "总": 649,
      "恐": 650,
      "恢": 651,
      "恩": 652,
      "息": 653,
      "恶": 654,
      "患": 655,
      "悦": 656,
      "悬": 657,
      "悸": 658,
      "情": 659,
      "惕": 660,
      "惧": 661,
      "惯": 662,
      "想": 663,
      "惹": 664,
      "愈": 665,
      "愉": 666,
      "意": 667,
      "感": 668,
      "愿": 669,
      "慌": 670,
      "慎": 671,
      "慢": 672,
      "憋": 673,
      "憩": 674,
      "戊": 675,
      "成": 676,
      "我": 677,
      "戒": 678,
      "或": 679,
      "战": 680,
      "截": 681,
      "戴": 682,
      "房": 683,
      "所": 684,
      "扁": 685,
      "手": 686,
      "才": 687,
      "扎": 688,
      "打": 689,
      "托": 690,
      "执": 691,
      "扩": 692,
      "扫": 693,
      "扭": 694,
      "扰": 695,
      "找": 696,
      "承": 697,
      "技": 698,
      "抑": 699,
      "抓": 700,
      "抖": 701,
      "抗": 702,
      "折": 703,
      "抢": 704,
      "护": 705,
      "报": 706,
      "抬": 707,
      "抵": 708,
      "抹": 709,
      "抽": 710,
      "担": 711,
      "拆": 712,
      "拉": 713,
      "拍": 714,
      "拖": 715,
      "择": 716,
      "括": 717,
      "拭": 718,
      "拮": 719,
      "拳": 720,
      "拿": 721,
      "持": 722,
      "挂": 723,
      "指": 724,
      "按": 725,
      "挛": 726,
      "挤": 727,
      "挥": 728,
      "挫": 729,
      "振": 730,
      "挽": 731,
      "损": 732,
      "换": 733,
      "据": 734,
      "掉": 735,
      "掌": 736,
      "排": 737,
      "探": 738,
      "接": 739,
      "控": 740,
      "推": 741,
      "措": 742,
      "揉": 743,
      "描": 744,
      "提": 745,
      "握": 746,
      "搏": 747,
      "搔": 748,
      "搭": 749,
      "摄": 750,
      "摇": 751,
      "摔": 752,
      "摘": 753,
      "摧": 754,
      "摩": 755,
      "摸": 756,
      "撑": 757,
      "撕": 758,
      "撞": 759,
      "播": 760,
      "擅": 761,
      "操": 762,
      "擦": 763,
      "支": 764,
      "收": 765,
      "改": 766,
      "攻": 767,
      "放": 768,
      "故": 769,
      "效": 770,
      "敏": 771,
      "救": 772,
      "教": 773,
      "敛": 774,
      "散": 775,
      "数": 776,
      "整": 777,
      "敷": 778,
      "文": 779,
      "斑": 780,
      "料": 781,
      "斜": 782,
      "斥": 783,
      "断": 784,
      "新": 785,
      "方": 786,
      "施": 787,
      "旁": 788,
      "旋": 789,
      "族": 790,
      "无": 791,
      "既": 792,
      "日": 793,
      "旦": 794,
      "旧": 795,
      "旨": 796,
      "早": 797,
      "时": 798,
      "明": 799,
      "易": 800,
      "昔": 801,
      "星": 802,
      "映": 803,
      "春": 804,
      "是": 805,
      "显": 806,
      "晃": 807,
      "晒": 808,
      "晕": 809,
      "晚": 810,
      "晨": 811,
      "普": 812,
      "景": 813,
      "晰": 814,
      "晶": 815,
      "暂": 816,
      "暖": 817,
      "暗": 818,
      "暴": 819,
      "曲": 820,
      "更": 821,
      "曾": 822,
      "替": 823,
      "最": 824,
      "月": 825,
      "有": 826,
      "服": 827,
      "望": 828,
      "期": 829,
      "木": 830,
      "未": 831,
      "末": 832,
      "本": 833,
      "术": 834,
      "朵": 835,
      "机": 836,
      "杀": 837,
      "杂": 838,
      "杆": 839,
      "杉": 840,
      "材": 841,
      "束": 842,
      "条": 843,
      "来": 844,
      "杨": 845,
      "松": 846,
      "板": 847,
      "极": 848,
      "构": 849,
      "析": 850,
      "枕": 851,
      "林": 852,
      "果": 853,
      "枝": 854,
      "枢": 855,
      "枯": 856,
      "架": 857,
      "枸": 858,
      "柏": 859,
      "某": 860,
      "染": 861,
      "柔": 862,
      "查": 863,
      "柳": 864,
      "柴": 865,
      "标": 866,
      "栓": 867,
      "株": 868,
      "样": 869,
      "核": 870,
      "根": 871,
      "格": 872,
      "桂": 873,
      "桃": 874,
      "案": 875,
      "桥": 876,
      "桶": 877,
      "梅": 878,
      "梗": 879,
      "梢": 880,
      "梨": 881,
      "梭": 882,
      "梯": 883,
      "械": 884,
      "检": 885,
      "棉": 886,
      "棘": 887,
      "植": 888,
      "椎": 889,
      "椒": 890,
      "椭": 891,
      "楚": 892,
      "概": 893,
      "榆": 894,
      "榨": 895,
      "槐": 896,
      "模": 897,
      "横": 898,
      "橘": 899,
      "橼": 900,
      "次": 901,
      "欢": 902,
      "欣": 903,
      "欲": 904,
      "歇": 905,
      "止": 906,
      "正": 907,
      "此": 908,
      "步": 909,
      "歧": 910,
      "死": 911,
      "殊": 912,
      "残": 913,
      "殖": 914,
      "段": 915,
      "毁": 916,
      "母": 917,
      "每": 918,
      "毒": 919,
      "比": 920,
      "毛": 921,
      "毫": 922,
      "氏": 923,
      "气": 924,
      "氟": 925,
      "氢": 926,
      "氧": 927,
      "氨": 928,
      "氮": 929,
      "氯": 930,
      "氰": 931,
      "水": 932,
      "永": 933,
      "汀": 934,
      "汁": 935,
      "求": 936,
      "汗": 937,
      "池": 938,
      "污": 939,
      "汤": 940,
      "汽": 941,
      "沉": 942,
      "沓": 943,
      "沙": 944,
      "沟": 945,
      "没": 946,
      "沫": 947,
      "油": 948,
      "治": 949,
      "沿": 950,
      "泄": 951,
      "泊": 952,
      "泌": 953,
      "法": 954,
      "泛": 955,
      "泡": 956,
      "波": 957,
      "注": 958,
      "泮": 959,
      "泳": 960,
      "泵": 961,
      "泻": 962,
      "泼": 963,
      "泽": 964,
      "洁": 965,
      "洋": 966,
      "洗": 967,
      "洛": 968,
      "洞": 969,
      "津": 970,
      "活": 971,
      "流": 972,
      "浅": 973,
      "浆": 974,
      "浊": 975,
      "测": 976,
      "济": 977,
      "浓": 978,
      "浴": 979,
      "海": 980,
      "浸": 981,
      "涂": 982,
      "消": 983,
      "涉": 984,
      "涌": 985,
      "润": 986,
      "涩": 987,
      "液": 988,
      "淀": 989,
      "淋": 990,
      "淡": 991,
      "淤": 992,
      "深": 993,
      "混": 994,
      "添": 995,
      "清": 996,
      "渐": 997,
      "渗": 998,
      "渡": 999,
      "渣": 1000,
      "温": 1001,
      "渴": 1002,
      "游": 1003,
      "湿": 1004,
      "溃": 1005,
      "源": 1006,
      "溢": 1007,
      "溪": 1008,
      "溴": 1009,
      "溶": 1010,
      "滋": 1011,
      "滑": 1012,
      "滞": 1013,
      "满": 1014,
      "滤": 1015,
      "滥": 1016,
      "滨": 1017,
      "滴": 1018,
      "漏": 1019,
      "演": 1020,
      "漠": 1021,
      "漫": 1022,
      "漱": 1023,
      "潘": 1024,
      "潜": 1025,
      "潮": 1026,
      "潴": 1027,
      "激": 1028,
      "灌": 1029,
      "火": 1030,
      "灭": 1031,
      "灶": 1032,
      "灸": 1033,
      "灼": 1034,
      "炉": 1035,
      "炎": 1036,
      "炔": 1037,
      "炭": 1038,
      "炸": 1039,
      "点": 1040,
      "炼": 1041,
      "烂": 1042,
      "烈": 1043,
      "烟": 1044,
      "烦": 1045,
      "烧": 1046,
      "烫": 1047,
      "热": 1048,
      "烷": 1049,
      "烹": 1050,
      "焦": 1051,
      "然": 1052,
      "煎": 1053,
      "照": 1054,
      "煮": 1055,
      "熊": 1056,
      "熏": 1057,
      "熟": 1058,
      "熬": 1059,
      "燕": 1060,
      "燥": 1061,
      "片": 1062,
      "牙": 1063,
      "牛": 1064,
      "物": 1065,
      "牵": 1066,
      "特": 1067,
      "犯": 1068,
      "状": 1069,
      "独": 1070,
      "狭": 1071,
      "狼": 1072,
      "猕": 1073,
      "猴": 1074,
      "率": 1075,
      "玉": 1076,
      "环": 1077,
      "现": 1078,
      "珠": 1079,
      "班": 1080,
      "球": 1081,
      "理": 1082,
      "瑞": 1083,
      "瑟": 1084,
      "瓣": 1085,
      "甘": 1086,
      "甚": 1087,
      "甜": 1088,
      "生": 1089,
      "用": 1090,
      "由": 1091,
      "甲": 1092,
      "电": 1093,
      "男": 1094,
      "甾": 1095,
      "畅": 1096,
      "界": 1097,
      "畏": 1098,
      "留": 1099,
      "略": 1100,
      "畴": 1101,
      "畸": 1102,
      "疏": 1103,
      "疑": 1104,
      "疖": 1105,
      "疗": 1106,
      "疙": 1107,
      "疝": 1108,
      "疡": 1109,
      "疣": 1110,
      "疤": 1111,
      "疫": 1112,
      "疮": 1113,
      "疱": 1114,
      "疲": 1115,
      "疸": 1116,
      "疹": 1117,
      "疼": 1118,
      "疽": 1119,
      "疾": 1120,
      "病": 1121,
      "症": 1122,
      "痈": 1123,
      "痉": 1124,
      "痊": 1125,
      "痒": 1126,
      "痔": 1127,
      "痕": 1128,
      "痘": 1129,
      "痛": 1130,
      "痪": 1131,
      "痫": 1132,
      "痰": 1133,
      "痹": 1134,
      "瘀": 1135,
      "瘘": 1136,
      "瘙": 1137,
      "瘢": 1138,
      "瘤": 1139,
      "瘦": 1140,
      "瘩": 1141,
      "瘫": 1142,
      "瘾": 1143,
      "癌": 1144,
      "癖": 1145,
      "癜": 1146,
      "癫": 1147,
      "白": 1148,
      "的": 1149,
      "皙": 1150,
      "皮": 1151,
      "皱": 1152,
      "盆": 1153,
      "盈": 1154,
      "益": 1155,
      "盐": 1156,
      "监": 1157,
      "盖": 1158,
      "盗": 1159,
      "盛": 1160,
      "目": 1161,
      "盲": 1162,
      "直": 1163,
      "相": 1164,
      "看": 1165,
      "真": 1166,
      "眠": 1167,
      "眩": 1168,
      "眶": 1169,
      "眼": 1170,
      "着": 1171,
      "睛": 1172,
      "睡": 1173,
      "督": 1174,
      "睾": 1175,
      "知": 1176,
      "矫": 1177,
      "短": 1178,
      "石": 1179,
      "矿": 1180,
      "码": 1181,
      "砂": 1182,
      "研": 1183,
      "破": 1184,
      "砷": 1185,
      "础": 1186,
      "硅": 1187,
      "硝": 1188,
      "硫": 1189,
      "硬": 1190,
      "确": 1191,
      "硼": 1192,
      "碍": 1193,
      "碎": 1194,
      "碘": 1195,
      "碰": 1196,
      "碱": 1197,
      "碳": 1198,
      "碾": 1199,
      "磁": 1200,
      "磕": 1201,
      "磨": 1202,
      "磷": 1203,
      "磺": 1204,
      "示": 1205,
      "社": 1206,
      "神": 1207,
      "禁": 1208,
      "福": 1209,
      "离": 1210,
      "种": 1211,
      "科": 1212,
      "秒": 1213,
      "秘": 1214,
      "秦": 1215,
      "积": 1216,
      "称": 1217,
      "移": 1218,
      "稀": 1219,
      "程": 1220,
      "稚": 1221,
      "稠": 1222,
      "稳": 1223,
      "穴": 1224,
      "究": 1225,
      "空": 1226,
      "穿": 1227,
      "突": 1228,
      "窄": 1229,
      "窒": 1230,
      "窗": 1231,
      "窝": 1232,
      "窥": 1233,
      "窦": 1234,
      "立": 1235,
      "站": 1236,
      "竞": 1237,
      "童": 1238,
      "竭": 1239,
      "端": 1240,
      "第": 1241,
      "等": 1242,
      "筋": 1243,
      "答": 1244,
      "策": 1245,
      "筛": 1246,
      "简": 1247,
      "算": 1248,
      "管": 1249,
      "米": 1250,
      "类": 1251,
      "粉": 1252,
      "粒": 1253,
      "粗": 1254,
      "粘": 1255,
      "粥": 1256,
      "粪": 1257,
      "精": 1258,
      "糊": 1259,
      "糖": 1260,
      "糙": 1261,
      "糜": 1262,
      "糠": 1263,
      "系": 1264,
      "紊": 1265,
      "素": 1266,
      "索": 1267,
      "紧": 1268,
      "紫": 1269,
      "累": 1270,
      "繁": 1271,
      "纠": 1272,
      "红": 1273,
      "纤": 1274,
      "约": 1275,
      "级": 1276,
      "纯": 1277,
      "纱": 1278,
      "纳": 1279,
      "纵": 1280,
      "纸": 1281,
      "纹": 1282,
      "线": 1283,
      "练": 1284,
      "组": 1285,
      "细": 1286,
      "织": 1287,
      "终": 1288,
      "经": 1289,
      "绑": 1290,
      "结": 1291,
      "绕": 1292,
      "给": 1293,
      "络": 1294,
      "绝": 1295,
      "绞": 1296,
      "统": 1297,
      "继": 1298,
      "绪": 1299,
      "续": 1300,
      "维": 1301,
      "绵": 1302,
      "绷": 1303,
      "综": 1304,
      "绿": 1305,
      "缓": 1306,
      "缔": 1307,
      "编": 1308,
      "缘": 1309,
      "缝": 1310,
      "缠": 1311,
      "缩": 1312,
      "缺": 1313,
      "网": 1314,
      "罕": 1315,
      "罗": 1316,
      "置": 1317,
      "罹": 1318,
      "美": 1319,
      "羟": 1320,
      "群": 1321,
      "羹": 1322,
      "翘": 1323,
      "翻": 1324,
      "老": 1325,
      "考": 1326,
      "者": 1327,
      "而": 1328,
      "耐": 1329,
      "耗": 1330,
      "耦": 1331,
      "耳": 1332,
      "职": 1333,
      "联": 1334,
      "聚": 1335,
      "肉": 1336,
      "肋": 1337,
      "肌": 1338,
      "肘": 1339,
      "肚": 1340,
      "肛": 1341,
      "肝": 1342,
      "肟": 1343,
      "肠": 1344,
      "股": 1345,
      "肢": 1346,
      "肤": 1347,
      "肥": 1348,
      "肩": 1349,
      "肪": 1350,
      "育": 1351,
      "肺": 1352,
      "肼": 1353,
      "肾": 1354,
      "肿": 1355,
      "胀": 1356,
      "胁": 1357,
      "胃": 1358,
      "胆": 1359,
      "背": 1360,
      "胍": 1361,
      "胎": 1362,
      "胖": 1363,
      "胚": 1364,
      "胛": 1365,
      "胞": 1366,
      "胡": 1367,
      "胰": 1368,
      "胱": 1369,
      "胶": 1370,
      "胸": 1371,
      "胺": 1372,
      "能": 1373,
      "脂": 1374,
      "脆": 1375,
      "脉": 1376,
      "脊": 1377,
      "脏": 1378,
      "脐": 1379,
      "脑": 1380,
      "脓": 1381,
      "脖": 1382,
      "脘": 1383,
      "脚": 1384,
      "脱": 1385,
      "脸": 1386,
      "脾": 1387,
      "腋": 1388,
      "腌": 1389,
      "腐": 1390,
      "腑": 1391,
      "腔": 1392,
      "腧": 1393,
      "腰": 1394,
      "腱": 1395,
      "腹": 1396,
      "腺": 1397,
      "腻": 1398,
      "腿": 1399,
      "膀": 1400,
      "膈": 1401,
      "膏": 1402,
      "膜": 1403,
      "膝": 1404,
      "膦": 1405,
      "膨": 1406,
      "膳": 1407,
      "膻": 1408,
      "臀": 1409,
      "臂": 1410,
      "自": 1411,
      "至": 1412,
      "致": 1413,
      "舌": 1414,
      "舍": 1415,
      "舒": 1416,
      "般": 1417,
      "舱": 1418,
      "良": 1419,
      "色": 1420,
      "艳": 1421,
      "艾": 1422,
      "节": 1423,
      "芍": 1424,
      "芎": 1425,
      "芒": 1426,
      "芥": 1427,
      "芩": 1428,
      "芬": 1429,
      "芯": 1430,
      "花": 1431,
      "芹": 1432,
      "芽": 1433,
      "苄": 1434,
      "苍": 1435,
      "若": 1436,
      "苦": 1437,
      "苯": 1438,
      "英": 1439,
      "苷": 1440,
      "苹": 1441,
      "范": 1442,
      "茎": 1443,
      "茶": 1444,
      "草": 1445,
      "荐": 1446,
      "荡": 1447,
      "荨": 1448,
      "药": 1449,
      "荷": 1450,
      "莓": 1451,
      "莨": 1452,
      "莫": 1453,
      "获": 1454,
      "菌": 1455,
      "菜": 1456,
      "菠": 1457,
      "菪": 1458,
      "萄": 1459,
      "萎": 1460,
      "萘": 1461,
      "萝": 1462,
      "营": 1463,
      "落": 1464,
      "著": 1465,
      "葡": 1466,
      "葱": 1467,
      "蒂": 1468,
      "蒙": 1469,
      "蒲": 1470,
      "蒸": 1471,
      "蒽": 1472,
      "蓝": 1473,
      "蓟": 1474,
      "蔓": 1475,
      "蔬": 1476,
      "蕉": 1477,
      "薄": 1478,
      "薯": 1479,
      "藏": 1480,
      "藻": 1481,
      "虑": 1482,
      "虚": 1483,
      "虫": 1484,
      "虽": 1485,
      "虾": 1486,
      "蚀": 1487,
      "蛋": 1488,
      "蛔": 1489,
      "蛛": 1490,
      "蛲": 1491,
      "蜂": 1492,
      "蜗": 1493,
      "蜜": 1494,
      "蜡": 1495,
      "蝶": 1496,
      "螃": 1497,
      "融": 1498,
      "螺": 1499,
      "蟹": 1500,
      "蠕": 1501,
      "血": 1502,
      "行": 1503,
      "衡": 1504,
      "衣": 1505,
      "补": 1506,
      "表": 1507,
      "衰": 1508,
      "袋": 1509,
      "袖": 1510,
      "袜": 1511,
      "被": 1512,
      "袭": 1513,
      "裂": 1514,
      "装": 1515,
      "裤": 1516,
      "裹": 1517,
      "褐": 1518,
      "褶": 1519,
      "西": 1520,
      "要": 1521,
      "覆": 1522,
      "见": 1523,
      "观": 1524,
      "规": 1525,
      "视": 1526,
      "觉": 1527,
      "角": 1528,
      "解": 1529,
      "触": 1530,
      "言": 1531,
      "警": 1532,
      "计": 1533,
      "认": 1534,
      "训": 1535,
      "议": 1536,
      "记": 1537,
      "许": 1538,
      "论": 1539,
      "设": 1540,
      "访": 1541,
      "证": 1542,
      "评": 1543,
      "识": 1544,
      "诊": 1545,
      "试": 1546,
      "话": 1547,
      "询": 1548,
      "该": 1549,
      "详": 1550,
      "语": 1551,
      "误": 1552,
      "诱": 1553,
      "说": 1554,
      "诸": 1555,
      "诺": 1556,
      "读": 1557,
      "调": 1558,
      "谈": 1559,
      "谓": 1560,
      "谢": 1561,
      "谨": 1562,
      "谱": 1563,
      "谷": 1564,
      "豆": 1565,
      "象": 1566,
      "貌": 1567,
      "贝": 1568,
      "负": 1569,
      "责": 1570,
      "败": 1571,
      "质": 1572,
      "贫": 1573,
      "贲": 1574,
      "贴": 1575,
      "费": 1576,
      "资": 1577,
      "赖": 1578,
      "赘": 1579,
      "赛": 1580,
      "走": 1581,
      "起": 1582,
      "超": 1583,
      "越": 1584,
      "趋": 1585,
      "足": 1586,
      "趾": 1587,
      "跃": 1588,
      "跌": 1589,
      "跑": 1590,
      "跚": 1591,
      "跛": 1592,
      "距": 1593,
      "跟": 1594,
      "跨": 1595,
      "路": 1596,
      "跳": 1597,
      "踝": 1598,
      "踩": 1599,
      "踪": 1600,
      "蹒": 1601,
      "蹲": 1602,
      "躁": 1603,
      "身": 1604,
      "躺": 1605,
      "车": 1606,
      "转": 1607,
      "轮": 1608,
      "软": 1609,
      "轴": 1610,
      "轻": 1611,
      "较": 1612,
      "辅": 1613,
      "辆": 1614,
      "辐": 1615,
      "输": 1616,
      "辛": 1617,
      "辣": 1618,
      "辨": 1619,
      "边": 1620,
      "达": 1621,
      "迁": 1622,
      "迂": 1623,
      "迅": 1624,
      "过": 1625,
      "运": 1626,
      "近": 1627,
      "返": 1628,
      "还": 1629,
      "这": 1630,
      "进": 1631,
      "远": 1632,
      "连": 1633,
      "迟": 1634,
      "迫": 1635,
      "述": 1636,
      "迷": 1637,
      "迹": 1638,
      "追": 1639,
      "退": 1640,
      "送": 1641,
      "适": 1642,
      "逃": 1643,
      "逆": 1644,
      "选": 1645,
      "逍": 1646,
      "透": 1647,
      "逐": 1648,
      "递": 1649,
      "途": 1650,
      "通": 1651,
      "速": 1652,
      "造": 1653,
      "遇": 1654,
      "遏": 1655,
      "道": 1656,
      "遗": 1657,
      "遥": 1658,
      "遭": 1659,
      "遵": 1660,
      "避": 1661,
      "那": 1662,
      "邻": 1663,
      "郁": 1664,
      "部": 1665,
      "都": 1666,
      "配": 1667,
      "酒": 1668,
      "酗": 1669,
      "酚": 1670,
      "酪": 1671,
      "酮": 1672,
      "酯": 1673,
      "酰": 1674,
      "酱": 1675,
      "酵": 1676,
      "酶": 1677,
      "酸": 1678,
      "醇": 1679,
      "醉": 1680,
      "醋": 1681,
      "醒": 1682,
      "醛": 1683,
      "采": 1684,
      "释": 1685,
      "里": 1686,
      "重": 1687,
      "野": 1688,
      "量": 1689,
      "金": 1690,
      "鉴": 1691,
      "针": 1692,
      "钉": 1693,
      "钙": 1694,
      "钝": 1695,
      "钟": 1696,
      "钠": 1697,
      "钡": 1698,
      "钥": 1699,
      "钴": 1700,
      "钻": 1701,
      "钼": 1702,
      "钾": 1703,
      "铁": 1704,
      "铂": 1705,
      "铃": 1706,
      "铋": 1707,
      "铛": 1708,
      "铝": 1709,
      "铬": 1710,
      "铵": 1711,
      "银": 1712,
      "链": 1713,
      "锁": 1714,
      "锌": 1715,
      "锐": 1716,
      "错": 1717,
      "锥": 1718,
      "键": 1719,
      "锰": 1720,
      "锻": 1721,
      "镁": 1722,
      "镇": 1723,
      "镊": 1724,
      "镜": 1725,
      "长": 1726,
      "门": 1727,
      "闭": 1728,
      "问": 1729,
      "间": 1730,
      "闷": 1731,
      "阅": 1732,
      "阑": 1733,
      "队": 1734,
      "防": 1735,
      "阳": 1736,
      "阴": 1737,
      "阵": 1738,
      "阶": 1739,
      "阻": 1740,
      "阿": 1741,
      "附": 1742,
      "际": 1743,
      "陈": 1744,
      "降": 1745,
      "限": 1746,
      "院": 1747,
      "除": 1748,
      "险": 1749,
      "陶": 1750,
      "陷": 1751,
      "隆": 1752,
      "随": 1753,
      "隐": 1754,
      "隔": 1755,
      "隙": 1756,
      "障": 1757,
      "隧": 1758,
      "难": 1759,
      "雄": 1760,
      "集": 1761,
      "雌": 1762,
      "雪": 1763,
      "雷": 1764,
      "雾": 1765,
      "需": 1766,
      "震": 1767,
      "霉": 1768,
      "霍": 1769,
      "霜": 1770,
      "露": 1771,
      "青": 1772,
      "静": 1773,
      "非": 1774,
      "靠": 1775,
      "面": 1776,
      "革": 1777,
      "靶": 1778,
      "鞍": 1779,
      "鞘": 1780,
      "鞣": 1781,
      "韦": 1782,
      "韧": 1783,
      "音": 1784,
      "顶": 1785,
      "项": 1786,
      "顺": 1787,
      "须": 1788,
      "顽": 1789,
      "顿": 1790,
      "预": 1791,
      "颅": 1792,
      "颈": 1793,
      "颌": 1794,
      "频": 1795,
      "颗": 1796,
      "题": 1797,
      "颜": 1798,
      "额": 1799,
      "颞": 1800,
      "颤": 1801,
      "风": 1802,
      "飞": 1803,
      "食": 1804,
      "餐": 1805,
      "饥": 1806,
      "饪": 1807,
      "饭": 1808,
      "饮": 1809,
      "饱": 1810,
      "饼": 1811,
      "饿": 1812,
      "馈": 1813,
      "首": 1814,
      "香": 1815,
      "马": 1816,
      "驱": 1817,
      "驶": 1818,
      "驾": 1819,
      "验": 1820,
      "骑": 1821,
      "骤": 1822,
      "骨": 1823,
      "骶": 1824,
      "骼": 1825,
      "髂": 1826,
      "髓": 1827,
      "高": 1828,
      "鱼": 1829,
      "鲜": 1830,
      "鸡": 1831,
      "鸣": 1832,
      "鹅": 1833,
      "麝": 1834,
      "麦": 1835,
      "麻": 1836,
      "黄": 1837,
      "黏": 1838,
      "黑": 1839,
      "鼓": 1840,
      "鼻": 1841,
      "齐": 1842,
      "齿": 1843,
      "龄": 1844,
      "龈": 1845,
      "龙": 1846,
      "（": 1847,
      "）": 1848,
      "，": 1849,
      "：": 1850,
      "；": 1851,
      "？": 1852,
      "治疗": 1853,
      "可能": 1854,
      "患者": 1855,
      "症状": 1856,
      "导致": 1857,
      "引起": 1858,
      "进行": 1859,
      "手术": 1860,
      "甲状": 1861,
      "甲状腺": 1862,
      "组织": 1863,
      "建议": 1864,
      "疼痛": 1865,
      "药物": 1866,
      "肛门": 1867,
      "出现": 1868,
      "通过": 1869,
      "感染": 1870,
      "淋巴": 1871,
      "通常": 1872,
      "发生": 1873,
      "乳腺": 1874,
      "肿瘤": 1875,
      "针对": 1876,
      "情况": 1877,
      "可以": 1878,
      "避免": 1879,
      "炎症": 1880,
      "检查": 1881,
      "及时": 1882,
      "引起的": 1883,
      "疾病": 1884,
      "功能": 1885,
      "使用": 1886,
      "对于": 1887,
      "需要": 1888,
      "切除": 1889,
      "定期": 1890,
      "病情": 1891,
      "细胞": 1892,
      "淋巴结": 1893,
      "刺激": 1894,
      "形成": 1895,
      "由于": 1896,
      "血管": 1897,
      "异常": 1898,
      "就医": 1899,
      "结节": 1900,
      "局部": 1901,
      "包括": 1902,
      "不适": 1903,
      "方法": 1904,
      "恢复": 1905,
      "增生": 1906,
      "主要": 1907,
      "保持": 1908,
      "注意": 1909,
      "影响": 1910,
      "出血": 1911,
      "结肠": 1912,
      "腹部": 1913,
      "医生": 1914,
      "激素": 1915,
      "从而": 1916,
      "及时就医": 1917,
      "评估": 1918,
      "减少": 1919,
      "变化": 1920,
      "时间": 1921,
      "用于": 1922,
      "严重": 1923,
      "食物": 1924,
      "存在": 1925,
      "血液": 1926,
      "周围": 1927,
      "监测": 1928,
      "肿大": 1929,
      "如果": 1930,
      "缓解": 1931,
      "可能会": 1932,
      "进而": 1933,
      "因素": 1934,
      "这些": 1935,
      "风险": 1936,
      "以及": 1937,
      "反应": 1938,
      "神经": 1939,
      "生活": 1940,
      "可能导致": 1941,
      "息肉": 1942,
      "囊肿": 1943,
      "直肠": 1944,
      "饮食": 1945,
      "等症状": 1946,
      "的治疗": 1947,
      "加重": 1948,
      "促进": 1949,
      "增加": 1950,
      "的症状": 1951,
      "静脉": 1952,
      "习惯": 1953,
      "会导致": 1954,
      "术后": 1955,
      "病变": 1956,
      "指导": 1957,
      "恶性": 1958,
      "腹腔": 1959,
      "一种": 1960,
      "伴有": 1961,
      "压迫": 1962,
      "方式": 1963,
      "运动": 1964,
      "表现": 1965,
      "的情况": 1966,
      "同时": 1967,
      "脂肪": 1968,
      "免疫": 1969,
      "处理": 1970,
      "肠道": 1971,
      "排便": 1972,
      "以免": 1973,
      "医嘱": 1974,
      "并发": 1975,
      "好的": 1976,
      "诊断": 1977,
      "黏膜": 1978,
      "指导下": 1979,
      "皮肤": 1980,
      "原因": 1981,
      "可能是": 1982,
      "其他": 1983,
      "减轻": 1984,
      "超声": 1985,
      "痔疮": 1986,
      "助于": 1987,
      "发现": 1988,
      "患者应": 1989,
      "复查": 1990,
      "有助于": 1991,
      "并发症": 1992,
      "定期复查": 1993,
      "生素": 1994,
      "纤维": 1995,
      "结构": 1996,
      "考虑": 1997,
      "胆管": 1998,
      "良好的": 1999,
      "建议患者": 2000,
      "切除术": 2001,
      "进行治疗": 2002,
      "手术切除": 2003,
      "持续": 2004,
      "正常": 2005,
      "系统": 2006,
      "肿块": 2007,
      "保持良好的": 2008,
      "中药": 2009,
      "过度": 2010,
      "长期": 2011,
      "炎症反应": 2012,
      "作用": 2013,
      "具体": 2014,
      "呕吐": 2015,
      "引发": 2016,
      "结核": 2017,
      "产生": 2018,
      "抗生素": 2019,
      "专业": 2020,
      "身体": 2021,
      "医生指导下": 2022,
      "以便": 2023,
      "分泌": 2024,
      "是否": 2025,
      "损伤": 2026,
      "障碍": 2027,
      "循环": 2028,
      "怎么": 2029,
      "在医生指导下": 2030,
      "脓肿": 2031,
      "改善": 2032,
      "的发生": 2033,
      "动脉": 2034,
      "梗阻": 2035,
      "伴随": 2036,
      "部位": 2037,
      "困难": 2038,
      "伤口": 2039,
      "蛋白": 2040,
      "乳房": 2041,
      "压力": 2042,
      "慢性": 2043,
      "是一种": 2044,
      "疗法": 2045,
      "因为": 2046,
      "生长": 2047,
      "剧烈": 2048,
      "适用于": 2049,
      "根据": 2050,
      "水平": 2051,
      "淋巴结肿大": 2052,
      "患者的": 2053,
      "细菌": 2054,
      "摄入": 2055,
      "溃疡": 2056,
      "扩张": 2057,
      "肺癌": 2058,
      "便秘": 2059,
      "等药物": 2060,
      "预防": 2061,
      "健康": 2062,
      "愈合": 2063,
      "病情变化": 2064,
      "以评估": 2065,
      "因此": 2066,
      "增高": 2067,
      "所致": 2068,
      "消化": 2069,
      "良性": 2070,
      "阑尾": 2071,
      "食用": 2072,
      "恶心": 2073,
      "控制": 2074,
      "现象": 2075,
      "硬化": 2076,
      "遵医嘱": 2077,
      "血液循环": 2078,
      "会引起": 2079,
      "化疗": 2080,
      "不适症状": 2081,
      "表现为": 2082,
      "结石": 2083,
      "胆囊": 2084,
      "建议患者及时就医": 2085,
      "早期": 2086,
      "此时": 2087,
      "措施": 2088,
      "适当": 2089,
      "什么": 2090,
      "增大": 2091,
      "区域": 2092,
      "必要": 2093,
      "水肿": 2094,
      "相关": 2095,
      "调整": 2096,
      "可能出现": 2097,
      "生活习惯": 2098,
      "曲张": 2099,
      "肝脏": 2100,
      "颅内": 2101,
      "是由于": 2102,
      "程度": 2103,
      "较大": 2104,
      "或者": 2105,
      "状况": 2106,
      "的风险": 2107,
      "肛裂": 2108,
      "恶性肿瘤": 2109,
      "此外": 2110,
      "遗传": 2111,
      "以减少": 2112,
      "垂体": 2113,
      "注射": 2114,
      "位于": 2115,
      "受到": 2116,
      "服用": 2117,
      "辅助": 2118,
      "休息": 2119,
      "发展": 2120,
      "明显": 2121,
      "激光": 2122,
      "具有": 2123,
      "受损": 2124,
      "静脉曲张": 2125,
      "和治疗": 2126,
      "一步": 2127,
      "进一步": 2128,
      "霉素": 2129,
      "瘙痒": 2130,
      "腹壁": 2131,
      "监测病情变化": 2132,
      "以免加重": 2133,
      "性治疗": 2134,
      "扫描": 2135,
      "进行针对": 2136,
      "外敷": 2137,
      "血症": 2138,
      "转移": 2139,
      "建议定期": 2140,
      "体积": 2141,
      "的患者": 2142,
      "过程": 2143,
      "胶囊": 2144,
      "CT": 2145,
      "体重": 2146,
      "是由": 2147,
      "球蛋白": 2148,
      "肛周": 2149,
      "建议及时就医": 2150,
      "从而引起": 2151,
      "超声波": 2152,
      "大便": 2153,
      "头痛": 2154,
      "急性": 2155,
      "等方法": 2156,
      "周围组织": 2157,
      "可通过": 2158,
      "血管瘤": 2159,
      "呼吸": 2160,
      "抑制": 2161,
      "状态": 2162,
      "狭窄": 2163,
      "适合": 2164,
      "镜下": 2165,
      "抗生素治疗": 2166,
      "一般": 2167,
      "个体": 2168,
      "决于": 2169,
      "取决于": 2170,
      "方案": 2171,
      "避免食用": 2172,
      "根据具体": 2173,
      "进行针对性治疗": 2174,
      "位置": 2175,
      "机体": 2176,
      "观察": 2177,
      "这种": 2178,
      "超声波检查": 2179,
      "一定": 2180,
      "复发": 2181,
      "引流": 2182,
      "接受": 2183,
      "的现象": 2184,
      "股沟": 2185,
      "腹股沟": 2186,
      "药物治疗": 2187,
      "下肢": 2188,
      "抗炎": 2189,
      "括约": 2190,
      "病毒": 2191,
      "胃癌": 2192,
      "甲状腺功能": 2193,
      "淋巴结炎": 2194,
      "括约肌": 2195,
      "问题": 2196,
      "患者可": 2197,
      "头孢": 2198,
      "常见": 2199,
      "辛辣": 2200,
      "内分泌": 2201,
      "大小": 2202,
      "是指": 2203,
      "直接": 2204,
      "脂肪瘤": 2205,
      "在医生指导下使用": 2206,
      "充足": 2207,
      "活动": 2208,
      "病因": 2209,
      "肿胀": 2210,
      "腹痛": 2211,
      "降低": 2212,
      "导致的": 2213,
      "发生在": 2214,
      "激素水平": 2215,
      "保持良好的生活习惯": 2216,
      "手段": 2217,
      "紊乱": 2218,
      "营养": 2219,
      "可以考虑": 2220,
      "发热": 2221,
      "巨球蛋白": 2222,
      "或其他": 2223,
      "日常": 2224,
      "有关": 2225,
      "的食物": 2226,
      "等疾病": 2227,
      "获得": 2228,
      "较小": 2229,
      "采用": 2230,
      "乳腺增生": 2231,
      "中药外敷": 2232,
      "巨球蛋白血症": 2233,
      "体内": 2234,
      "侵犯": 2235,
      "内痔": 2236,
      "放射": 2237,
      "肛瘘": 2238,
      "轻度": 2239,
      "剧烈运动": 2240,
      "必要时": 2241,
      "以确": 2242,
      "杆菌": 2243,
      "特定": 2244,
      "腹膜": 2245,
      "需根据具体": 2246,
      "治疗措施": 2247,
      "可能需要": 2248,
      "这些症状": 2249,
      "不良": 2250,
      "减退": 2251,
      "口服": 2252,
      "微创": 2253,
      "无法": 2254,
      "甚至": 2255,
      "遵循": 2256,
      "长时间": 2257,
      "CT扫描": 2258,
      "利用": 2259,
      "改变": 2260,
      "效果": 2261,
      "明确": 2262,
      "片等": 2263,
      "肌肉": 2264,
      "镜检查": 2265,
      "建议进行": 2266,
      "伤口愈合": 2267,
      "例如": 2268,
      "压增高": 2269,
      "坏死": 2270,
      "下降": 2271,
      "常用": 2272,
      "性疾病": 2273,
      "痔核": 2274,
      "穿刺": 2275,
      "肠梗阻": 2276,
      "手术后": 2277,
      "甲状腺结节": 2278,
      "综合": 2279,
      "诱发": 2280,
      "患者可以": 2281,
      "避免剧烈运动": 2282,
      "干预": 2283,
      "有效": 2284,
      "管理": 2285,
      "食管": 2286,
      "甲状腺肿大": 2287,
      "乳腺组织": 2288,
      "纤维瘤": 2289,
      "密切": 2290,
      "西林": 2291,
      "刺激性": 2292,
      "抗炎药": 2293,
      "先天": 2294,
      "压痛": 2295,
      "调节": 2296,
      "部分": 2297,
      "麻醉": 2298,
      "上腹部": 2299,
      "影像": 2300,
      "甾体": 2301,
      "过敏": 2302,
      "非甾体": 2303,
      "受阻": 2304,
      "多种": 2305,
      "心脏": 2306,
      "是什么": 2307,
      "睡眠": 2308,
      "而异": 2309,
      "莫西林": 2310,
      "阿莫西林": 2311,
      "医师": 2312,
      "卫生": 2313,
      "因子": 2314,
      "外痔": 2315,
      "学检查": 2316,
      "差异": 2317,
      "软膏": 2318,
      "采取": 2319,
      "及时发现": 2320,
      "异常增生": 2321,
      "可能是由": 2322,
      "遵医嘱使用": 2323,
      "非甾体抗炎药": 2324,
      "中的": 2325,
      "物质": 2326,
      "破裂": 2327,
      "血栓": 2328,
      "不适感": 2329,
      "恢复时间": 2330,
      "日常生活": 2331,
      "清洁": 2332,
      "颈部": 2333,
      "进而引发": 2334,
      "的治疗方法": 2335,
      "早期发现": 2336,
      "全身": 2337,
      "咳嗽": 2338,
      "器官": 2339,
      "增殖": 2340,
      "感觉": 2341,
      "是因为": 2342,
      "类药物": 2343,
      "脱垂": 2344,
      "适量": 2345,
      "甲状腺激素": 2346,
      "结肠息肉": 2347,
      "阑尾炎": 2348,
      "明确诊断": 2349,
      "某些": 2350,
      "的变化": 2351,
      "达到": 2352,
      "造成": 2353,
      "通常在": 2354,
      "细菌感染": 2355,
      "亢进": 2356,
      "会出现": 2357,
      "基因": 2358,
      "复杂": 2359,
      "放疗": 2360,
      "能够": 2361,
      "形成的": 2362,
      "如果患者": 2363,
      "因素进行针对性治疗": 2364,
      "需根据具体因素进行针对性治疗": 2365,
      "任何": 2366,
      "加剧": 2367,
      "吸收": 2368,
      "排出": 2369,
      "肝硬化": 2370,
      "腹泻": 2371,
      "以确定": 2372,
      "日常生活中": 2373,
      "小肠": 2374,
      "干燥": 2375,
      "性的": 2376,
      "治愈": 2377,
      "调理": 2378,
      "过多": 2379,
      "选择": 2380,
      "酸钾": 2381,
      "临床": 2382,
      "化脓": 2383,
      "有时": 2384,
      "自身": 2385,
      "轻微": 2386,
      "进展": 2387,
      "避免过度": 2388,
      "严重时": 2389,
      "同时注意": 2390,
      "MR": 2391,
      "发育": 2392,
      "抗感染": 2393,
      "支持": 2394,
      "环境": 2395,
      "积液": 2396,
      "针灸": 2397,
      "需注意": 2398,
      "可能包括": 2399,
      "乳腺炎": 2400,
      "结肠炎": 2401,
      "免疫系统": 2402,
      "是否有": 2403,
      "过程中": 2404,
      "肛周脓肿": 2405,
      "个体差异": 2406,
      "一定的": 2407,
      "遵循医嘱": 2408,
      "上述": 2409,
      "切口": 2410,
      "可用于": 2411,
      "均衡": 2412,
      "外科": 2413,
      "检测": 2414,
      "红肿": 2415,
      "腺瘤": 2416,
      "规律": 2417,
      "通常需要": 2418,
      "乳腺结节": 2419,
      "可以通过": 2420,
      "结核病": 2421,
      "吸烟": 2422,
      "外伤": 2423,
      "大量": 2424,
      "扩散": 2425,
      "活检": 2426,
      "潜在": 2427,
      "疝气": 2428,
      "的一种": 2429,
      "胆汁": 2430,
      "腹内": 2431,
      "薄弱": 2432,
      "乳腺癌": 2433,
      "乳腺纤维瘤": 2434,
      "MRI": 2435,
      "上皮": 2436,
      "不会": 2437,
      "代谢": 2438,
      "容易": 2439,
      "应注意": 2440,
      "逐渐": 2441,
      "肛门括约肌": 2442,
      "主要针对": 2443,
      "腹腔内": 2444,
      "颅内压增高": 2445,
      "辛辣刺激性": 2446,
      "修复": 2447,
      "吞咽": 2448,
      "坐浴": 2449,
      "增多": 2450,
      "失调": 2451,
      "性质": 2452,
      "的松": 2453,
      "的方式": 2454,
      "表面": 2455,
      "治疗方法": 2456,
      "严重的": 2457,
      "生活方式": 2458,
      "胆囊炎": 2459,
      "呼吸困难": 2460,
      "影像学检查": 2461,
      "发性": 2462,
      "家族": 2463,
      "旨在": 2464,
      "毛细": 2465,
      "突变": 2466,
      "等情况": 2467,
      "红霉素": 2468,
      "血压": 2469,
      "还要": 2470,
      "配合": 2471,
      "硬化剂": 2472,
      "遗传因素": 2473,
      "之间": 2474,
      "切开": 2475,
      "升高": 2476,
      "可的松": 2477,
      "合成": 2478,
      "堵塞": 2479,
      "或伴有": 2480,
      "接触": 2481,
      "止痛": 2482,
      "的主要": 2483,
      "的诊断": 2484,
      "目的": 2485,
      "相应": 2486,
      "移除": 2487,
      "炎症因子": 2488,
      "功能障碍": 2489,
      "结肠癌": 2490,
      "超声检查": 2491,
      "以便及时发现": 2492,
      "垂体瘤": 2493,
      "激光治疗": 2494,
      "建议定期进行": 2495,
      "毛细血管": 2496,
      "内镜下": 2497,
      "化可的松": 2498,
      "完全": 2499,
      "尤其": 2500,
      "幽门": 2501,
      "恶变": 2502,
      "排除": 2503,
      "收缩": 2504,
      "晚期": 2505,
      "替代": 2506,
      "氢化可的松": 2507,
      "的作用": 2508,
      "皮质": 2509,
      "视力": 2510,
      "可能与": 2511,
      "可能伴随": 2512,
      "通常位于": 2513,
      "缓解症状": 2514,
      "先天性": 2515,
      "中度": 2516,
      "性结肠炎": 2517,
      "此方法": 2518,
      "确诊": 2519,
      "类型": 2520,
      "肺部": 2521,
      "重要": 2522,
      "靶向": 2523,
      "均衡饮食": 2524,
      "不能": 2525,
      "人而异": 2526,
      "因人而异": 2527,
      "提高": 2528,
      "等方式": 2529,
      "肥胖": 2530,
      "食欲": 2531,
      "淋巴瘤": 2532,
      "炎症刺激": 2533,
      "排便时": 2534,
      "吞咽困难": 2535,
      "尤其是": 2536,
      "不同": 2537,
      "以促进": 2538,
      "以监测病情变化": 2539,
      "以获得": 2540,
      "修补": 2541,
      "儿童": 2542,
      "声音": 2543,
      "尽快": 2544,
      "应及时就医": 2545,
      "摩擦": 2546,
      "特殊": 2547,
      "积水": 2548,
      "突出": 2549,
      "等引起的": 2550,
      "负担": 2551,
      "较为": 2552,
      "预后": 2553,
      "可能伴有": 2554,
      "溃疡性结肠炎": 2555,
      "内容": 2556,
      "功效": 2557,
      "原体": 2558,
      "康复": 2559,
      "胃肠": 2560,
      "胃肠道": 2561,
      "脊液": 2562,
      "脑膜": 2563,
      "脑脊液": 2564,
      "质量": 2565,
      "进入": 2566,
      "酰胺": 2567,
      "可能性": 2568,
      "手术治疗": 2569,
      "疾病的": 2570,
      "评估和治疗": 2571,
      "饮食习惯": 2572,
      "适量运动": 2573,
      "上皮细胞": 2574,
      "以减轻": 2575,
      "回流": 2576,
      "开放": 2577,
      "没有": 2578,
      "破坏": 2579,
      "颈动脉": 2580,
      "颜色": 2581,
      "肛门周围": 2582,
      "恢复正常": 2583,
      "缓解不适症状": 2584,
      "直肠黏膜": 2585,
      "痔疮膏": 2586,
      "胶囊等": 2587,
      "甲状腺功能亢进": 2588,
      "杆菌感染": 2589,
      "微创手术": 2590,
      "是什么原因": 2591,
      "红霉素软膏": 2592,
      "尽快就医": 2593,
      "体检": 2594,
      "囊性": 2595,
      "回事": 2596,
      "多为": 2597,
      "斑块": 2598,
      "浆细胞": 2599,
      "生物": 2600,
      "癌细胞": 2601,
      "速度": 2602,
      "防止": 2603,
      "药物如": 2604,
      "通常采用": 2605,
      "局部组织": 2606,
      "病变组织": 2607,
      "腹腔镜下": 2608,
      "适当治疗": 2609,
      "抗感染治疗": 2610,
      "内容物": 2611,
      "个人": 2612,
      "则需": 2613,
      "并接受": 2614,
      "术等": 2615,
      "液体": 2616,
      "建议定期复查": 2617,
      "疼痛和": 2618,
      "肛门部位": 2619,
      "对于存在": 2620,
      "周围的": 2621,
      "消化道": 2622,
      "辅助治疗": 2623,
      "等方法进行治疗": 2624,
      "这些症状可能": 2625,
      "化脓性": 2626,
      "乳头": 2627,
      "副作用": 2628,
      "增长": 2629,
      "奇金": 2630,
      "患处": 2631,
      "特别": 2632,
      "环磷": 2633,
      "病原体": 2634,
      "确保": 2635,
      "能力": 2636,
      "蠕动": 2637,
      "霍奇金": 2638,
      "非霍奇金": 2639,
      "症状持续": 2640,
      "甲状腺癌": 2641,
      "通常由": 2642,
      "情况下": 2643,
      "局部麻醉": 2644,
      "这些疾病": 2645,
      "直肠癌": 2646,
      "胆管扩张": 2647,
      "中药调理": 2648,
      "身体恢复": 2649,
      "怎么回事": 2650,
      "动脉瘤": 2651,
      "良性肿瘤": 2652,
      "较大的": 2653,
      "注射液": 2654,
      "常见的": 2655,
      "环磷酰胺": 2656,
      "非霍奇金淋巴瘤": 2657,
      "不畅": 2658,
      "之一": 2659,
      "典型": 2660,
      "则需要": 2661,
      "常规": 2662,
      "并处理": 2663,
      "成像": 2664,
      "按摩": 2665,
      "根治": 2666,
      "的原因": 2667,
      "粪便": 2668,
      "至中度": 2669,
      "雌激素": 2670,
      "青霉素": 2671,
      "出现在": 2672,
      "病情进展": 2673,
      "腹部压痛": 2674,
      "持续性": 2675,
      "患者可在医生指导下使用": 2676,
      "头孢克": 2677,
      "常用药物": 2678,
      "基因突变": 2679,
      "且无": 2680,
      "分枝": 2681,
      "制定": 2682,
      "多久": 2683,
      "导管": 2684,
      "快速": 2685,
      "感到": 2686,
      "技术": 2687,
      "清热": 2688,
      "源于": 2689,
      "的可能性": 2690,
      "立即": 2691,
      "联合": 2692,
      "表明": 2693,
      "雌激素水平": 2694,
      "颗粒": 2695,
      "患者可能会": 2696,
      "肿瘤的": 2697,
      "可以进行": 2698,
      "腹腔镜": 2699,
      "结核分枝": 2700,
      "是否存在": 2701,
      "适用于轻度": 2702,
      "腹膜炎": 2703,
      "靶向治疗": 2704,
      "以监测": 2705,
      "作为": 2706,
      "克拉": 2707,
      "劳累": 2708,
      "即可": 2709,
      "嘶哑": 2710,
      "应尽快就医": 2711,
      "或加重": 2712,
      "操作": 2713,
      "用药": 2714,
      "缺血": 2715,
      "肛管": 2716,
      "肝内": 2717,
      "胃黏膜": 2718,
      "腹水": 2719,
      "自我": 2720,
      "血流": 2721,
      "表浅": 2722,
      "进行抗感染治疗": 2723,
      "局部血液循环": 2724,
      "结肠镜检查": 2725,
      "的症状包括": 2726,
      "排便困难": 2727,
      "以免影响": 2728,
      "有助于减少": 2729,
      "身体状况": 2730,
      "怎么治疗": 2731,
      "引流术": 2732,
      "病毒感染": 2733,
      "治疗措施包括": 2734,
      "辛辣刺激性食物": 2735,
      "声音嘶哑": 2736,
      "功效的": 2737,
      "不足": 2738,
      "为明显": 2739,
      "久坐": 2740,
      "其中": 2741,
      "切术": 2742,
      "可导致": 2743,
      "合并": 2744,
      "女性": 2745,
      "完成": 2746,
      "平时": 2747,
      "应龙": 2748,
      "延长": 2749,
      "气管": 2750,
      "氨基": 2751,
      "瓣膜": 2752,
      "癌症": 2753,
      "的时间": 2754,
      "移动": 2755,
      "维酸钾": 2756,
      "膳食": 2757,
      "解毒": 2758,
      "贫血": 2759,
      "邻近": 2760,
      "香痔疮膏": 2761,
      "马应龙": 2762,
      "麝香痔疮膏": 2763,
      "疼痛等症状": 2764,
      "功能紊乱": 2765,
      "这些因素": 2766,
      "可能是由于": 2767,
      "怎么办": 2768,
      "压力增高": 2769,
      "体重减轻": 2770,
      "体重下降": 2771,
      "建议及时就医进行": 2772,
      "自身免疫": 2773,
      "避免过度劳累": 2774,
      "幽门螺": 2775,
      "以获得专业": 2776,
      "头孢克肟": 2777,
      "克拉维酸钾": 2778,
      "马应龙麝香痔疮膏": 2779,
      "人群": 2780,
      "充血": 2781,
      "化学": 2782,
      "含有": 2783,
      "增强": 2784,
      "处于": 2785,
      "布洛": 2786,
      "病理": 2787,
      "的目的": 2788,
      "等因素": 2789,
      "等原因": 2790,
      "结果": 2791,
      "肠溶": 2792,
      "胰腺": 2793,
      "较高": 2794,
      "主要用于": 2795,
      "腹部不适": 2796,
      "医生的": 2797,
      "从而引发": 2798,
      "严重程度": 2799,
      "如果症状持续": 2800,
      "进而影响": 2801,
      "术后患者应": 2802,
      "以便早期发现": 2803,
      "发育异常": 2804,
      "家族史": 2805,
      "替代疗法": 2806,
      "个人卫生": 2807,
      "特别是": 2808,
      "清热解毒": 2809,
      "布洛芬": 2810,
      "X线": 2811,
      "下腹": 2812,
      "乳膏": 2813,
      "会影响": 2814,
      "侵袭": 2815,
      "利福": 2816,
      "和疼痛": 2817,
      "大脑": 2818,
      "平衡": 2819,
      "年龄": 2820,
      "抗结核": 2821,
      "敏感": 2822,
      "是主要": 2823,
      "溶液": 2824,
      "痉挛": 2825,
      "胀痛": 2826,
      "能量": 2827,
      "脑垂体瘤": 2828,
      "若患者": 2829,
      "酒精": 2830,
      "难以": 2831,
      "集中": 2832,
      "注意休息": 2833,
      "可能会导致": 2834,
      "进而引起": 2835,
      "腹腔积液": 2836,
      "健康状况": 2837,
      "遵医嘱服用": 2838,
      "体积较小": 2839,
      "适合于": 2840,
      "充足的": 2841,
      "密切监测": 2842,
      "的诊断和治疗": 2843,
      "皮质激素": 2844,
      "修补术": 2845,
      "并接受适当治疗": 2846,
      "利福平": 2847,
      "乏力": 2848,
      "会对": 2849,
      "保护": 2850,
      "利于": 2851,
      "反复": 2852,
      "发作": 2853,
      "发炎": 2854,
      "口腔": 2855,
      "在专业": 2856,
      "小型": 2857,
      "应避免": 2858,
      "心悸": 2859,
      "测定": 2860,
      "涉及": 2861,
      "的方法": 2862,
      "的影响": 2863,
      "盆腔": 2864,
      "眩晕": 2865,
      "积聚": 2866,
      "穴位": 2867,
      "穿孔": 2868,
      "缓慢": 2869,
      "胸痛": 2870,
      "脱出": 2871,
      "腋下": 2872,
      "药膏": 2873,
      "触痛": 2874,
      "随着": 2875,
      "手术方式": 2876,
      "肛门指": 2877,
      "肛门疼痛": 2878,
      "定期进行": 2879,
      "保持规律": 2880,
      "炎症反应和": 2881,
      "恶心呕吐": 2882,
      "充足睡眠": 2883,
      "阿莫西林克拉维酸钾": 2884,
      "临床表现": 2885,
      "炎症因子刺激": 2886,
      "EB": 2887,
      "会刺激": 2888,
      "使得": 2889,
      "保证": 2890,
      "内膜": 2891,
      "动力": 2892,
      "包块": 2893,
      "可考虑": 2894,
      "富含": 2895,
      "帮助": 2896,
      "异烟": 2897,
      "护理": 2898,
      "斜疝": 2899,
      "烫伤": 2900,
      "由专业": 2901,
      "瘢痕": 2902,
      "硬块": 2903,
      "积极": 2904,
      "经皮": 2905,
      "肝囊肿": 2906,
      "胆结石": 2907,
      "胸部": 2908,
      "补充": 2909,
      "钙化": 2910,
      "黄疸": 2911,
      "可能表现为": 2912,
      "患者平时": 2913,
      "进行处理": 2914,
      "甲状腺组织": 2915,
      "肿瘤细胞": 2916,
      "及时处理": 2917,
      "定期监测": 2918,
      "血管炎": 2919,
      "主要是因为": 2920,
      "直肠炎": 2921,
      "的情况发生": 2922,
      "排便习惯": 2923,
      "患者应避免": 2924,
      "必要的": 2925,
      "明显的": 2926,
      "体积增大": 2927,
      "患者可在医生指导下": 2928,
      "类型的": 2929,
      "脑膜瘤": 2930,
      "集中在": 2931,
      "异烟肼": 2932,
      "个月": 2933,
      "关注": 2934,
      "内部": 2935,
      "区别": 2936,
      "和刺激": 2937,
      "固定": 2938,
      "尿病": 2939,
      "属于": 2940,
      "心动": 2941,
      "整体": 2942,
      "暴露": 2943,
      "期间": 2944,
      "毒素": 2945,
      "沙拉": 2946,
      "消除": 2947,
      "渗出": 2948,
      "的功能": 2949,
      "的感觉": 2950,
      "相对": 2951,
      "糖尿病": 2952,
      "缺乏": 2953,
      "缺损": 2954,
      "股疝": 2955,
      "胃炎": 2956,
      "脱肛": 2957,
      "自愈": 2958,
      "进食": 2959,
      "附近": 2960,
      "高压": 2961,
      "高脂肪": 2962,
      "淋巴细胞": 2963,
      "发生的": 2964,
      "乳腺囊性": 2965,
      "生活质量": 2966,
      "饮食调整": 2967,
      "同时还要": 2968,
      "纤维化": 2969,
      "以便获得": 2970,
      "摄入量": 2971,
      "等药物进行": 2972,
      "等药物进行治疗": 2973,
      "超声波检查以评估": 2974,
      "等疾病引起的": 2975,
      "放射治疗": 2976,
      "腹膜后": 2977,
      "医师指导下": 2978,
      "膳食纤维": 2979,
      "乳腺囊性增生": 2980,
      "不需要": 2981,
      "也有助于": 2982,
      "保守": 2983,
      "创伤": 2984,
      "可遵医嘱使用": 2985,
      "合理": 2986,
      "并形成": 2987,
      "异物": 2988,
      "才能": 2989,
      "水分": 2990,
      "特征": 2991,
      "的表现": 2992,
      "糖皮质激素": 2993,
      "肝癌": 2994,
      "肠癌": 2995,
      "菌素": 2996,
      "部或": 2997,
      "间隙": 2998,
      "症状或": 2999,
      "甲状腺素": 3000,
      "药物进行治疗": 3001,
      "严重吗": 3002,
      "增加患": 3003,
      "病变部位": 3004,
      "可能出现的": 3005,
      "头孢菌素": 3006,
      "穿刺引流": 3007,
      "潜在的": 3008,
      "毛细血管扩张": 3009,
      "结核分枝杆菌感染": 3010,
      "13": 3011,
      "下腹部": 3012,
      "不全": 3013,
      "中枢": 3014,
      "以排除": 3015,
      "使其": 3016,
      "便血": 3017,
      "共振": 3018,
      "关键": 3019,
      "则可能": 3020,
      "合适": 3021,
      "应避免食用": 3022,
      "松弛": 3023,
      "气体": 3024,
      "涂抹": 3025,
      "混合": 3026,
      "熏洗": 3027,
      "盐酸": 3028,
      "磁共振": 3029,
      "等并发症": 3030,
      "精索": 3031,
      "纵隔": 3032,
      "绞痛": 3033,
      "肝功能": 3034,
      "脏器": 3035,
      "脑积水": 3036,
      "自行": 3037,
      "血糖": 3038,
      "软组织": 3039,
      "食品": 3040,
      "患者需要": 3041,
      "疼痛感": 3042,
      "通常发生在": 3043,
      "通常出现在": 3044,
      "对于有": 3045,
      "血液回流": 3046,
      "进而出现": 3047,
      "术后恢复": 3048,
      "压迫周围": 3049,
      "保持良好的个人卫生": 3050,
      "腹壁薄弱": 3051,
      "以免加重病情": 3052,
      "营养支持": 3053,
      "综合征": 3054,
      "清洁干燥": 3055,
      "以确定具体": 3056,
      "有时可": 3057,
      "高脂肪食物": 3058,
      "131": 3059,
      "4周": 3060,
      "下移": 3061,
      "也可能": 3062,
      "二指": 3063,
      "侵入": 3064,
      "内的": 3065,
      "分钟": 3066,
      "刺痛": 3067,
      "十二指": 3068,
      "咨询": 3069,
      "嘧啶": 3070,
      "头部": 3071,
      "常伴有": 3072,
      "并且": 3073,
      "彻底": 3074,
      "扁桃": 3075,
      "无需": 3076,
      "昔洛": 3077,
      "是怎么回事": 3078,
      "曲松": 3079,
      "来评估": 3080,
      "清除": 3081,
      "疱疹": 3082,
      "的是": 3083,
      "的压力": 3084,
      "的人群": 3085,
      "皮脂": 3086,
      "紧张": 3087,
      "结合": 3088,
      "缓释": 3089,
      "胃部": 3090,
      "脑室": 3091,
      "腹胀": 3092,
      "致病": 3093,
      "虽然": 3094,
      "较低": 3095,
      "较好": 3096,
      "迅速": 3097,
      "过高": 3098,
      "远处": 3099,
      "造口": 3100,
      "造影": 3101,
      "都可能导致": 3102,
      "锰酸钾": 3103,
      "颅骨": 3104,
      "高血压": 3105,
      "高锰酸钾": 3106,
      "通过手术": 3107,
      "通常为": 3108,
      "细胞异常增生": 3109,
      "可能会出现": 3110,
      "进而形成": 3111,
      "神经系统": 3112,
      "饮食结构": 3113,
      "运动障碍": 3114,
      "胆管结石": 3115,
      "手术切除是": 3116,
      "正常的": 3117,
      "长期便秘": 3118,
      "良性病变": 3119,
      "腹壁肌肉": 3120,
      "呼吸道": 3121,
      "头孢曲松": 3122,
      "内分泌紊乱": 3123,
      "过敏反应": 3124,
      "血栓形成": 3125,
      "腹内疝": 3126,
      "生活方式干预": 3127,
      "腹腔镜手术": 3128,
      "肛门指诊": 3129,
      "EB病毒感染": 3130,
      "整体健康状况": 3131,
      "保守治疗": 3132,
      "保持良好的个人卫生习惯": 3133,
      "扁桃体": 3134,
      "昔洛韦": 3135,
      "不宜": 3136,
      "丰富": 3137,
      "但也": 3138,
      "准确": 3139,
      "分布": 3140,
      "分析": 3141,
      "剂量": 3142,
      "卵巢": 3143,
      "复方": 3144,
      "小时": 3145,
      "带状": 3146,
      "异性": 3147,
      "抗病毒": 3148,
      "指标": 3149,
      "排泄": 3150,
      "更长时间": 3151,
      "止血": 3152,
      "消融": 3153,
      "特异性": 3154,
      "疝囊": 3155,
      "结缔": 3156,
      "维持": 3157,
      "缩小": 3158,
      "肉芽": 3159,
      "肢体": 3160,
      "脑部": 3161,
      "较快": 3162,
      "阻断": 3163,
      "症状包括": 3164,
      "乳腺导管": 3165,
      "对于较大的": 3166,
      "病情发展": 3167,
      "促进伤口愈合": 3168,
      "消化不良": 3169,
      "适当的治疗": 3170,
      "具有清热解毒": 3171,
      "进一步加重": 3172,
      "治疗措施可能包括": 3173,
      "CT扫描或": 3174,
      "穿刺活检": 3175,
      "患者可以在医生指导下使用": 3176,
      "配合医生": 3177,
      "硬化剂注射": 3178,
      "确诊为": 3179,
      "食欲减退": 3180,
      "这些症状可能表明": 3181,
      "合并症": 3182,
      "如果症状持续或加重": 3183,
      "结缔组织": 3184,
      "他莫": 3185,
      "元素": 3186,
      "去除": 3187,
      "及其": 3188,
      "反复发": 3189,
      "可引起": 3190,
      "孕期": 3191,
      "尿液": 3192,
      "应考虑": 3193,
      "性血管炎": 3194,
      "抗甲状腺": 3195,
      "昔芬": 3196,
      "是将": 3197,
      "暂时": 3198,
      "有什么": 3199,
      "杀死": 3200,
      "来改善": 3201,
      "来缓解症状": 3202,
      "油腻": 3203,
      "淤积": 3204,
      "用力": 3205,
      "皮下": 3206,
      "移植": 3207,
      "等检查": 3208,
      "紧急": 3209,
      "美沙拉": 3210,
      "肝脓肿": 3211,
      "行走": 3212,
      "训练": 3213,
      "质地": 3214,
      "起到": 3215,
      "还可能出现": 3216,
      "阻塞": 3217,
      "治疗方案": 3218,
      "患者出现": 3219,
      "肛门瘙痒": 3220,
      "病情恢复": 3221,
      "主要是": 3222,
      "从而达到": 3223,
      "进而诱发": 3224,
      "直肠脱垂": 3225,
      "免疫力": 3226,
      "肠道蠕动": 3227,
      "减轻炎症反应": 3228,
      "过度生长": 3229,
      "是一种常见的": 3230,
      "早期症状": 3231,
      "适当的": 3232,
      "水肿和": 3233,
      "调整饮食结构": 3234,
      "发展为": 3235,
      "建议定期自我": 3236,
      "这种情况": 3237,
      "密切观察": 3238,
      "全身麻醉": 3239,
      "针灸治疗": 3240,
      "尤其是在": 3241,
      "甲状腺功能亢进症": 3242,
      "浆细胞恶性": 3243,
      "头孢克肟颗粒": 3244,
      "磁共振成像": 3245,
      "皮脂腺": 3246,
      "头孢曲松钠": 3247,
      "肉芽肿": 3248,
      "他莫昔芬": 3249,
      "Ig": 3250,
      "以防": 3251,
      "传导": 3252,
      "传染": 3253,
      "作息": 3254,
      "冷冻": 3255,
      "医学": 3256,
      "卡因": 3257,
      "反射": 3258,
      "射频": 3259,
      "小脑": 3260,
      "就会": 3261,
      "性腹膜炎": 3262,
      "数量": 3263,
      "无效": 3264,
      "更为明显": 3265,
      "有利于": 3266,
      "来缓解": 3267,
      "杨酸": 3268,
      "模糊": 3269,
      "此类": 3270,
      "水杨酸": 3271,
      "波长": 3272,
      "注入": 3273,
      "源性": 3274,
      "确定": 3275,
      "突然": 3276,
      "精神": 3277,
      "累及": 3278,
      "肠瘘": 3279,
      "胶质": 3280,
      "血脂": 3281,
      "解剖": 3282,
      "谨慎": 3283,
      "较好的": 3284,
      "遵照": 3285,
      "饮酒": 3286,
      "骨下": 3287,
      "导致局部": 3288,
      "甲状腺切除术": 3289,
      "疼痛通常位于": 3290,
      "肛门镜检查": 3291,
      "避免接触": 3292,
      "免疫应": 3293,
      "胆管炎": 3294,
      "分泌物": 3295,
      "遗传性": 3296,
      "个体化": 3297,
      "机体免疫系统": 3298,
      "病因进行针对性治疗": 3299,
      "侵犯周围组织": 3300,
      "特定波长": 3301,
      "综合考虑": 3302,
      "选择合适": 3303,
      "视力模糊": 3304,
      "这些疾病都可能导致": 3305,
      "立即就医": 3306,
      "氨基水杨酸": 3307,
      "盆腔炎": 3308,
      "营养支持治疗": 3309,
      "浆细胞恶性增殖": 3310,
      "上的": 3311,
      "上腺": 3312,
      "中医": 3313,
      "介入": 3314,
      "传统": 3315,
      "停止": 3316,
      "克隆": 3317,
      "则可能需要": 3318,
      "医疗": 3319,
      "可在": 3320,
      "可作为": 3321,
      "各种": 3322,
      "基础": 3323,
      "多发": 3324,
      "如布洛芬": 3325,
      "尿管": 3326,
      "已经": 3327,
      "应用": 3328,
      "心血管": 3329,
      "性病变": 3330,
      "意见": 3331,
      "成分": 3332,
      "戒烟": 3333,
      "所以": 3334,
      "提供": 3335,
      "末梢": 3336,
      "植入": 3337,
      "波动": 3338,
      "深静脉": 3339,
      "溢液": 3340,
      "焦虑": 3341,
      "生理": 3342,
      "疤痕": 3343,
      "的疼痛": 3344,
      "的刺激": 3345,
      "繁殖": 3346,
      "红色": 3347,
      "而引起的": 3348,
      "耳鸣": 3349,
      "肛垫": 3350,
      "肝炎": 3351,
      "肾上腺": 3352,
      "脑外伤": 3353,
      "致癌": 3354,
      "菌群": 3355,
      "输尿管": 3356,
      "重度": 3357,
      "钠片": 3358,
      "锻炼": 3359,
      "闭塞": 3360,
      "额叶": 3361,
      "患者可能出现": 3362,
      "进行局部": 3363,
      "局部疼痛": 3364,
      "注意的是": 3365,
      "严重者": 3366,
      "血液中": 3367,
      "进而导致": 3368,
      "神经末梢": 3369,
      "息肉切除术": 3370,
      "的情况下": 3371,
      "减轻症状": 3372,
      "慢性炎症": 3373,
      "相关检查": 3374,
      "体积聚": 3375,
      "建议及时就医以获得专业": 3376,
      "抑制剂": 3377,
      "药物治疗如": 3378,
      "甲状腺功能减退": 3379,
      "内分泌失调": 3380,
      "坏死组织": 3381,
      "阿莫西林胶囊": 3382,
      "破裂出血": 3383,
      "严重时甚至": 3384,
      "环境因素": 3385,
      "外科手术": 3386,
      "肛管皮肤": 3387,
      "患者可在医生指导下服用": 3388,
      "高锰酸钾溶液": 3389,
      "带状疱疹": 3390,
      "美沙拉嗪": 3391,
      "IgM": 3392,
      "免疫应答": 3393,
      "一个": 3394,
      "下完成": 3395,
      "以防止": 3396,
      "体温": 3397,
      "倾向": 3398,
      "分子": 3399,
      "分级": 3400,
      "单克隆": 3401,
      "咪唑": 3402,
      "哺乳": 3403,
      "因个体差异": 3404,
      "干扰": 3405,
      "张力": 3406,
      "当患者": 3407,
      "得到": 3408,
      "所引起的": 3409,
      "手指": 3410,
      "提及": 3411,
      "摘除": 3412,
      "支气管": 3413,
      "显示": 3414,
      "有害": 3415,
      "比较": 3416,
      "气促": 3417,
      "污染": 3418,
      "海带": 3419,
      "清晰": 3420,
      "热敷": 3421,
      "生命": 3422,
      "生殖": 3423,
      "疲劳": 3424,
      "瘘管": 3425,
      "的发展": 3426,
      "稳定": 3427,
      "等问题": 3428,
      "等病因": 3429,
      "策略": 3430,
      "红斑": 3431,
      "耐受": 3432,
      "脑动脉瘤": 3433,
      "脾脏": 3434,
      "转化": 3435,
      "辐射": 3436,
      "间歇": 3437,
      "阳性": 3438,
      "非特异性": 3439,
      "颈淋巴结炎": 3440,
      "高脂": 3441,
      "麻木": 3442,
      "手术或": 3443,
      "通过抑制": 3444,
      "感染风险": 3445,
      "通常表现为": 3446,
      "肿瘤压迫": 3447,
      "需要注意的是": 3448,
      "淋巴结转移": 3449,
      "血管壁": 3450,
      "异常情况": 3451,
      "保持充足": 3452,
      "结肠黏膜": 3453,
      "结肠切除术": 3454,
      "腹部肿块": 3455,
      "肿大的": 3456,
      "可能会压迫": 3457,
      "的治疗方案": 3458,
      "的治疗可以考虑": 3459,
      "脂肪肝": 3460,
      "诊断和治疗": 3461,
      "原因并接受适当治疗": 3462,
      "患者应避免食用": 3463,
      "有助于促进": 3464,
      "有助于改善": 3465,
      "持续存在": 3466,
      "过度增殖": 3467,
      "产生压迫": 3468,
      "淋巴结肿大的现象": 3469,
      "以评估病情": 3470,
      "所致的": 3471,
      "消化系统": 3472,
      "控制感染": 3473,
      "肝脏负担": 3474,
      "建议定期监测": 3475,
      "一定程度": 3476,
      "腹股沟疝气": 3477,
      "下肢静脉曲张": 3478,
      "等疾病的表现": 3479,
      "巨球蛋白血症是一种": 3480,
      "异常增生的": 3481,
      "细菌感染引起": 3482,
      "上述提及": 3483,
      "辛辣刺激性的食物": 3484,
      "恶变风险": 3485,
      "乳头溢液": 3486,
      "常用药物包括": 3487,
      "术后患者应遵循医嘱": 3488,
      "致病菌": 3489,
      "反复发作": 3490,
      "冷冻治疗": 3491,
      "因个体差异而异": 3492,
      "不当": 3493,
      "严格": 3494,
      "为了": 3495,
      "传播": 3496,
      "但是": 3497,
      "体外": 3498,
      "信号": 3499,
      "克罗": 3500,
      "关重要": 3501,
      "制剂": 3502,
      "卵管": 3503,
      "受压": 3504,
      "受影响": 3505,
      "吻合": 3506,
      "坚硬": 3507,
      "多由": 3508,
      "如均衡饮食": 3509,
      "如青霉素": 3510,
      "子宫": 3511,
      "密度": 3512,
      "小板": 3513,
      "就会出现": 3514,
      "常伴随": 3515,
      "恩病": 3516,
      "或多": 3517,
      "排尿": 3518,
      "排气": 3519,
      "柔软": 3520,
      "比如": 3521,
      "沙星": 3522,
      "流入": 3523,
      "消炎": 3524,
      "消肿": 3525,
      "消退": 3526,
      "温度": 3527,
      "滤泡": 3528,
      "烟雾": 3529,
      "片等药物": 3530,
      "病史": 3531,
      "等综合": 3532,
      "精确": 3533,
      "维生素": 3534,
      "缺氧": 3535,
      "网膜": 3536,
      "而发生": 3537,
      "肉瘤": 3538,
      "肠壁": 3539,
      "肠息肉": 3540,
      "肥大": 3541,
      "肺动脉": 3542,
      "脾肿大": 3543,
      "至关重要": 3544,
      "范围": 3545,
      "草药": 3546,
      "血小板": 3547,
      "输卵管": 3548,
      "边缘": 3549,
      "还会": 3550,
      "通畅": 3551,
      "通道": 3552,
      "重症": 3553,
      "闭合": 3554,
      "需谨慎": 3555,
      "可能引起": 3556,
      "甲状腺炎": 3557,
      "甲状腺细胞": 3558,
      "组织结构": 3559,
      "肛门局部": 3560,
      "肛门区域": 3561,
      "肿瘤大小": 3562,
      "避免长时间": 3563,
      "炎症和": 3564,
      "对于无": 3565,
      "医生会": 3566,
      "严重并发症": 3567,
      "可能会引起": 3568,
      "以及血液": 3569,
      "直肠息肉": 3570,
      "会导致局部": 3571,
      "恶性的": 3572,
      "腹腔感染": 3573,
      "其他部位": 3574,
      "定期复查以监测病情变化": 3575,
      "胆管癌": 3576,
      "持续性的": 3577,
      "保持良好的排便习惯": 3578,
      "过度增生": 3579,
      "是否需要": 3580,
      "相关症状": 3581,
      "颅内出血": 3582,
      "垂体腺瘤": 3583,
      "受到刺激": 3584,
      "下肢静脉": 3585,
      "较小的": 3586,
      "内痔引起的": 3587,
      "放射至": 3588,
      "常用的": 3589,
      "调节内分泌": 3590,
      "部分或": 3591,
      "同时注意休息": 3592,
      "以便及时发现病情变化": 3593,
      "开放式": 3594,
      "常用药物有": 3595,
      "雌激素水平过高": 3596,
      "自身免疫性疾病": 3597,
      "医生的意见": 3598,
      "下腹压痛": 3599,
      "异物感": 3600,
      "混合血管瘤": 3601,
      "皮脂腺囊肿": 3602,
      "浆细胞恶性增殖性疾病": 3603,
      "克罗恩病": 3604,
      "3个月": 3605,
      "下端": 3606,
      "丙硫": 3607,
      "供应": 3608,
      "光动力": 3609,
      "其生长": 3610,
      "减弱": 3611,
      "利多": 3612,
      "力量": 3613,
      "变硬": 3614,
      "可采取": 3615,
      "右上腹部": 3616,
      "吡啶": 3617,
      "在诊断": 3618,
      "外用": 3619,
      "头晕": 3620,
      "如有": 3621,
      "巯咪唑": 3622,
      "平滑": 3623,
      "往往": 3624,
      "心理": 3625,
      "患有": 3626,
      "所有": 3627,
      "支架": 3628,
      "柳氮": 3629,
      "样本": 3630,
      "概率": 3631,
      "此手术": 3632,
      "氧嘧啶": 3633,
      "状线": 3634,
      "甲亢": 3635,
      "甲巯咪唑": 3636,
      "的正常": 3637,
      "的大便": 3638,
      "的重要": 3639,
      "的区别": 3640,
      "磺吡啶": 3641,
      "管腔": 3642,
      "红素": 3643,
      "细针": 3644,
      "老年": 3645,
      "而言": 3646,
      "而出现": 3647,
      "胆道": 3648,
      "胆红素": 3649,
      "腹外": 3650,
      "腿部": 3651,
      "衰竭": 3652,
      "裂孔": 3653,
      "过量": 3654,
      "还可": 3655,
      "镇痛": 3656,
      "需密切监测": 3657,
      "食道": 3658,
      "验室": 3659,
      "齿状线": 3660,
      "可能影响": 3661,
      "患者可能": 3662,
      "手术干预": 3663,
      "疼痛或": 3664,
      "感染或": 3665,
      "淋巴囊肿": 3666,
      "通常取决于": 3667,
      "肿瘤组织": 3668,
      "功能减退": 3669,
      "淋巴结出现": 3670,
      "结节增大": 3671,
      "腹部疼痛": 3672,
      "从而形成": 3673,
      "如果不": 3674,
      "恶性转化": 3675,
      "脂肪肉瘤": 3676,
      "免疫球蛋白": 3677,
      "患者应保持良好的生活习惯": 3678,
      "专业评估和治疗": 3679,
      "预防感染": 3680,
      "胆囊切除术": 3681,
      "较大或": 3682,
      "以免加重不适症状": 3683,
      "可以考虑使用": 3684,
      "需根据具体病因进行针对性治疗": 3685,
      "无法正常": 3686,
      "利用高": 3687,
      "乳腺组织增生": 3688,
      "先天发育异常": 3689,
      "影像学": 3690,
      "心脏瓣膜": 3691,
      "的治疗方法包括": 3692,
      "甲状腺激素替代疗法": 3693,
      "的变化情况": 3694,
      "复杂性": 3695,
      "针灸疗法": 3696,
      "可用于缓解": 3697,
      "以便及时发现并处理": 3698,
      "氢化可的松乳膏": 3699,
      "此方法适用于": 3700,
      "特殊处理": 3701,
      "颈动脉斑块": 3702,
      "患者可能会感到": 3703,
      "等原因导致": 3704,
      "腹膜后脂肪瘤": 3705,
      "合理饮食": 3706,
      "以排除其他": 3707,
      "纵隔囊肿": 3708,
      "以确定具体原因并接受适当治疗": 3709,
      "远处转移": 3710,
      "丰富的": 3711,
      "射频消融": 3712,
      "氨基水杨酸类药物": 3713,
      "基础疾病": 3714,
      "巨球蛋白血症是一种浆细胞恶性增殖性疾病": 3715,
      "丙硫氧嘧啶": 3716,
      "光动力疗法": 3717,
      "利多卡因": 3718,
      "平滑肌": 3719,
      "柳氮磺吡啶": 3720,
      "DN": 3721,
      "一次": 3722,
      "下进行": 3723,
      "不一": 3724,
      "中耳": 3725,
      "于患处": 3726,
      "交叉": 3727,
      "但并": 3728,
      "列腺": 3729,
      "前列腺": 3730,
      "医院": 3731,
      "发病": 3732,
      "受体": 3733,
      "呕血": 3734,
      "周期": 3735,
      "和位置": 3736,
      "回声": 3737,
      "回盲": 3738,
      "团块": 3739,
      "固体": 3740,
      "完整": 3741,
      "实施": 3742,
      "实验室": 3743,
      "寄生": 3744,
      "小叶": 3745,
      "局限": 3746,
      "并促进": 3747,
      "并采取": 3748,
      "并遵循医嘱": 3749,
      "延误": 3750,
      "弹力": 3751,
      "性肝硬化": 3752,
      "性肉芽肿": 3753,
      "恶化": 3754,
      "执行": 3755,
      "扩大": 3756,
      "抽取": 3757,
      "拉唑": 3758,
      "旁腺": 3759,
      "旋切术": 3760,
      "既往": 3761,
      "是关键": 3762,
      "有益": 3763,
      "有一定的": 3764,
      "本品": 3765,
      "机制": 3766,
      "条件": 3767,
      "栓塞": 3768,
      "止痒": 3769,
      "比例": 3770,
      "气血": 3771,
      "浅表": 3772,
      "消耗": 3773,
      "清创": 3774,
      "畸形": 3775,
      "病例": 3776,
      "的异常": 3777,
      "的恢复": 3778,
      "的炎症反应": 3779,
      "的恶性肿瘤": 3780,
      "破损": 3781,
      "碘元素": 3782,
      "粘连": 3783,
      "紫菜": 3784,
      "红细胞": 3785,
      "继发": 3786,
      "肠管": 3787,
      "肠腔": 3788,
      "脐部": 3789,
      "脑干": 3790,
      "脱落": 3791,
      "至数": 3792,
      "行为": 3793,
      "软化": 3794,
      "较差": 3795,
      "较长": 3796,
      "辣椒": 3797,
      "还需": 3798,
      "通路": 3799,
      "酸酯": 3800,
      "醋酸": 3801,
      "释放": 3802,
      "钝痛": 3803,
      "门诊": 3804,
      "阵发性": 3805,
      "顺利": 3806,
      "骨髓": 3807,
      "可能发生在": 3808,
      "症状的": 3809,
      "导致淋巴结肿大": 3810,
      "手术时间": 3811,
      "甲状旁腺": 3812,
      "组织损伤": 3813,
      "肛门外": 3814,
      "通过使用": 3815,
      "通常会": 3816,
      "通常包括": 3817,
      "肿瘤生长": 3818,
      "功能异常": 3819,
      "功能受损": 3820,
      "功能不全": 3821,
      "使用时": 3822,
      "定期体检": 3823,
      "腹部膨": 3824,
      "激素替代疗法": 3825,
      "从而出现": 3826,
      "肿大小": 3827,
      "可能会对": 3828,
      "加重病情": 3829,
      "促进血液循环": 3830,
      "腹腔脓肿": 3831,
      "超声心动": 3832,
      "手术切除病变组织": 3833,
      "保持良好的饮食习惯": 3834,
      "结核性腹膜炎": 3835,
      "抗生素类药物": 3836,
      "的发生和": 3837,
      "乳房胀痛": 3838,
      "等药物缓解不适症状": 3839,
      "健康的": 3840,
      "消化吸收": 3841,
      "阑尾切除术": 3842,
      "相关疾病": 3843,
      "以减少对": 3844,
      "注射硬化剂": 3845,
      "急性期": 3846,
      "一般不": 3847,
      "下肢深静脉": 3848,
      "活动度": 3849,
      "肛瘘手术": 3850,
      "以确保": 3851,
      "微创旋切术": 3852,
      "建议进行超声波检查以评估": 3853,
      "痔核脱出": 3854,
      "食管癌": 3855,
      "睡眠时间": 3856,
      "血栓性": 3857,
      "日常生活中注意": 3858,
      "切口疝": 3859,
      "生活方式调整": 3860,
      "的主要方法": 3861,
      "视力障碍": 3862,
      "摩擦和刺激": 3863,
      "适量运动和": 3864,
      "根治性": 3865,
      "适用于轻度至中度": 3866,
      "幽门螺杆菌感染": 3867,
      "肠溶片": 3868,
      "肠溶片等": 3869,
      "胰腺癌": 3870,
      "较高的": 3871,
      "是主要手段": 3872,
      "充足的睡眠时间": 3873,
      "甲状腺素钠片": 3874,
      "精索静脉曲张": 3875,
      "血液回流受阻": 3876,
      "缓释胶囊": 3877,
      "CT扫描或MRI": 3878,
      "有什么症状": 3879,
      "解剖结构": 3880,
      "特定波长的": 3881,
      "保持充足休息": 3882,
      "腹外疝": 3883,
      "DNA": 3884,
      "回盲部": 3885,
      "延误病情": 3886,
      "超声心动图": 3887,
      "0分钟": 3888,
      "2周": 3889,
      "一系": 3890,
      "且伴有": 3891,
      "中含有": 3892,
      "中草药": 3893,
      "久站": 3894,
      "乙酰": 3895,
      "也会": 3896,
      "以上": 3897,
      "会使得": 3898,
      "低下": 3899,
      "信息": 3900,
      "全部": 3901,
      "内服": 3902,
      "减压": 3903,
      "减慢": 3904,
      "凝血": 3905,
      "判断": 3906,
      "利尿": 3907,
      "动静脉": 3908,
      "单抗": 3909,
      "危害": 3910,
      "发挥": 3911,
      "变得": 3912,
      "和处理": 3913,
      "和适量运动": 3914,
      "咳痰": 3915,
      "喷射": 3916,
      "固醇": 3917,
      "在处理": 3918,
      "坠胀": 3919,
      "大腿": 3920,
      "失衡": 3921,
      "头颅": 3922,
      "套扎": 3923,
      "如头孢曲松钠": 3924,
      "对乙酰": 3925,
      "尤为明显": 3926,
      "左右": 3927,
      "并注意": 3928,
      "开始": 3929,
      "开腹": 3930,
      "引导": 3931,
      "当其": 3932,
      "当发生": 3933,
      "形态": 3934,
      "微生物": 3935,
      "心态": 3936,
      "性肠": 3937,
      "情绪": 3938,
      "或感染": 3939,
      "或CT扫描": 3940,
      "抗凝": 3941,
      "抗血小板": 3942,
      "损害": 3943,
      "整个": 3944,
      "方面": 3945,
      "无论": 3946,
      "是必要的": 3947,
      "暴食": 3948,
      "暴饮": 3949,
      "泌尿": 3950,
      "浓度": 3951,
      "浸润": 3952,
      "湿疹": 3953,
      "激活": 3954,
      "电子": 3955,
      "疙瘩": 3956,
      "痊愈": 3957,
      "痰液": 3958,
      "癌变": 3959,
      "的程度": 3960,
      "的相关症状": 3961,
      "禁食": 3962,
      "站立": 3963,
      "缺陷": 3964,
      "聚集": 3965,
      "肚脐": 3966,
      "胃酸": 3967,
      "脑囊肿": 3968,
      "至少": 3969,
      "良好": 3970,
      "莫司": 3971,
      "萎缩": 3972,
      "视觉": 3973,
      "视交叉": 3974,
      "触摸": 3975,
      "较轻": 3976,
      "过速": 3977,
      "还应注意": 3978,
      "防御": 3979,
      "降脂": 3980,
      "高纤维": 3981,
      "治疗前": 3982,
      "进行超声波检查": 3983,
      "甲状腺腺瘤": 3984,
      "甲状腺发炎": 3985,
      "肛门有": 3986,
      "淋巴管": 3987,
      "血管内": 3988,
      "保持肛周": 3989,
      "从而影响": 3990,
      "可能会刺激": 3991,
      "可能会影响": 3992,
      "可能导致局部": 3993,
      "促进局部血液循环": 3994,
      "术后恢复时间": 3995,
      "压迫到": 3996,
      "肠道黏膜": 3997,
      "患者应注意": 3998,
      "定期复查即可": 3999,
      "手术切除肿瘤": 4000,
      "中药熏洗": 4001,
      "以便进行": 4002,
      "剧烈疼痛": 4003,
      "摄入过多": 4004,
      "良性的": 4005,
      "相关问题": 4006,
      "肝脏移植": 4007,
      "颅内压力": 4008,
      "发展成": 4009,
      "明显症状": 4010,
      "激光疗法": 4011,
      "等方法来": 4012,
      "腹股沟斜疝": 4013,
      "活动后": 4014,
      "不良反应": 4015,
      "伤口愈合和": 4016,
      "密切监测病情变化": 4017,
      "非甾体抗炎药如布洛芬": 4018,
      "造成的": 4019,
      "通常在1": 4020,
      "细菌感染引起的": 4021,
      "如果患者存在": 4022,
      "腹腔内的": 4023,
      "或伴有其他": 4024,
      "建议定期进行肛门指诊": 4025,
      "不同的": 4026,
      "脑脊液循环": 4027,
      "以减轻症状": 4028,
      "开放性": 4029,
      "内容物通过": 4030,
      "持续性或": 4031,
      "可以进行超声波检查": 4032,
      "功效的中药": 4033,
      "久坐久站": 4034,
      "氨基酚": 4035,
      "邻近的": 4036,
      "等因素有关": 4037,
      "家族史的人群": 4038,
      "保证充足的睡眠时间": 4039,
      "心动过速": 4040,
      "乳腺囊性增生症": 4041,
      "头孢菌素类": 4042,
      "术后恢复期": 4043,
      "刺痛感": 4044,
      "保守治疗无效": 4045,
      "油腻食物": 4046,
      "用力排便": 4047,
      "建议定期自我检查": 4048,
      "医学科": 4049,
      "肛垫下移": 4050,
      "哺乳期": 4051,
      "子宫内膜": 4052,
      "消肿止痛": 4053,
      "烟雾病": 4054,
      "部分或全部": 4055,
      "裂孔疝": 4056,
      "性肉芽肿性血管炎": 4057,
      "软化大便": 4058,
      "腹部膨隆": 4059,
      "特定波长的激光": 4060,
      "一系列": 4061,
      "对乙酰氨基酚": 4062,
      "暴饮暴食": 4063,
      "6周": 4064,
      "上腹": 4065,
      "下坠": 4066,
      "不稳": 4067,
      "不等": 4068,
      "乙状": 4069,
      "人体": 4070,
      "代偿": 4071,
      "以降低": 4072,
      "以达到": 4073,
      "体力": 4074,
      "体质": 4075,
      "共同": 4076,
      "共济": 4077,
      "关节": 4078,
      "内镜": 4079,
      "剥脱": 4080,
      "加速": 4081,
      "协调": 4082,
      "单纯": 4083,
      "去顶": 4084,
      "后天": 4085,
      "后的": 4086,
      "告知": 4087,
      "和神经": 4088,
      "哪些": 4089,
      "固性": 4090,
      "圆形": 4091,
      "在治疗": 4092,
      "在接受": 4093,
      "均匀": 4094,
      "外周": 4095,
      "够的": 4096,
      "如辣椒": 4097,
      "妊娠": 4098,
      "孕激素": 4099,
      "孩子": 4100,
      "左氧": 4101,
      "常用于": 4102,
      "并预防": 4103,
      "广泛": 4104,
      "应立即就医": 4105,
      "开颅": 4106,
      "微小": 4107,
      "性增加": 4108,
      "性肝脓肿": 4109,
      "患儿": 4110,
      "扭转": 4111,
      "拆线": 4112,
      "挂线": 4113,
      "推荐": 4114,
      "提肛": 4115,
      "收敛": 4116,
      "新陈": 4117,
      "时会": 4118,
      "月经": 4119,
      "有较好的": 4120,
      "有哪些": 4121,
      "末端": 4122,
      "杉醇": 4123,
      "根部": 4124,
      "氟沙星": 4125,
      "氧化": 4126,
      "流动": 4127,
      "测试": 4128,
      "液体积聚": 4129,
      "溃烂": 4130,
      "烟草": 4131,
      "烧伤": 4132,
      "热痛": 4133,
      "牙龈": 4134,
      "球囊": 4135,
      "甲减": 4136,
      "电解": 4137,
      "疑似": 4138,
      "的手术": 4139,
      "的息肉": 4140,
      "的静脉": 4141,
      "的位置": 4142,
      "盆底": 4143,
      "碘缺乏": 4144,
      "禁用": 4145,
      "简单": 4146,
      "紫杉醇": 4147,
      "继发性": 4148,
      "而引起": 4149,
      "而形成": 4150,
      "而加剧": 4151,
      "耳后": 4152,
      "胚胎": 4153,
      "脑组织": 4154,
      "脑水肿": 4155,
      "腹压": 4156,
      "良恶性": 4157,
      "草酸": 4158,
      "获取": 4159,
      "菜酸酯": 4160,
      "血清": 4161,
      "血常规": 4162,
      "视野": 4163,
      "角菜酸酯": 4164,
      "触及": 4165,
      "触诊": 4166,
      "该疾病": 4167,
      "起源于": 4168,
      "足够的": 4169,
      "迹象": 4170,
      "阶段": 4171,
      "附件": 4172,
      "隆起": 4173,
      "频繁": 4174,
      "治疗手段": 4175,
      "可能呈": 4176,
      "可能在": 4177,
      "可能由": 4178,
      "导致其": 4179,
      "进行评估": 4180,
      "进行缓解": 4181,
      "甲状腺肿": 4182,
      "肛门胀": 4183,
      "肛门胀痛": 4184,
      "通过血液循环": 4185,
      "通过口服": 4186,
      "淋巴组织": 4187,
      "乳腺疾病": 4188,
      "避免吸烟": 4189,
      "避免辛辣刺激性食物": 4190,
      "病情加重": 4191,
      "增生和": 4192,
      "主要表现为": 4193,
      "主要是由于": 4194,
      "医生可能会": 4195,
      "激素分泌": 4196,
      "激素疗法": 4197,
      "从而诱发": 4198,
      "血液供应": 4199,
      "周围神经": 4200,
      "如果出现": 4201,
      "缓解疼痛": 4202,
      "这些异常": 4203,
      "以及是否有": 4204,
      "神经功能障碍": 4205,
      "肠道菌群": 4206,
      "以免引起": 4207,
      "以免延误病情": 4208,
      "发现异常": 4209,
      "长期使用": 4210,
      "产生的": 4211,
      "产生大量": 4212,
      "损伤和": 4213,
      "怎么引起的": 4214,
      "的发生可能与": 4215,
      "伴随有": 4216,
      "伴随着": 4217,
      "部位的": 4218,
      "伤口护理": 4219,
      "患者的整体健康状况": 4220,
      "溃疡面": 4221,
      "血液循环受阻": 4222,
      "适当的诊断和治疗": 4223,
      "是由于体内": 4224,
      "受到炎症刺激": 4225,
      "休息时间": 4226,
      "具有一定的": 4227,
      "狭窄或": 4228,
      "避免食用辛辣刺激性食物": 4229,
      "这种疼痛": 4230,
      "常见的治疗方法": 4231,
      "轻度至中度": 4232,
      "CT扫描等": 4233,
      "利用特定波长的激光": 4234,
      "伤口愈合情况": 4235,
      "刺激性食物": 4236,
      "上腹部不适": 4237,
      "过敏者": 4238,
      "多种因素": 4239,
      "多种原因": 4240,
      "全身状况": 4241,
      "放疗或": 4242,
      "腹泻等": 4243,
      "逐渐增大": 4244,
      "切开术": 4245,
      "建议定期进行体检": 4246,
      "内镜下切除术": 4247,
      "此方法适合": 4248,
      "胃肠减压": 4249,
      "颜色改变": 4250,
      "注射液等": 4251,
      "典型表现为": 4252,
      "幽门螺杆菌": 4253,
      "抗结核治疗": 4254,
      "缓慢且": 4255,
      "恶心呕吐等症状": 4256,
      "阿莫西林克拉维酸钾等": 4257,
      "保证充足睡眠": 4258,
      "内膜剥脱": 4259,
      "富含膳食纤维": 4260,
      "患者平时应注意": 4261,
      "水分摄入": 4262,
      "潜在的问题": 4263,
      "结核分枝杆菌感染后": 4264,
      "血糖水平": 4265,
      "手术切除是治疗": 4266,
      "复方角菜酸酯": 4267,
      "胶质瘤": 4268,
      "遵照医生的意见": 4269,
      "间歇性": 4270,
      "排尿困难": 4271,
      "中耳炎": 4272,
      "寄生虫": 4273,
      "清创术": 4274,
      "乙状结肠": 4275,
      "共同作用": 4276,
      "共济失调": 4277,
      "去顶术": 4278,
      "左氧氟沙星": 4279,
      "提肛运动": 4280,
      "新陈代谢": 4281,
      "电解质": 4282,
      "复方角菜酸酯乳膏": 4283,
      "三级": 4284,
      "下疝": 4285,
      "且位置": 4286,
      "丧失": 4287,
      "为良性": 4288,
      "主动脉瘤": 4289,
      "也有": 4290,
      "乳汁": 4291,
      "乳突": 4292,
      "他汀": 4293,
      "会增加": 4294,
      "作用于": 4295,
      "促使": 4296,
      "兴奋": 4297,
      "内窥": 4298,
      "则会导致": 4299,
      "加强": 4300,
      "占位": 4301,
      "厘米": 4302,
      "可减少": 4303,
      "含碘": 4304,
      "含量": 4305,
      "和其他": 4306,
      "囊肿大小": 4307,
      "图像": 4308,
      "在于": 4309,
      "在肠道": 4310,
      "坏疽": 4311,
      "堆积": 4312,
      "处的": 4313,
      "多囊": 4314,
      "夜间": 4315,
      "失去": 4316,
      "如经皮": 4317,
      "子泵": 4318,
      "实质": 4319,
      "对抗": 4320,
      "射线": 4321,
      "小细胞": 4322,
      "已知": 4323,
      "应及时": 4324,
      "度增加": 4325,
      "弥漫": 4326,
      "性结节": 4327,
      "性甲状腺肿": 4328,
      "慎用": 4329,
      "抗体": 4330,
      "按医嘱": 4331,
      "搔抓": 4332,
      "无力": 4333,
      "时使用": 4334,
      "是治疗": 4335,
      "是利用": 4336,
      "本身": 4337,
      "标准": 4338,
      "正确": 4339,
      "残渣": 4340,
      "每年": 4341,
      "氧气": 4342,
      "沉积": 4343,
      "活化": 4344,
      "流术": 4345,
      "浊音": 4346,
      "温水": 4347,
      "照射": 4348,
      "燕麦": 4349,
      "牵拉": 4350,
      "男性": 4351,
      "的形成": 4352,
      "的严重": 4353,
      "的存在": 4354,
      "的早期症状": 4355,
      "短期": 4356,
      "移位": 4357,
      "空气": 4358,
      "穿着": 4359,
      "纠正": 4360,
      "经常": 4361,
      "经过": 4362,
      "经验": 4363,
      "给予": 4364,
      "继续": 4365,
      "肉疙瘩": 4366,
      "肝细胞": 4367,
      "肝出血": 4368,
      "肾功能": 4369,
      "胃溃疡": 4370,
      "胸片": 4371,
      "脑袋": 4372,
      "脖子": 4373,
      "腹压增高": 4374,
      "膈肌": 4375,
      "膜瘤": 4376,
      "苍白": 4377,
      "蛛网膜": 4378,
      "血化": 4379,
      "血肿": 4380,
      "裂开": 4381,
      "负荷": 4382,
      "质子泵": 4383,
      "超过": 4384,
      "足部": 4385,
      "还可能": 4386,
      "这是因为": 4387,
      "送至": 4388,
      "逍遥": 4389,
      "透明": 4390,
      "途径": 4391,
      "通透": 4392,
      "阴囊": 4393,
      "阻碍": 4394,
      "限制": 4395,
      "需由专业": 4396,
      "非常": 4397,
      "颅底": 4398,
      "高盐": 4399,
      "可能存在": 4400,
      "可能源于": 4401,
      "患者由于": 4402,
      "甲状腺滤泡": 4403,
      "肛门狭窄": 4404,
      "感染的": 4405,
      "通常是": 4406,
      "通常可以": 4407,
      "通常不需要": 4408,
      "发生改变": 4409,
      "肿瘤引起的": 4410,
      "肿瘤切除术": 4411,
      "可以遵医嘱使用": 4412,
      "炎症性疾病": 4413,
      "及时治疗": 4414,
      "使用具有清热解毒": 4415,
      "对于某些": 4416,
      "细胞瘤": 4417,
      "血管破裂": 4418,
      "结节性质": 4419,
      "局部红肿": 4420,
      "主要包括": 4421,
      "影响了": 4422,
      "出血等症状": 4423,
      "从而导致": 4424,
      "从而增加": 4425,
      "食物残渣": 4426,
      "如果这些症状": 4427,
      "神经纤维瘤": 4428,
      "囊肿增大": 4429,
      "促进愈合": 4430,
      "增加膳食纤维": 4431,
      "腹腔穿刺引流": 4432,
      "免疫治疗": 4433,
      "免疫功能": 4434,
      "患者应避免剧烈运动": 4435,
      "并发症风险": 4436,
      "并发症的发生": 4437,
      "手术切除的方式": 4438,
      "呕吐中枢": 4439,
      "产生一定的": 4440,
      "以便监测病情变化": 4441,
      "以便进行针对性治疗": 4442,
      "的发生风险": 4443,
      "蛋白质": 4444,
      "生长速度": 4445,
      "剧烈的": 4446,
      "肺癌肺": 4447,
      "控制病情发展": 4448,
      "可能出现在": 4449,
      "较大或者": 4450,
      "激光束": 4451,
      "进一步的": 4452,
      "进一步检查": 4453,
      "转移性": 4454,
      "急性阑尾炎": 4455,
      "急性化脓性": 4456,
      "抗生素治疗是主要手段": 4457,
      "取决于其": 4458,
      "避免食用辛辣刺激性的食物": 4459,
      "这种不适": 4460,
      "腹股沟淋巴结": 4461,
      "淋巴结炎治疗": 4462,
      "激素水平变化": 4463,
      "放射性": 4464,
      "不良生活习惯": 4465,
      "乳腺组织过度生长": 4466,
      "血栓外痔": 4467,
      "颈部淋巴结": 4468,
      "通常在2": 4469,
      "基因检测": 4470,
      "复杂的": 4471,
      "如果患者有": 4472,
      "排出体外": 4473,
      "治愈率": 4474,
      "过多的": 4475,
      "环境中": 4476,
      "上述症状": 4477,
      "乳腺结节三级": 4478,
      "腹内压增高": 4479,
      "严重的并发症": 4480,
      "还要注意": 4481,
      "切开引流": 4482,
      "食欲亢进": 4483,
      "颈动脉支架": 4484,
      "颈动脉内膜剥脱": 4485,
      "直肠黏膜脱垂": 4486,
      "腹腔镜下阑尾切除术": 4487,
      "通常由细菌感染引起": 4488,
      "根治术": 4489,
      "多久能": 4490,
      "功效的中草药": 4491,
      "的时间因人而异": 4492,
      "移动性": 4493,
      "充血水肿": 4494,
      "化学药物": 4495,
      "化学物质": 4496,
      "以便早期发现并处理": 4497,
      "X线摄": 4498,
      "侵袭性": 4499,
      "能量激光束": 4500,
      "反复出血": 4501,
      "可考虑使用": 4502,
      "糖尿病等": 4503,
      "医师指导下进行": 4504,
      "压迫周围结构": 4505,
      "十二指肠": 4506,
      "扁桃体下疝": 4507,
      "但也有": 4508,
      "卵巢囊肿": 4509,
      "小脑扁桃体下疝": 4510,
      "各种原因": 4511,
      "心血管疾病": 4512,
      "脑外伤后": 4513,
      "单克隆IgM": 4514,
      "比较严重": 4515,
      "一定程度时": 4516,
      "精确地": 4517,
      "细针穿刺活检": 4518,
      "继发感染": 4519,
      "可能发生在任何": 4520,
      "血栓性外痔": 4521,
      "利尿剂": 4522,
      "抗血小板治疗": 4523,
      "建议定期进行肛门指诊和": 4524,
      "告知医生": 4525,
      "孕激素比例": 4526,
      "视野缺损": 4527,
      "附件炎": 4528,
      "小细胞肺癌": 4529,
      "质子泵抑制剂": 4530,
      "cm": 4531,
      "一侧": 4532,
      "一段": 4533,
      "不要": 4534,
      "不规": 4535,
      "不缓解": 4536,
      "两侧": 4537,
      "中央": 4538,
      "中成": 4539,
      "乳癖": 4540,
      "仍需": 4541,
      "以下": 4542,
      "以控制": 4543,
      "低密度": 4544,
      "体征": 4545,
      "内脏": 4546,
      "内放射治疗": 4547,
      "分散": 4548,
      "分流术": 4549,
      "则不": 4550,
      "则可能导致": 4551,
      "利胆": 4552,
      "前庭": 4553,
      "动作": 4554,
      "匹林": 4555,
      "升主动脉瘤": 4556,
      "去氧": 4557,
      "及生命": 4558,
      "双侧": 4559,
      "反馈": 4560,
      "取石": 4561,
      "受累": 4562,
      "可表现为": 4563,
      "可辅助": 4564,
      "司匹林": 4565,
      "后果": 4566,
      "吸入": 4567,
      "咯血": 4568,
      "哪种": 4569,
      "喉部": 4570,
      "喉血管瘤": 4571,
      "嗳气": 4572,
      "在进行": 4573,
      "在某些": 4574,
      "在局部麻醉": 4575,
      "声带": 4576,
      "失眠": 4577,
      "如何": 4578,
      "如感染": 4579,
      "如使用": 4580,
      "小溃疡": 4581,
      "小切口": 4582,
      "少量": 4583,
      "尽量": 4584,
      "尿道": 4585,
      "工作": 4586,
      "左侧": 4587,
      "左旋": 4588,
      "并伴有": 4589,
      "并遵循": 4590,
      "异位": 4591,
      "微腺瘤": 4592,
      "性皮肤": 4593,
      "性肿块": 4594,
      "成熟": 4595,
      "或有": 4596,
      "或复发": 4597,
      "或加剧": 4598,
      "所导致的": 4599,
      "抗菌": 4600,
      "按压": 4601,
      "挤压": 4602,
      "挫伤": 4603,
      "提示": 4604,
      "摄取": 4605,
      "攻击": 4606,
      "旁疝": 4607,
      "是非常": 4608,
      "替尼": 4609,
      "有肿块": 4610,
      "有较高的": 4611,
      "枕部": 4612,
      "每次": 4613,
      "水果": 4614,
      "活菌": 4615,
      "活血化": 4616,
      "海鲜": 4617,
      "消失": 4618,
      "潴留": 4619,
      "然后": 4620,
      "特点": 4621,
      "环素": 4622,
      "球菌": 4623,
      "生存": 4624,
      "疗效": 4625,
      "疝修补术": 4626,
      "瘤体": 4627,
      "白血": 4628,
      "的药物": 4629,
      "的不适感": 4630,
      "的恢复时间": 4631,
      "的过程中": 4632,
      "禁忌": 4633,
      "空腹": 4634,
      "筛查": 4635,
      "糜烂": 4636,
      "经腹": 4637,
      "缝合": 4638,
      "而加重": 4639,
      "而引发": 4640,
      "而脱肛": 4641,
      "联活菌": 4642,
      "肋骨下": 4643,
      "肛乳头": 4644,
      "肝血管瘤": 4645,
      "肿物": 4646,
      "胃底": 4647,
      "胃息肉": 4648,
      "胃食管": 4649,
      "胆酸": 4650,
      "胸闷": 4651,
      "胸骨": 4652,
      "脓液": 4653,
      "腋窝": 4654,
      "腔内": 4655,
      "腰疝气": 4656,
      "苯达": 4657,
      "血丝": 4658,
      "视下": 4659,
      "该手术": 4660,
      "赘生物": 4661,
      "较强": 4662,
      "过于": 4663,
      "还可能导致": 4664,
      "还可能伴随": 4665,
      "这会导致": 4666,
      "适宜": 4667,
      "选用": 4668,
      "锁骨下": 4669,
      "镜检": 4670,
      "阿昔洛韦": 4671,
      "阿司匹林": 4672,
      "限酒": 4673,
      "随访": 4674,
      "隔腔": 4675,
      "难度": 4676,
      "需监测": 4677,
      "非小细胞肺癌": 4678,
      "面部": 4679,
      "频率": 4680,
      "首选": 4681,
      "香蕉": 4682,
      "黄色": 4683,
      "可能位于": 4684,
      "患者在": 4685,
      "患者整体健康状况": 4686,
      "导致血液": 4687,
      "导致颅内压增高": 4688,
      "导致局部组织": 4689,
      "引起局部": 4690,
      "组织发生": 4691,
      "建议关注": 4692,
      "疼痛的症状": 4693,
      "疼痛的情况": 4694,
      "疼痛可能是由": 4695,
      "疼痛是什么原因": 4696,
      "药物副作用": 4697,
      "肛门溃烂": 4698,
      "通过高": 4699,
      "通过外科手术": 4700,
      "通过抽取": 4701,
      "感染引起": 4702,
      "感染扩散": 4703,
      "淋巴系统": 4704,
      "针对慢性": 4705,
      "可以抑制": 4706,
      "避免暴饮暴食": 4707,
      "炎症时": 4708,
      "炎症引起的": 4709,
      "疾病状态": 4710,
      "对于表浅": 4711,
      "需要及时就医": 4712,
      "定期观察": 4713,
      "定期自我": 4714,
      "细胞增生": 4715,
      "由于长期便秘": 4716,
      "血管狭窄": 4717,
      "异常组织": 4718,
      "结节性甲状腺肿": 4719,
      "恢复情况": 4720,
      "恢复较快": 4721,
      "保持肛门部位": 4722,
      "出血量": 4723,
      "腹部超声": 4724,
      "腹部按摩": 4725,
      "从而减轻": 4726,
      "从而产生": 4727,
      "从而增加患": 4728,
      "以及是否": 4729,
      "以及是否存在": 4730,
      "神经外科": 4731,
      "息肉电": 4732,
      "饮食方面": 4733,
      "术后管理": 4734,
      "术后需注意": 4735,
      "压迫或": 4736,
      "压迫周围组织": 4737,
      "同时也": 4738,
      "以免诱发": 4739,
      "并发症发生": 4740,
      "胆管狭窄": 4741,
      "系统性": 4742,
      "保持良好的睡眠": 4743,
      "保持良好的心态": 4744,
      "长期存在": 4745,
      "具体取决于": 4746,
      "产生毒素": 4747,
      "抗生素进行抗感染治疗": 4748,
      "身体健康": 4749,
      "动脉硬化": 4750,
      "乳房组织": 4751,
      "根据病情": 4752,
      "水平升高": 4753,
      "水平测定": 4754,
      "患者的全身状况": 4755,
      "消化的食物": 4756,
      "恶心和": 4757,
      "血液循环障碍": 4758,
      "化疗药物": 4759,
      "肝脏变硬": 4760,
      "恶性肿瘤淋巴结转移": 4761,
      "垂体微腺瘤": 4762,
      "进一步评估": 4763,
      "腹壁挫伤": 4764,
      "是由细菌感染引起的": 4765,
      "急性发作": 4766,
      "机体免疫力": 4767,
      "复发风险": 4768,
      "腹股沟淋巴结肿大": 4769,
      "患者可遵医嘱使用": 4770,
      "辛辣食物": 4771,
      "直接移除": 4772,
      "脂肪瘤切除术": 4773,
      "营养不良": 4774,
      "可以考虑采取": 4775,
      "发热等症状": 4776,
      "乳腺增生症": 4777,
      "体内的": 4778,
      "食管黏膜": 4779,
      "心脏动脉瘤": 4780,
      "医师指导": 4781,
      "及时发现并处理": 4782,
      "清洁卫生": 4783,
      "感觉异常": 4784,
      "干燥清洁": 4785,
      "治愈吗": 4786,
      "过多摄入": 4787,
      "轻微的": 4788,
      "避免过度疲劳": 4789,
      "扩散至": 4790,
      "胆汁淤积": 4791,
      "肛门括约肌功能": 4792,
      "肛门括约肌松弛": 4793,
      "家族中": 4794,
      "切开引流术": 4795,
      "完全性": 4796,
      "幽门梗阻": 4797,
      "收缩和": 4798,
      "先天性胆管扩张": 4799,
      "等方式进行治疗": 4800,
      "胃肠蠕动": 4801,
      "恢复正常的": 4802,
      "腹腔镜下囊肿": 4803,
      "辅助治疗手段": 4804,
      "青霉素类": 4805,
      "结核分枝杆菌": 4806,
      "肝内胆管结石": 4807,
      "邻近结构": 4808,
      "特别是在": 4809,
      "在专业医生指导下": 4810,
      "随着病情进展": 4811,
      "阿莫西林克拉维酸钾片": 4812,
      "以便获得适当的诊断和治疗": 4813,
      "医师指导下使用": 4814,
      "肝功能异常": 4815,
      "对于有家族史的人群": 4816,
      "131内放射治疗": 4817,
      "造口旁疝": 4818,
      "小时之间": 4819,
      "脑部血管瘤": 4820,
      "注入到": 4821,
      "突然发生的": 4822,
      "避免接触已知": 4823,
      "戒烟限酒": 4824,
      "输尿管结石": 4825,
      "当患者存在": 4826,
      "非特异性淋巴结炎": 4827,
      "通过抑制细菌": 4828,
      "肿大的淋巴结": 4829,
      "胆道梗阻": 4830,
      "心脏瓣膜病": 4831,
      "的发生和发展": 4832,
      "食管癌晚期": 4833,
      "适量运动和充足睡眠": 4834,
      "动静脉瘘": 4835,
      "发挥作用": 4836,
      "引导下": 4837,
      "保持肛周清洁干燥": 4838,
      "以便进行准确": 4839,
      "代偿性": 4840,
      "牙龈炎": 4841,
      "球囊扩张": 4842,
      "肠道菌群失调": 4843,
      "腹泻等导致": 4844,
      "富含膳食纤维的食物": 4845,
      "内窥镜": 4846,
      "逍遥丸": 4847,
      "透明隔腔": 4848,
      "高盐食物": 4849,
      "增加膳食纤维摄入量": 4850,
      "移动性浊音": 4851,
      "不规则": 4852,
      "中成药": 4853,
      "乳癖消": 4854,
      "去氧胆酸": 4855,
      "活血化瘀": 4856,
      "白血病": 4857,
      "胸骨后": 4858,
      "先天性胆管扩张症": 4859,
      "2厘米": 4860,
      "30分钟": 4861,
      "B超": 4862,
      "at": 4863,
      "hk": 4864,
      "上升": 4865,
      "下颌": 4866,
      "不利于": 4867,
      "也可能是": 4868,
      "人员": 4869,
      "他克": 4870,
      "以明确诊断": 4871,
      "以支持": 4872,
      "会在": 4873,
      "会阴": 4874,
      "但若": 4875,
      "低热": 4876,
      "低钠": 4877,
      "光滑": 4878,
      "全层": 4879,
      "全面": 4880,
      "兵痔": 4881,
      "内科": 4882,
      "内转移": 4883,
      "到一定程度时": 4884,
      "制成": 4885,
      "前叶": 4886,
      "力衰竭": 4887,
      "危及生命": 4888,
      "即使": 4889,
      "原发性": 4890,
      "及是否有": 4891,
      "及可能出现的": 4892,
      "变应": 4893,
      "可用": 4894,
      "可在医生指导下使用": 4895,
      "和扩张": 4896,
      "和营养": 4897,
      "咽部": 4898,
      "哨兵痔": 4899,
      "嗜铬": 4900,
      "基息肉": 4901,
      "增厚": 4902,
      "处方": 4903,
      "多的": 4904,
      "多见": 4905,
      "多发性": 4906,
      "大肠癌": 4907,
      "好吗": 4908,
      "姑息": 4909,
      "孕妇": 4910,
      "宝宝": 4911,
      "对身体": 4912,
      "对本品": 4913,
      "屏障": 4914,
      "嵌顿": 4915,
      "干性": 4916,
      "干结": 4917,
      "并可能": 4918,
      "广基息肉": 4919,
      "应进行": 4920,
      "应确保": 4921,
      "当机体": 4922,
      "微波": 4923,
      "微针": 4924,
      "心力衰竭": 4925,
      "怎样": 4926,
      "性疼痛": 4927,
      "性呕吐": 4928,
      "意味": 4929,
      "意思": 4930,
      "或存在": 4931,
      "或手术切除": 4932,
      "或腹泻": 4933,
      "或更长时间": 4934,
      "所在": 4935,
      "所不同": 4936,
      "换药": 4937,
      "效应": 4938,
      "数周": 4939,
      "数月": 4940,
      "时会导致": 4941,
      "时会引起": 4942,
      "时更为明显": 4943,
      "易发生": 4944,
      "是在": 4945,
      "是影响": 4946,
      "更多的": 4947,
      "末等": 4948,
      "术是一种": 4949,
      "机会": 4950,
      "杀灭": 4951,
      "来说": 4952,
      "来确定": 4953,
      "来调节内分泌": 4954,
      "枕大": 4955,
      "此病": 4956,
      "每日": 4957,
      "气道": 4958,
      "永久": 4959,
      "洗剂": 4960,
      "流出": 4961,
      "深度": 4962,
      "满感": 4963,
      "潮湿": 4964,
      "炉甘": 4965,
      "煎煮": 4966,
      "熊去氧胆酸": 4967,
      "狼疮": 4968,
      "甲硝": 4969,
      "的肿块": 4970,
      "的颜色": 4971,
      "的结果": 4972,
      "的摄入量": 4973,
      "皮层": 4974,
      "盐水": 4975,
      "石洗剂": 4976,
      "等措施": 4977,
      "等治疗措施": 4978,
      "等典型": 4979,
      "而导致": 4980,
      "耳道": 4981,
      "肝胆管扩张": 4982,
      "肝胆管结石": 4983,
      "肝脾肿大": 4984,
      "肠间": 4985,
      "肺功能": 4986,
      "胆石": 4987,
      "脊髓": 4988,
      "脊膜瘤": 4989,
      "脑外": 4990,
      "色素": 4991,
      "芥末等": 4992,
      "药如": 4993,
      "药疗法": 4994,
      "西环素": 4995,
      "要求": 4996,
      "要注意": 4997,
      "解决": 4998,
      "试验": 4999,
      "轻柔": 5000,
      "还需要": 5001,
      "这是由于": 5002,
      "远端": 5003,
      "酸钠": 5004,
      "长了": 5005,
      "除了": 5006,
      "除上述提及": 5007,
      "面积": 5008,
      "鞘瘤": 5009,
      "频电": 5010,
      "高热": 5011,
      "鲜红色": 5012,
      "黏液": 5013,
      "治疗方式": 5014,
      "可能有": 5015,
      "症状加重": 5016,
      "导致肠道": 5017,
      "导致皮肤": 5018,
      "进行手术": 5019,
      "手术风险": 5020,
      "手术复杂": 5021,
      "甲状腺激素水平": 5022,
      "组织学": 5023,
      "肛门疾病": 5024,
      "肛门下坠": 5025,
      "肛门镜检": 5026,
      "出现并发症": 5027,
      "通过小切口": 5028,
      "感染时": 5029,
      "感染引起的": 5030,
      "通常不会": 5031,
      "发生恶变": 5032,
      "肿瘤侵犯": 5033,
      "针对此类": 5034,
      "针对上述症状": 5035,
      "避免便秘": 5036,
      "炎症或": 5037,
      "检查以及": 5038,
      "病情恶化": 5039,
      "形成肿瘤": 5040,
      "结节的": 5041,
      "局部皮肤": 5042,
      "不适或": 5043,
      "恢复速度": 5044,
      "保持健康的": 5045,
      "出血倾向": 5046,
      "腹部超声检查": 5047,
      "如果术后": 5048,
      "进而使": 5049,
      "神经纤维": 5050,
      "神经性血管炎": 5051,
      "神经传导": 5052,
      "囊肿扭转": 5053,
      "的治疗通常采用": 5054,
      "的治疗主要是": 5055,
      "术后需": 5056,
      "脂肪纤维瘤": 5057,
      "脂肪堆积": 5058,
      "免疫细胞": 5059,
      "诊断和": 5060,
      "有助于预防": 5061,
      "结构异常": 5062,
      "建议患者定期复查": 5063,
      "建议患者定期进行": 5064,
      "系统疾病": 5065,
      "长期大量": 5066,
      "长期炎症刺激": 5067,
      "具体时间": 5068,
      "专业医生": 5069,
      "改善症状": 5070,
      "改善饮食习惯": 5071,
      "压力和": 5072,
      "压力增加": 5073,
      "是一种慢性": 5074,
      "是一种有效": 5075,
      "是一种良性肿瘤": 5076,
      "根据个体差异": 5077,
      "患者的身体状况": 5078,
      "肺癌患者": 5079,
      "因此不": 5080,
      "良性结节": 5081,
      "阑尾管腔": 5082,
      "胆囊肿瘤": 5083,
      "此时需要": 5084,
      "调整用药": 5085,
      "调整治疗方案": 5086,
      "垂体前叶": 5087,
      "受损的": 5088,
      "受损区域": 5089,
      "进一步发展为": 5090,
      "以免加重肝脏负担": 5091,
      "转移到": 5092,
      "一般在": 5093,
      "一般不会": 5094,
      "根据具体情况": 5095,
      "观察是否有": 5096,
      "这种不适感": 5097,
      "超声波检查以及血液": 5098,
      "的现象发生": 5099,
      "胃癌是指": 5100,
      "常见于": 5101,
      "大小和": 5102,
      "较小且": 5103,
      "内痔脱出": 5104,
      "放射线": 5105,
      "特定穴位": 5106,
      "无法有效": 5107,
      "无法耐受": 5108,
      "长时间站立": 5109,
      "坏死脱落": 5110,
      "常用的治疗方法": 5111,
      "痔核脱垂": 5112,
      "患者可以在医生指导下": 5113,
      "调节中枢": 5114,
      "上腹部疼痛": 5115,
      "过敏史": 5116,
      "阿莫西林胶囊等": 5117,
      "颈部淋巴结肿大": 5118,
      "全身感染": 5119,
      "某些类型的": 5120,
      "造成一定的": 5121,
      "如果患者出现": 5122,
      "临床症状": 5123,
      "严重时可能导致": 5124,
      "同时注意饮食调整": 5125,
      "抗感染药物治疗": 5126,
      "肛周脓肿切开引流术": 5127,
      "切口疝气": 5128,
      "可用于治疗": 5129,
      "可用于控制": 5130,
      "通常需要进行": 5131,
      "扩散到": 5132,
      "腹内压力增高": 5133,
      "表面突出": 5134,
      "的主要手段": 5135,
      "相应延长": 5136,
      "内镜下息肉电": 5137,
      "提高治愈率": 5138,
      "特殊的": 5139,
      "预后较好": 5140,
      "没有明显的": 5141,
      "药物如甲巯咪唑": 5142,
      "典型症状包括": 5143,
      "肝内钙化": 5144,
      "瓣膜功能不全": 5145,
      "建议及时就医进行专业评估和治疗": 5146,
      "主要用于治疗": 5147,
      "进而影响到": 5148,
      "体积较小且无": 5149,
      "保持规律的": 5150,
      "保持规律作息": 5151,
      "瘢痕组织": 5152,
      "异烟肼片": 5153,
      "有时可放射至": 5154,
      "十二指肠瘘": 5155,
      "彻底清除": 5156,
      "无需特殊处理": 5157,
      "通过手术直接移除": 5158,
      "乳腺导管扩张": 5159,
      "配合医生通过": 5160,
      "抗甲状腺药物如甲巯咪唑": 5161,
      "来改善病情": 5162,
      "质地较": 5163,
      "水肿和渗出": 5164,
      "头孢克肟颗粒等药物": 5165,
      "胶质囊肿": 5166,
      "血脂水平": 5167,
      "遗传性出血": 5168,
      "中医药疗法": 5169,
      "肾上腺皮质": 5170,
      "闭塞症": 5171,
      "进行局部熏洗": 5172,
      "美沙拉嗪肠溶片等": 5173,
      "体温调节中枢": 5174,
      "等病因引起的": 5175,
      "红斑狼疮": 5176,
      "产生压迫作用": 5177,
      "异常增生的浆细胞": 5178,
      "受影响区域": 5179,
      "下肢静脉闭塞症": 5180,
      "3个月之间": 5181,
      "的区别在于": 5182,
      "齿状线以下": 5183,
      "射频消融术": 5184,
      "柳氮磺吡啶肠溶片": 5185,
      "前列腺素": 5186,
      "弹力袜": 5187,
      "既往有": 5188,
      "使用时需注意": 5189,
      "喷射状": 5190,
      "性肠病": 5191,
      "莫司软膏": 5192,
      "子宫内膜异位": 5193,
      "体力活动": 5194,
      "烟草中的": 5195,
      "耳后淋巴结肿大": 5196,
      "如果出现这些症状": 5197,
      "过敏者禁用": 5198,
      "含碘食物": 5199,
      "在肠道内": 5200,
      "的严重性": 5201,
      "脑袋囊肿": 5202,
      "膈肌裂孔疝": 5203,
      "免疫功能低下": 5204,
      "肺癌肺内转移": 5205,
      "颈动脉内膜剥脱术": 5206,
      "以便早期发现并处理相关问题": 5207,
      "脑外伤后综合征": 5208,
      "可能发生在任何时间": 5209,
      "左旋甲状腺素钠片": 5210,
      "系统性红斑狼疮": 5211,
      "恶心和呕吐": 5212,
      "腹腔镜下囊肿去顶术": 5213,
      "移动性浊音阳性": 5214,
      "athk": 5215,
      "他克莫司软膏": 5216,
      "低钠血症": 5217,
      "变应性肉芽肿性血管炎": 5218,
      "嗜铬细胞瘤": 5219,
      "多见于": 5220,
      "干性坏疽": 5221,
      "炉甘石洗剂": 5222,
      "煎煮后": 5223,
      "甲硝唑": 5224,
      "肝内钙化灶": 5225,
      "子宫内膜异位症": 5226,
      "athke": 5227,
      "40": 5228,
      "4A": 5229,
      "6个月": 5230,
      "Rathke": 5231,
      "一句": 5232,
      "上方": 5233,
      "不佳": 5234,
      "不动": 5235,
      "不可": 5236,
      "不孕": 5237,
      "不痛": 5238,
      "不存在": 5239,
      "不具有": 5240,
      "且未": 5241,
      "且较小的": 5242,
      "为恶性": 5243,
      "也可能会": 5244,
      "乳炎": 5245,
      "二手": 5246,
      "交换": 5247,
      "人工": 5248,
      "人格": 5249,
      "仍有": 5250,
      "代表": 5251,
      "以预防": 5252,
      "以早期发现": 5253,
      "伐他汀": 5254,
      "优化": 5255,
      "会使": 5256,
      "会发生": 5257,
      "但不": 5258,
      "但需注意": 5259,
      "供血": 5260,
      "僵硬": 5261,
      "充分": 5262,
      "其发生": 5263,
      "内有": 5264,
      "内出现": 5265,
      "再次": 5266,
      "几天": 5267,
      "出来": 5268,
      "出汗": 5269,
      "分期": 5270,
      "则会引起": 5271,
      "初期": 5272,
      "副乳炎": 5273,
      "加快": 5274,
      "单个": 5275,
      "原发": 5276,
      "及其他": 5277,
      "另外": 5278,
      "可遵医嘱服用": 5279,
      "右肩": 5280,
      "右下腹": 5281,
      "右下腹压痛": 5282,
      "右上腹": 5283,
      "听力": 5284,
      "和炎症": 5285,
      "和化疗": 5286,
      "和药物治疗": 5287,
      "和管理": 5288,
      "在全身麻醉": 5289,
      "地平": 5290,
      "基于": 5291,
      "多发生在": 5292,
      "大型": 5293,
      "失禁": 5294,
      "奥美": 5295,
      "如规律": 5296,
      "如环磷酰胺": 5297,
      "如微创旋切术": 5298,
      "妇女": 5299,
      "孕酮": 5300,
      "安全": 5301,
      "完善": 5302,
      "对周围组织": 5303,
      "对抗感染": 5304,
      "将硬化剂": 5305,
      "小于": 5306,
      "小孩": 5307,
      "小腿": 5308,
      "小脑膜瘤": 5309,
      "尼龙": 5310,
      "尿嘧啶": 5311,
      "峡部": 5312,
      "左下腹压痛": 5313,
      "干酪": 5314,
      "并在": 5315,
      "并定期复查": 5316,
      "并不能": 5317,
      "并严格": 5318,
      "广谱": 5319,
      "应定期复查": 5320,
      "应立即": 5321,
      "延缓": 5322,
      "延髓": 5323,
      "当痔核": 5324,
      "很少": 5325,
      "急诊": 5326,
      "性增高": 5327,
      "性肠梗阻": 5328,
      "性阑尾炎": 5329,
      "性毛细血管扩张": 5330,
      "总管": 5331,
      "意识": 5332,
      "憋便": 5333,
      "成形": 5334,
      "戒酒": 5335,
      "或已": 5336,
      "或部分": 5337,
      "或后天": 5338,
      "所形成的": 5339,
      "打嗝": 5340,
      "托瑞": 5341,
      "抽吸": 5342,
      "按要求": 5343,
      "描述": 5344,
      "搏动": 5345,
      "撞伤": 5346,
      "新鲜": 5347,
      "方剂": 5348,
      "早晨": 5349,
      "易受": 5350,
      "是怎么引起的": 5351,
      "更昔洛韦": 5352,
      "有硬块": 5353,
      "未完全": 5354,
      "未及时处理": 5355,
      "机械": 5356,
      "来治疗": 5357,
      "来抑制": 5358,
      "来帮助": 5359,
      "果体": 5360,
      "样坏死": 5361,
      "次全": 5362,
      "次数": 5363,
      "毫米": 5364,
      "气体积聚": 5365,
      "氟尿嘧啶": 5366,
      "沉着": 5367,
      "泼尼龙": 5368,
      "洛尔": 5369,
      "活跃": 5370,
      "流通": 5371,
      "浅静脉": 5372,
      "消毒": 5373,
      "深部": 5374,
      "温盐水": 5375,
      "滞留": 5376,
      "满足": 5377,
      "灌肠": 5378,
      "烧灼": 5379,
      "然而": 5380,
      "熬夜": 5381,
      "物理": 5382,
      "甲泼尼龙": 5383,
      "痛苦": 5384,
      "痫发作": 5385,
      "癫痫发作": 5386,
      "的最": 5387,
      "的血管": 5388,
      "的激素": 5389,
      "的病变": 5390,
      "的阑尾": 5391,
      "的早期": 5392,
      "的区域": 5393,
      "的静脉曲张": 5394,
      "的有效": 5395,
      "的合成": 5396,
      "的功效": 5397,
      "的评估和治疗": 5398,
      "的增长": 5399,
      "的关键": 5400,
      "盲肠": 5401,
      "相结合": 5402,
      "真空": 5403,
      "眼花": 5404,
      "积累": 5405,
      "窒息": 5406,
      "等非": 5407,
      "等不适症状": 5408,
      "米芬": 5409,
      "精准": 5410,
      "经括约肌": 5411,
      "给药": 5412,
      "绷带": 5413,
      "而对于": 5414,
      "而形成的": 5415,
      "耐药": 5416,
      "耳部": 5417,
      "肉毒素": 5418,
      "肝胆管": 5419,
      "肝转移": 5420,
      "肝移植": 5421,
      "肠穿孔": 5422,
      "肺水肿": 5423,
      "肺栓塞": 5424,
      "肾脏": 5425,
      "胃壁": 5426,
      "胆固醇": 5427,
      "胆总管": 5428,
      "胶圈": 5429,
      "能有效": 5430,
      "能治愈吗": 5431,
      "脑肿瘤": 5432,
      "脑垂体": 5433,
      "膨出": 5434,
      "致热": 5435,
      "菠菜": 5436,
      "蔬菜": 5437,
      "表皮": 5438,
      "规范": 5439,
      "解释": 5440,
      "识别": 5441,
      "话解释": 5442,
      "较多": 5443,
      "较深": 5444,
      "达拉": 5445,
      "过大": 5446,
      "还可以": 5447,
      "还伴有": 5448,
      "酗酒": 5449,
      "针刺": 5450,
      "钼靶": 5451,
      "阻滞": 5452,
      "阿托": 5453,
      "需个体化": 5454,
      "顽固性": 5455,
      "额外": 5456,
      "饮料": 5457,
      "首先": 5458,
      "骨折": 5459,
      "麻痹": 5460,
      "可能因为": 5461,
      "可能涉及": 5462,
      "可能集中在": 5463,
      "症状者": 5464,
      "导致患者出现": 5465,
      "进行专业": 5466,
      "进行活检": 5467,
      "进行病理": 5468,
      "进行一次": 5469,
      "手术的": 5470,
      "手术等": 5471,
      "手术引流": 5472,
      "手术切口": 5473,
      "手术修补": 5474,
      "肛门异物感": 5475,
      "肛门坠胀": 5476,
      "通过在": 5477,
      "通过改善饮食习惯": 5478,
      "感染迹象": 5479,
      "通常是因为": 5480,
      "通常集中在": 5481,
      "发生于": 5482,
      "乳腺肿块": 5483,
      "乳腺超声检查": 5484,
      "乳腺疾病的": 5485,
      "乳腺钼靶": 5486,
      "针对特定": 5487,
      "针对这种情况": 5488,
      "可以是": 5489,
      "可以有效": 5490,
      "避免久坐": 5491,
      "炎症性肠病": 5492,
      "检查和": 5493,
      "引起的炎症反应": 5494,
      "疾病恢复": 5495,
      "功能性": 5496,
      "对于慢性": 5497,
      "对于确诊为": 5498,
      "定期监测病情变化": 5499,
      "病情的发展": 5500,
      "细胞生长": 5501,
      "淋巴结的情况": 5502,
      "由于其": 5503,
      "血管造影": 5504,
      "血管破裂出血": 5505,
      "异常血管": 5506,
      "局部涂抹": 5507,
      "恢复期": 5508,
      "保持大便": 5509,
      "出血情况": 5510,
      "结肠梗阻": 5511,
      "腹部包块": 5512,
      "时间延长": 5513,
      "用于治疗": 5514,
      "用于减轻": 5515,
      "血液流动": 5516,
      "周围血管": 5517,
      "如果存在": 5518,
      "缓解因": 5519,
      "可能会发生": 5520,
      "因素导致": 5521,
      "因素引起的": 5522,
      "这些物质": 5523,
      "这些病原体": 5524,
      "以及必要时": 5525,
      "囊肿是": 5526,
      "直肠镜检查": 5527,
      "饮食和": 5528,
      "饮食纤维": 5529,
      "饮食卫生": 5530,
      "的治疗通常包括": 5531,
      "促进肠道蠕动": 5532,
      "静脉丛": 5533,
      "会导致乳腺组织": 5534,
      "伴有瘙痒": 5535,
      "压迫气管": 5536,
      "皮肤颜色改变": 5537,
      "其他疾病": 5538,
      "减轻排便时": 5539,
      "痔疮患者": 5540,
      "有助于软化大便": 5541,
      "并发症的患者": 5542,
      "结构和": 5543,
      "胆管梗阻": 5544,
      "胆管堵塞": 5545,
      "持续升高": 5546,
      "中药坐浴": 5547,
      "过度活跃": 5548,
      "长期慢性": 5549,
      "长期吸烟": 5550,
      "呕吐等症状": 5551,
      "呕吐多为": 5552,
      "引发疼痛": 5553,
      "结核感染": 5554,
      "抗生素如": 5555,
      "损伤后": 5556,
      "怎么治": 5557,
      "动脉栓塞": 5558,
      "部位出现": 5559,
      "乳房的变化": 5560,
      "乳房按摩": 5561,
      "慢性淋巴结炎": 5562,
      "慢性胃炎": 5563,
      "适用于因": 5564,
      "根据患者": 5565,
      "便秘症状": 5566,
      "健康问题": 5567,
      "消化内科": 5568,
      "恶心常伴随": 5569,
      "血液循环不畅": 5570,
      "化疗方案": 5571,
      "结石排出": 5572,
      "建议患者及时就医以确定": 5573,
      "建议患者及时就医以获得专业": 5574,
      "颅内压": 5575,
      "较大或伴有": 5576,
      "垂体功能减退": 5577,
      "辅助效果": 5578,
      "以免加重症状": 5579,
      "肛周炎": 5580,
      "肛周静脉曲张": 5581,
      "大便干燥": 5582,
      "可通过饮食调整": 5583,
      "适合所有": 5584,
      "大小不一": 5585,
      "直接侵犯": 5586,
      "乳腺增生是由于体内": 5587,
      "肛瘘手术后": 5588,
      "肛瘘挂线": 5589,
      "可能需要更长时间": 5590,
      "口服药物治疗": 5591,
      "口服溶液": 5592,
      "效果较好": 5593,
      "建议进行超声波检查": 5594,
      "建议进行头颅": 5595,
      "患者可以遵医嘱使用": 5596,
      "是什么意思": 5597,
      "颈部肿块": 5598,
      "某些基因突变": 5599,
      "放疗等": 5600,
      "放疗和化疗": 5601,
      "能够起到": 5602,
      "如果患者对": 5603,
      "吸收障碍": 5604,
      "日常生活中还要注意": 5605,
      "小肠出血": 5606,
      "选择哪种": 5607,
      "免疫系统异常": 5608,
      "外伤后": 5609,
      "的一种手术方式": 5610,
      "腹内压": 5611,
      "MRI扫描": 5612,
      "代谢率": 5613,
      "代谢异常": 5614,
      "腹腔内脏器": 5615,
      "胆囊炎引起的": 5616,
      "遗传因素有关": 5617,
      "合成甲状腺激素": 5618,
      "的主要原因": 5619,
      "的主要治疗方法": 5620,
      "结肠癌肝转移": 5621,
      "激光治疗通过高": 5622,
      "毛细血管通透": 5623,
      "替代治疗": 5624,
      "氢化可的松注射液": 5625,
      "视力减退": 5626,
      "肺部脓肿": 5627,
      "不同程度": 5628,
      "以促进身体恢复": 5629,
      "以促进伤口愈合和": 5630,
      "以获得适当的治疗": 5631,
      "较为严重": 5632,
      "进入腹腔": 5633,
      "疾病的恢复": 5634,
      "上皮细胞的恶性肿瘤": 5635,
      "肛门周围皮肤": 5636,
      "生物反馈": 5637,
      "疼痛和肿胀": 5638,
      "肛门部位出现": 5639,
      "这些症状可能提示": 5640,
      "化脓性淋巴结炎治疗": 5641,
      "增长迅速": 5642,
      "环磷酰胺等": 5643,
      "雌激素和": 5644,
      "患者可在医生指导下使用抗生素进行抗感染治疗": 5645,
      "基因突变导致": 5646,
      "雌激素水平异常": 5647,
      "患者可能会出现": 5648,
      "局部血液循环障碍": 5649,
      "这些因素都": 5650,
      "胰腺炎": 5651,
      "家族史者": 5652,
      "清热解毒中药": 5653,
      "大脑皮层": 5654,
      "是主要的治疗方法": 5655,
      "痉挛或": 5656,
      "若患者存在": 5657,
      "酒精性肝硬化": 5658,
      "体积较小且": 5659,
      "乏力等症状": 5660,
      "会对周围组织": 5661,
      "口腔卫生": 5662,
      "保持规律的大便": 5663,
      "烫伤膏": 5664,
      "固定术": 5665,
      "属于一种": 5666,
      "股疝修补术": 5667,
      "自愈吗": 5668,
      "淋巴细胞增生": 5669,
      "等药物进行缓解": 5670,
      "可遵医嘱使用马应龙麝香痔疮膏": 5671,
      "间隙脓肿": 5672,
      "头孢菌素等": 5673,
      "应避免食用辛辣刺激性食物": 5674,
      "131治疗": 5675,
      "内的隆起": 5676,
      "头部撞伤": 5677,
      "颅骨增生": 5678,
      "颅骨修复": 5679,
      "细胞异常增生形成的": 5680,
      "进而形成结节": 5681,
      "抗病毒药物进行治疗": 5682,
      "治疗措施可能包括手术切除肿瘤": 5683,
      "患者可以在医生指导下使用他莫昔芬": 5684,
      "皮下脂肪纤维瘤": 5685,
      "行走不稳": 5686,
      "建议定期自我监测": 5687,
      "选择合适的治疗方案": 5688,
      "介入治疗": 5689,
      "介入手术": 5690,
      "传统开放式": 5691,
      "波动感": 5692,
      "额叶肿瘤": 5693,
      "建议及时就医以获得专业治疗": 5694,
      "建议及时就医以获得专业评估和治疗": 5695,
      "肛管皮肤层": 5696,
      "肛管皮肤全层": 5697,
      "高锰酸钾溶液坐浴": 5698,
      "IgM水平升高": 5699,
      "单克隆免疫球蛋白": 5700,
      "有害气体": 5701,
      "吻合术": 5702,
      "等综合治疗手段": 5703,
      "肺动脉狭窄": 5704,
      "避免长时间久坐": 5705,
      "避免长时间憋便": 5706,
      "如有必要": 5707,
      "老年人": 5708,
      "镇痛药物": 5709,
      "食道癌": 5710,
      "淋巴囊肿穿刺引流": 5711,
      "结节增大或伴有": 5712,
      "氢化可的松乳膏等药物缓解不适症状": 5713,
      "以排除其他潜在的": 5714,
      "完整性": 5715,
      "肠腔内的隆起": 5716,
      "骨髓中": 5717,
      "CT扫描或MRI以评估": 5718,
      "无论选择哪种": 5719,
      "禁食水": 5720,
      "肚脐周围": 5721,
      "降脂药物": 5722,
      "血管内皮": 5723,
      "腹腔内的脏器": 5724,
      "内容物通过障碍": 5725,
      "对乙酰氨基酚片等": 5726,
      "收敛止痒": 5727,
      "发现异常应及时就医": 5728,
      "遵照医生的意见服用": 5729,
      "乙状结肠直肠炎": 5730,
      "弥漫性": 5731,
      "经验丰富的": 5732,
      "甲状腺滤泡增生": 5733,
      "手术切除的方式进行处理": 5734,
      "颈动脉支架植入": 5735,
      "X线摄片": 5736,
      "低密度灶": 5737,
      "挤压或": 5738,
      "禁忌证": 5739,
      "肋骨下方": 5740,
      "肛乳头肥大": 5741,
      "胃食管肿瘤": 5742,
      "肛门括约肌功能锻炼": 5743,
      "避免接触已知的": 5744,
      "以便进行准确诊断和治疗": 5745,
      "意味着": 5746,
      "胆石症": 5747,
      "脑外肿瘤": 5748,
      "色素沉着": 5749,
      "轻柔地": 5750,
      "手术复杂程度": 5751,
      "长时间站立或": 5752,
      "遗传性出血性毛细血管扩张": 5753,
      "前列腺素合成": 5754,
      "一句话解释": 5755,
      "二手烟": 5756,
      "供血不足": 5757,
      "奥美拉唑": 5758,
      "干酪样坏死": 5759,
      "托瑞米芬": 5760,
      "按要求一句话解释": 5761,
      "真空辅助": 5762,
      "乳腺钼靶X线摄片": 5763,
      "保持大便通畅": 5764,
      "饮食纤维增加": 5765,
      "激光治疗通过高能量激光束": 5766,
      "保持规律的大便习惯": 5767,
      "遗传性出血性毛细血管扩张症": 5768,
      "按要求一句话解释区别": 5769,
      "72": 5770,
      "V钾": 5771,
      "X光": 5772,
      "mm": 5773,
      "β射线": 5774,
      "丁酸": 5775,
      "三叉": 5776,
      "下床": 5777,
      "下段": 5778,
      "下的": 5779,
      "与周围组织": 5780,
      "两者": 5781,
      "为什么": 5782,
      "之后": 5783,
      "也会影响": 5784,
      "事件": 5785,
      "以获取": 5786,
      "以满足": 5787,
      "会有": 5788,
      "会产生大量": 5789,
      "传递": 5790,
      "伴钙化": 5791,
      "但不宜": 5792,
      "低位": 5793,
      "住院": 5794,
      "体位": 5795,
      "依据": 5796,
      "保肝": 5797,
      "假性肠梗阻": 5798,
      "光敏": 5799,
      "内压力增高": 5800,
      "决定": 5801,
      "凝胶": 5802,
      "凸起": 5803,
      "切割": 5804,
      "制品": 5805,
      "前后": 5806,
      "前往": 5807,
      "加碘": 5808,
      "包扎": 5809,
      "卡韦": 5810,
      "厕所": 5811,
      "原则": 5812,
      "及患者": 5813,
      "及相关": 5814,
      "及是否存在": 5815,
      "双歧": 5816,
      "双眼": 5817,
      "反酸": 5818,
      "受限": 5819,
      "变细": 5820,
      "古丁": 5821,
      "可呈": 5822,
      "可复": 5823,
      "可出现": 5824,
      "可缓解": 5825,
      "可采用": 5826,
      "可移动": 5827,
      "右下腹部": 5828,
      "叶结节": 5829,
      "吃什么": 5830,
      "各项": 5831,
      "后续": 5832,
      "后重": 5833,
      "后形成的": 5834,
      "含漱": 5835,
      "和出血": 5836,
      "和诊断": 5837,
      "和过度": 5838,
      "和水肿": 5839,
      "和大小": 5840,
      "和器官": 5841,
      "和排气": 5842,
      "咽炎": 5843,
      "喉返": 5844,
      "囊状": 5845,
      "在观察": 5846,
      "在医生的": 5847,
      "坐着": 5848,
      "培养": 5849,
      "外源性": 5850,
      "外耳道": 5851,
      "多个": 5852,
      "大气": 5853,
      "大肠": 5854,
      "大网膜": 5855,
      "大面积": 5856,
      "失血": 5857,
      "套叠": 5858,
      "奥沙拉": 5859,
      "如经": 5860,
      "如开放": 5861,
      "如头孢克肟颗粒": 5862,
      "妥昔": 5863,
      "它们": 5864,
      "定时": 5865,
      "实性结节": 5866,
      "家长": 5867,
      "寒战": 5868,
      "小低密度灶": 5869,
      "尼古丁": 5870,
      "层扫描": 5871,
      "工具": 5872,
      "左甲状腺素钠片": 5873,
      "常表现为": 5874,
      "常发生在": 5875,
      "平片": 5876,
      "平阳": 5877,
      "并切除": 5878,
      "并不会": 5879,
      "并产生毒素": 5880,
      "应在": 5881,
      "应避免剧烈运动": 5882,
      "应遵循医嘱": 5883,
      "应密切监测": 5884,
      "应定期监测": 5885,
      "应密切观察": 5886,
      "建立": 5887,
      "开具": 5888,
      "弹性": 5889,
      "强化": 5890,
      "强烈": 5891,
      "当息肉": 5892,
      "当病情发展": 5893,
      "征象": 5894,
      "心率": 5895,
      "心跳": 5896,
      "急后重": 5897,
      "性遗传": 5898,
      "恩替": 5899,
      "或椭": 5900,
      "或引起": 5901,
      "或刺激": 5902,
      "或直肠": 5903,
      "或器官": 5904,
      "或杀死": 5905,
      "或全身麻醉": 5906,
      "手臂": 5907,
      "托洛尔": 5908,
      "抽烟": 5909,
      "担心": 5910,
      "支撑": 5911,
      "数天": 5912,
      "断层扫描": 5913,
      "无张力": 5914,
      "明书": 5915,
      "易感": 5916,
      "是预防": 5917,
      "是常见的": 5918,
      "是合成甲状腺激素": 5919,
      "显微": 5920,
      "更为": 5921,
      "替换": 5922,
      "替诺": 5923,
      "有无": 5924,
      "服药": 5925,
      "未闭合": 5926,
      "来控制": 5927,
      "来达到": 5928,
      "来控制感染": 5929,
      "松果体": 5930,
      "极少": 5931,
      "构成": 5932,
      "染色": 5933,
      "样病变": 5934,
      "样硬化": 5935,
      "样改变": 5936,
      "槐角": 5937,
      "残留": 5938,
      "毛刺": 5939,
      "毛囊": 5940,
      "气肿": 5941,
      "氮芥": 5942,
      "沿着": 5943,
      "洋参": 5944,
      "活性": 5945,
      "清淡": 5946,
      "游泳": 5947,
      "潜血": 5948,
      "热量": 5949,
      "特制": 5950,
      "状直肠": 5951,
      "生化": 5952,
      "由经验丰富的": 5953,
      "电离": 5954,
      "瘘口": 5955,
      "的人": 5956,
      "的内": 5957,
      "的组织": 5958,
      "的炎症": 5959,
      "的损伤": 5960,
      "的问题": 5961,
      "的内痔": 5962,
      "的管理": 5963,
      "的摩擦和刺激": 5964,
      "的危害": 5965,
      "的原则": 5966,
      "皮炎": 5967,
      "直径": 5968,
      "直结肠癌": 5969,
      "直视下": 5970,
      "短时间": 5971,
      "破溃": 5972,
      "硝普": 5973,
      "硝酸": 5974,
      "硬物": 5975,
      "硬结": 5976,
      "确认": 5977,
      "碘是合成甲状腺激素": 5978,
      "福韦": 5979,
      "离子": 5980,
      "等现象": 5981,
      "等病理": 5982,
      "等药膏": 5983,
      "管癌": 5984,
      "米巴": 5985,
      "类食品": 5986,
      "类固醇": 5987,
      "粘膜": 5988,
      "粥样硬化": 5989,
      "紧缩": 5990,
      "红肉": 5991,
      "红薯": 5992,
      "红血丝": 5993,
      "经历": 5994,
      "经肛门": 5995,
      "结扎": 5996,
      "绞窄": 5997,
      "缺失": 5998,
      "罕见": 5999,
      "美托洛尔": 6000,
      "而定": 6001,
      "而肿瘤": 6002,
      "而根治术": 6003,
      "耳前": 6004,
      "肋骨": 6005,
      "肛隐": 6006,
      "肝病": 6007,
      "肝胆": 6008,
      "肠间隙脓肿": 6009,
      "肠吻合术": 6010,
      "肠套叠": 6011,
      "肩背": 6012,
      "肺结核": 6013,
      "胀气": 6014,
      "胃镜": 6015,
      "胃镜检查": 6016,
      "胃内容物": 6017,
      "背痛": 6018,
      "胶体": 6019,
      "胶原": 6020,
      "胸毛": 6021,
      "胸腔": 6022,
      "胸膜": 6023,
      "胸腺瘤": 6024,
      "脆弱": 6025,
      "脉高压": 6026,
      "脑血管": 6027,
      "脑出血": 6028,
      "脑转移": 6029,
      "脑胶质瘤": 6030,
      "腹肌": 6031,
      "腺炎": 6032,
      "膀胱": 6033,
      "至1": 6034,
      "至肛门外": 6035,
      "花状直肠": 6036,
      "若出现": 6037,
      "若确诊为": 6038,
      "苯丁酸": 6039,
      "药材": 6040,
      "菜花状直肠": 6041,
      "表示": 6042,
      "裂口": 6043,
      "西洋参": 6044,
      "要注意休息": 6045,
      "解除": 6046,
      "警惕": 6047,
      "诊治": 6048,
      "该药物": 6049,
      "该方法": 6050,
      "详细": 6051,
      "说明书": 6052,
      "调控": 6053,
      "贝拉唑": 6054,
      "轻至中度": 6055,
      "辅以": 6056,
      "运行": 6057,
      "还取决于": 6058,
      "还应考虑": 6059,
      "这类": 6060,
      "这可能导致": 6061,
      "适度": 6062,
      "适用": 6063,
      "逆流": 6064,
      "通便": 6065,
      "通气": 6066,
      "那么": 6067,
      "都需要": 6068,
      "里急后重": 6069,
      "钙质": 6070,
      "钠胶囊等": 6071,
      "门脉高压": 6072,
      "间接": 6073,
      "阿米巴": 6074,
      "附睾": 6075,
      "雷贝拉唑": 6076,
      "需在": 6077,
      "需求": 6078,
      "需综合考虑": 6079,
      "餐具": 6080,
      "饭后": 6081,
      "高温": 6082,
      "高钙": 6083,
      "高蛋白": 6084,
      "鼻漏": 6085,
      "治疗吗": 6086,
      "治疗效果": 6087,
      "可能为": 6088,
      "可能较长": 6089,
      "患者要": 6090,
      "患者通常需要": 6091,
      "症状出现": 6092,
      "导致血液中": 6093,
      "导致血液回流受阻": 6094,
      "进行电": 6095,
      "进行专业评估和治疗": 6096,
      "手术是一种": 6097,
      "手术创伤": 6098,
      "甲状腺术后": 6099,
      "甲状腺健康": 6100,
      "甲状腺超声检查": 6101,
      "甲状腺双侧": 6102,
      "甲状腺胶质囊肿": 6103,
      "甲状腺次全": 6104,
      "组织受到": 6105,
      "组织间隙": 6106,
      "建议采取": 6107,
      "疼痛一般": 6108,
      "肛门处": 6109,
      "肛门炎症": 6110,
      "肛门出血": 6111,
      "肛门息肉": 6112,
      "肛门肿块": 6113,
      "肛门肿胀": 6114,
      "肛门突出": 6115,
      "肛门直肠脱垂": 6116,
      "肛门湿疹": 6117,
      "通过刺激": 6118,
      "感染后": 6119,
      "感染源": 6120,
      "感染性疾病": 6121,
      "淋巴腺炎": 6122,
      "通常指": 6123,
      "通常是由于": 6124,
      "发生感染": 6125,
      "乳腺健康": 6126,
      "针对肺癌": 6127,
      "针对胃癌": 6128,
      "针对乳腺增生": 6129,
      "针对甲状腺结节": 6130,
      "针对乳腺结节": 6131,
      "针对乳腺癌": 6132,
      "可以使用": 6133,
      "可以缓解": 6134,
      "可以改善": 6135,
      "可以采取": 6136,
      "可以起到": 6137,
      "可以减轻炎症反应": 6138,
      "避免使用": 6139,
      "避免高脂": 6140,
      "检查和治疗": 6141,
      "检查结果": 6142,
      "引起的疼痛": 6143,
      "引起的结节": 6144,
      "引起的出血": 6145,
      "引起的不适症状": 6146,
      "使用前": 6147,
      "对于巨球蛋白血症": 6148,
      "对于轻度": 6149,
      "对于复杂": 6150,
      "对于晚期": 6151,
      "对于确诊": 6152,
      "对于疑似": 6153,
      "需要积极": 6154,
      "需要治疗吗": 6155,
      "定期结肠镜检查": 6156,
      "病情严重程度": 6157,
      "细胞损伤": 6158,
      "细胞增殖": 6159,
      "细胞过度增殖": 6160,
      "刺激乳腺": 6161,
      "刺激食物": 6162,
      "形成肿块": 6163,
      "形成脓肿": 6164,
      "由于局部": 6165,
      "血管扩张": 6166,
      "血管发育异常": 6167,
      "血管畸形": 6168,
      "异常变化": 6169,
      "局部注射": 6170,
      "不适合": 6171,
      "恢复快": 6172,
      "主要是由": 6173,
      "主要取决于": 6174,
      "保持局部": 6175,
      "保持充足的": 6176,
      "出血的现象": 6177,
      "出血等并发症": 6178,
      "结肠广基息肉": 6179,
      "腹部脂肪堆积": 6180,
      "从而使": 6181,
      "从而减少": 6182,
      "评估病情": 6183,
      "存在特定": 6184,
      "血液中的": 6185,
      "周围健康": 6186,
      "监测结节": 6187,
      "如果息肉": 6188,
      "如果囊肿": 6189,
      "可能会向": 6190,
      "可能会形成": 6191,
      "可能会因为": 6192,
      "可能会相应延长": 6193,
      "进而促进": 6194,
      "因素共同作用": 6195,
      "神经时": 6196,
      "神经分布": 6197,
      "直肠和": 6198,
      "直肠壁": 6199,
      "直肠切除术": 6200,
      "直肠下端": 6201,
      "饮食健康": 6202,
      "饮食不当": 6203,
      "的治疗需要": 6204,
      "的治疗通常需要": 6205,
      "增加了": 6206,
      "增加体力活动": 6207,
      "的症状有哪些": 6208,
      "会导致局部组织": 6209,
      "术后水肿": 6210,
      "恶性结节": 6211,
      "伴有疼痛": 6212,
      "压迫视交叉": 6213,
      "运动疗法": 6214,
      "运动协调": 6215,
      "脂肪组织": 6216,
      "脂肪增多": 6217,
      "免疫反应": 6218,
      "肠道负担": 6219,
      "黏膜表面突出": 6220,
      "皮肤和": 6221,
      "皮肤损伤": 6222,
      "皮肤瘙痒": 6223,
      "皮肤表面": 6224,
      "皮肤苍白": 6225,
      "减轻压力": 6226,
      "痔疮手术后": 6227,
      "患者应及时就医": 6228,
      "有助于早期发现": 6229,
      "考虑手术切除": 6230,
      "胆管壁": 6231,
      "切除术等": 6232,
      "手术切除病变": 6233,
      "持续数": 6234,
      "持续时间": 6235,
      "中药内服": 6236,
      "具体方案": 6237,
      "具体病因": 6238,
      "结核性": 6239,
      "抗生素通过抑制细菌": 6240,
      "身体的": 6241,
      "分泌增多": 6242,
      "脓肿形成": 6243,
      "改善病情": 6244,
      "的发生与": 6245,
      "动脉粥样硬化": 6246,
      "伤口感染": 6247,
      "伤口情况": 6248,
      "乳房疼痛": 6249,
      "乳房红肿": 6250,
      "因为其": 6251,
      "生长缓慢且": 6252,
      "剧烈腹痛": 6253,
      "患者的年龄": 6254,
      "细菌侵入": 6255,
      "肺癌的风险": 6256,
      "肺癌晚期": 6257,
      "健康风险": 6258,
      "因此会出现": 6259,
      "消化液": 6260,
      "阑尾梗阻": 6261,
      "恶心感": 6262,
      "恶心的感觉": 6263,
      "控制好": 6264,
      "控制能力": 6265,
      "胆囊管癌": 6266,
      "建议患者及时就医以确定具体原因并接受适当治疗": 6267,
      "此时病情": 6268,
      "此时就会出现": 6269,
      "区域的": 6270,
      "颅内高压": 6271,
      "程度较轻": 6272,
      "恶性肿瘤的可能性": 6273,
      "遗传等因素有关": 6274,
      "受到影响": 6275,
      "受到摩擦": 6276,
      "辅助手段": 6277,
      "具有抗炎": 6278,
      "具有活血化瘀": 6279,
      "静脉曲张团块": 6280,
      "瘙痒感": 6281,
      "瘙痒症状": 6282,
      "进行针对性": 6283,
      "外敷于患处": 6284,
      "体积较大": 6285,
      "体重变化": 6286,
      "抗生素治疗是": 6287,
      "一般不需要": 6288,
      "位置较低": 6289,
      "复发率": 6290,
      "接受专业": 6291,
      "腹股沟区": 6292,
      "胃癌等疾病引起的": 6293,
      "甲状腺功能和": 6294,
      "甲状腺功能异常": 6295,
      "甲状腺功能测定": 6296,
      "辛辣刺激食物": 6297,
      "直接观察": 6298,
      "直接作用于": 6299,
      "肿胀和疼痛": 6300,
      "激素水平异常": 6301,
      "激素水平的变化": 6302,
      "营养均衡": 6303,
      "或其他原因": 6304,
      "或其他并发症": 6305,
      "中药外敷利用": 6306,
      "体内缺乏": 6307,
      "侵犯到": 6308,
      "侵犯周围的": 6309,
      "放射科": 6310,
      "可能需要数月": 6311,
      "微创手术后": 6312,
      "微创技术": 6313,
      "CT扫描以及": 6314,
      "建议进行电子": 6315,
      "下降等症状": 6316,
      "甲状腺结节患者": 6317,
      "甲状腺结节消融": 6318,
      "患者可以遵医嘱服用": 6319,
      "干预措施": 6320,
      "食管静脉曲张": 6321,
      "乳腺组织过度增生": 6322,
      "压痛点": 6323,
      "调节体内": 6324,
      "上腹部或": 6325,
      "多种疾病": 6326,
      "是什么症状": 6327,
      "睡眠障碍": 6328,
      "颈部超声检查": 6329,
      "适量食用": 6330,
      "造成压迫": 6331,
      "能够显示": 6332,
      "任何治疗前": 6333,
      "治愈目的": 6334,
      "同时注意保持良好的生活习惯": 6335,
      "免疫系统的": 6336,
      "外科医生": 6337,
      "吸烟者": 6338,
      "大量出血": 6339,
      "潜在风险": 6340,
      "的一种恶性肿瘤": 6341,
      "乳腺纤维瘤通常由": 6342,
      "乳腺纤维瘤是一种良性肿瘤": 6343,
      "MRI成像": 6344,
      "坐浴疗法": 6345,
      "合成甲状腺素": 6346,
      "的主要因素": 6347,
      "不能自愈": 6348,
      "提高生活质量": 6349,
      "等方式进行": 6350,
      "以促进愈合": 6351,
      "以促进伤口愈合": 6352,
      "儿童阑尾炎": 6353,
      "儿童脑膜瘤": 6354,
      "儿童脑肿瘤": 6355,
      "突出形成": 6356,
      "康复训练": 6357,
      "康复医学科": 6358,
      "胃肠功能紊乱": 6359,
      "脑膜炎": 6360,
      "囊性病变": 6361,
      "囊性包块": 6362,
      "多为良性": 6363,
      "斑块形成": 6364,
      "药物如阿昔洛韦": 6365,
      "则需手术切除": 6366,
      "建议定期复查腹部超声": 6367,
      "对于存在轻微": 6368,
      "化脓性中耳炎": 6369,
      "确保充足的": 6370,
      "能力下降": 6371,
      "这些疾病可能导致": 6372,
      "非霍奇金淋巴瘤是": 6373,
      "粪便通过": 6374,
      "多久可以": 6375,
      "快速增大": 6376,
      "联合应用": 6377,
      "肿瘤的位置": 6378,
      "以监测病情进展": 6379,
      "以免影响伤口愈合": 6380,
      "治疗措施包括遵医嘱使用": 6381,
      "邻近器官": 6382,
      "自身免疫反应": 6383,
      "幽门螺旋": 6384,
      "含有丰富的": 6385,
      "术后患者应避免剧烈运动": 6386,
      "X线平片": 6387,
      "抗结核药物治疗": 6388,
      "是主要治疗方法": 6389,
      "难以排出": 6390,
      "利福平胶囊": 6391,
      "保护剂": 6392,
      "应避免摄入": 6393,
      "肛门指检": 6394,
      "炎症反应和水肿": 6395,
      "炎症因子刺激下": 6396,
      "动力学": 6397,
      "由专业医生": 6398,
      "患者应避免吸烟": 6399,
      "暴露于": 6400,
      "发生的概率": 6401,
      "同时还要注意": 6402,
      "同时还要调整饮食结构": 6403,
      "以便获得准确": 6404,
      "也有助于降低": 6405,
      "可遵医嘱使用红霉素软膏": 6406,
      "异物堵塞": 6407,
      "特征是": 6408,
      "可能出现的问题": 6409,
      "毛细血管扩张和": 6410,
      "使其形成": 6411,
      "应避免食用辛辣": 6412,
      "盐酸左氧氟沙星": 6413,
      "压迫周围器官": 6414,
      "腹壁薄弱处": 6415,
      "咨询专业医生": 6416,
      "脑室系统": 6417,
      "细胞异常增生形成": 6418,
      "手术切除是最": 6419,
      "抗病毒药物": 6420,
      "抗病毒药物如阿昔洛韦": 6421,
      "乳腺导管上皮细胞": 6422,
      "合并症的患者": 6423,
      "孕期乳房": 6424,
      "尿液颜色": 6425,
      "抗甲状腺药": 6426,
      "暂时性": 6427,
      "杀死癌细胞": 6428,
      "皮下脂肪瘤": 6429,
      "尤其是在活动后": 6430,
      "就会形成": 6431,
      "精神紧张": 6432,
      "疼痛通常位于头部": 6433,
      "特定波长光": 6434,
      "选择合适的": 6435,
      "医疗干预": 6436,
      "可作为辅助治疗手段": 6437,
      "环境因素以及": 6438,
      "高锰酸钾溶液进行": 6439,
      "张力增加": 6440,
      "手指脓肿": 6441,
      "摘除术": 6442,
      "有害物质": 6443,
      "污染物": 6444,
      "等病因有关": 6445,
      "肿大的甲状腺": 6446,
      "脂肪肝患者": 6447,
      "产生压迫和刺激": 6448,
      "肺动脉高压": 6449,
      "输卵管积水": 6450,
      "重症情况下": 6451,
      "对于无症状": 6452,
      "对于无症状的": 6453,
      "常用药物有环磷酰胺": 6454,
      "头晕眼花": 6455,
      "往往伴随着": 6456,
      "过量摄入": 6457,
      "还可配合医生": 6458,
      "脂肪肉瘤则": 6459,
      "利用高频电": 6460,
      "以便及时发现并处理任何": 6461,
      "固体食物": 6462,
      "小叶增生": 6463,
      "局限性": 6464,
      "并促进康复": 6465,
      "并采取相应": 6466,
      "定期体检以及": 6467,
      "可能会对周围的": 6468,
      "回盲部息肉": 6469,
      "2周内": 6470,
      "开腹手术": 6471,
      "情绪波动": 6472,
      "抗凝药物": 6473,
      "泌尿外科": 6474,
      "触摸到": 6475,
      "等方法来消除": 6476,
      "非甾体抗炎药如布洛芬缓释胶囊": 6477,
      "不同的病因": 6478,
      "脑脊液循环受阻": 6479,
      "以达到治愈目的": 6480,
      "圆形或椭": 6481,
      "妊娠期": 6482,
      "开颅手术后": 6483,
      "有较好的效果": 6484,
      "烧伤后": 6485,
      "胚胎期": 6486,
      "通过口服合成甲状腺素": 6487,
      "产生的毒素": 6488,
      "狭窄或阻塞": 6489,
      "轻度至中度的": 6490,
      "CT扫描等影像学检查": 6491,
      "放疗或化疗": 6492,
      "间歇性或": 6493,
      "也有所不同": 6494,
      "乳汁淤积": 6495,
      "占位性病变": 6496,
      "每年至少": 6497,
      "的形成可能与": 6498,
      "蛛网膜下": 6499,
      "颅底肿瘤": 6500,
      "通常可以在": 6501,
      "主要包括手术切除": 6502,
      "乳腺组织过度生长而引起的": 6503,
      "血栓外痔发炎": 6504,
      "多久能恢复": 6505,
      "精确地切除": 6506,
      "建议定期进行肛门指诊和肛门镜检查": 6507,
      "孕激素比例失调": 6508,
      "内脏器官": 6509,
      "在某些情况下": 6510,
      "左侧肋骨下方": 6511,
      "是非常必要的": 6512,
      "饮食方面宜": 6513,
      "压迫周围组织结构": 6514,
      "保持良好的睡眠质量": 6515,
      "家族中有": 6516,
      "青霉素类如": 6517,
      "可在医生指导下使用红霉素软膏": 6518,
      "多发性肝血管瘤": 6519,
      "对本品过敏者禁用": 6520,
      "枕大池": 6521,
      "肠间脓肿": 6522,
      "恢复速度取决于": 6523,
      "诊断和适当治疗": 6524,
      "具体时间取决于": 6525,
      "调整用药方案": 6526,
      "患者可以在医生指导下服用": 6527,
      "质地较硬": 6528,
      "美沙拉嗪肠溶片等氨基水杨酸类药物": 6529,
      "人格改变": 6530,
      "如规律作息": 6531,
      "急诊科": 6532,
      "成形术": 6533,
      "搏动性": 6534,
      "阿托伐他汀": 6535,
      "乳腺增生是由于体内雌激素水平过高": 6536,
      "不同程度的": 6537,
      "完整性受损": 6538,
      "弥漫性甲状腺肿大": 6539,
      "V钾片": 6540,
      "三叉神经": 6541,
      "光敏剂": 6542,
      "加碘盐": 6543,
      "双歧杆菌": 6544,
      "可复性肿块": 6545,
      "奥沙拉秦": 6546,
      "妥昔单抗": 6547,
      "平阳霉素": 6548,
      "恩替卡韦": 6549,
      "替诺福韦": 6550,
      "槐角丸": 6551,
      "潜血试验": 6552,
      "电离辐射": 6553,
      "肛隐窝": 6554,
      "肝胆外科": 6555,
      "苯丁酸氮芥": 6556,
      "菜花状直肠肿瘤": 6557,
      "导致血液中IgM水平升高": 6558,
      "甲状腺双侧叶结节": 6559,
      "周围健康组织": 6560,
      "以便获得准确诊断和适当治疗": 6561,
      "利用高频电流": 6562,
      "圆形或椭圆形": 6563,
      "2类": 6564,
      "2级": 6565,
      "2cm": 6566,
      "48": 6567,
      "4a": 6568,
      "4天": 6569,
      "7mm": 6570,
      "ER": 6571,
      "RA": 6572,
      "SH": 6573,
      "一些": 6574,
      "一旦": 6575,
      "一类": 6576,
      "一阵": 6577,
      "丁胺": 6578,
      "三脑室": 6579,
      "三联活菌": 6580,
      "上班": 6581,
      "上肢": 6582,
      "上行": 6583,
      "上腹痛": 6584,
      "下丘": 6585,
      "下层": 6586,
      "不尽": 6587,
      "不振": 6588,
      "不是": 6589,
      "不痒": 6590,
      "不退": 6591,
      "不治疗": 6592,
      "不会引起": 6593,
      "不规律": 6594,
      "不均匀": 6595,
      "且体积较小": 6596,
      "且常伴有": 6597,
      "丙沙星": 6598,
      "丝虫": 6599,
      "丢失": 6600,
      "中发现": 6601,
      "为主": 6602,
      "主动脉": 6603,
      "主神经系统": 6604,
      "乳果": 6605,
      "二次": 6606,
      "交感": 6607,
      "交替": 6608,
      "产气": 6609,
      "介导": 6610,
      "以避免": 6611,
      "以辅助": 6612,
      "以抑制": 6613,
      "以缓解症状": 6614,
      "以维持": 6615,
      "伐昔洛韦": 6616,
      "会感到": 6617,
      "但要": 6618,
      "但需": 6619,
      "但通过": 6620,
      "但如果": 6621,
      "体显": 6622,
      "体格": 6623,
      "体育": 6624,
      "体酮": 6625,
      "体分流术": 6626,
      "使病变组织": 6627,
      "依达拉": 6628,
      "侧面": 6629,
      "便常规": 6630,
      "保乳": 6631,
      "保健": 6632,
      "借助": 6633,
      "偏瘫": 6634,
      "做手术": 6635,
      "停用": 6636,
      "储备": 6637,
      "儿茶": 6638,
      "克林": 6639,
      "其良恶性": 6640,
      "其特征是": 6641,
      "内侧": 6642,
      "内纤维": 6643,
      "内脓肿": 6644,
      "内源性": 6645,
      "冠状": 6646,
      "冲击": 6647,
      "减缓": 6648,
      "凝固性": 6649,
      "凹陷": 6650,
      "则比较严重": 6651,
      "利妥昔单抗": 6652,
      "到肠腔内的隆起": 6653,
      "前额": 6654,
      "力度": 6655,
      "力作用": 6656,
      "化的": 6657,
      "华法": 6658,
      "单发": 6659,
      "单眼": 6660,
      "危险": 6661,
      "参数": 6662,
      "及治疗": 6663,
      "及周围": 6664,
      "及是否": 6665,
      "友病": 6666,
      "反流": 6667,
      "发黄": 6668,
      "发性的": 6669,
      "取出": 6670,
      "受伤": 6671,
      "只是": 6672,
      "可见": 6673,
      "可使用": 6674,
      "可伴有": 6675,
      "可直接": 6676,
      "可发生在": 6677,
      "可有效": 6678,
      "可触及": 6679,
      "右侧": 6680,
      "右美": 6681,
      "右髂": 6682,
      "右上腹痛": 6683,
      "吃辛辣刺激性的食物": 6684,
      "后加": 6685,
      "后脑": 6686,
      "后进行": 6687,
      "后更为明显": 6688,
      "吡嗪": 6689,
      "听神经": 6690,
      "和结节": 6691,
      "和预后": 6692,
      "和紫菜": 6693,
      "和患者的整体健康状况": 6694,
      "咖啡": 6695,
      "咽喉部": 6696,
      "唾液": 6697,
      "啰音": 6698,
      "喝水": 6699,
      "嗜酸": 6700,
      "嘌呤": 6701,
      "器械": 6702,
      "噬细胞": 6703,
      "囊壁": 6704,
      "囊腺瘤": 6705,
      "回输": 6706,
      "因体位": 6707,
      "团队": 6708,
      "在无": 6709,
      "在使用": 6710,
      "在体内": 6711,
      "在特定": 6712,
      "在排便时": 6713,
      "在X线": 6714,
      "在一定程度": 6715,
      "在实施": 6716,
      "在门诊": 6717,
      "在炎症因子刺激下": 6718,
      "塞来": 6719,
      "声波": 6720,
      "外来": 6721,
      "外界": 6722,
      "多巴": 6723,
      "多样": 6724,
      "多次": 6725,
      "多汗": 6726,
      "多位于": 6727,
      "多喝水": 6728,
      "大的": 6729,
      "大动脉": 6730,
      "失控": 6731,
      "奈德": 6732,
      "好处": 6733,
      "如豆": 6734,
      "如金": 6735,
      "如高血压": 6736,
      "如吻合": 6737,
      "如增加膳食纤维摄入量": 6738,
      "姜等": 6739,
      "学指标": 6740,
      "安奈德": 6741,
      "实现": 6742,
      "室炎": 6743,
      "容量": 6744,
      "富马": 6745,
      "对准": 6746,
      "将其": 6747,
      "小的": 6748,
      "小肠梗阻": 6749,
      "少数": 6750,
      "尝试": 6751,
      "就诊": 6752,
      "就会引起": 6753,
      "尽管": 6754,
      "局麻": 6755,
      "屁股": 6756,
      "岁以上": 6757,
      "左边": 6758,
      "巨噬细胞": 6759,
      "带血": 6760,
      "常染色": 6761,
      "干咳": 6762,
      "年轻": 6763,
      "并向": 6764,
      "并减少": 6765,
      "并密切监测": 6766,
      "并定期进行": 6767,
      "并按医嘱": 6768,
      "并给予": 6769,
      "底部": 6770,
      "强度": 6771,
      "当肿瘤": 6772,
      "当存在": 6773,
      "当囊肿": 6774,
      "当病变": 6775,
      "形红细胞": 6776,
      "微生": 6777,
      "心功能": 6778,
      "心绞痛": 6779,
      "必利": 6780,
      "必过于": 6781,
      "态环境": 6782,
      "性及": 6783,
      "性和": 6784,
      "性欲": 6785,
      "性肺": 6786,
      "性损伤": 6787,
      "性贫血": 6788,
      "性胃炎": 6789,
      "性分泌物": 6790,
      "性甲状腺炎": 6791,
      "性烧伤": 6792,
      "性皮炎": 6793,
      "患指": 6794,
      "患病": 6795,
      "感受到": 6796,
      "感和疼痛": 6797,
      "憩室炎": 6798,
      "成为": 6799,
      "成人": 6800,
      "或视": 6801,
      "或过": 6802,
      "或治疗": 6803,
      "或组织": 6804,
      "或出现": 6805,
      "或切除": 6806,
      "或术后": 6807,
      "或损伤": 6808,
      "或便秘": 6809,
      "或注射": 6810,
      "或不适感": 6811,
      "或腹腔镜下": 6812,
      "或难以": 6813,
      "或磁共振成像": 6814,
      "或反复发作": 6815,
      "或大腿": 6816,
      "或淋巴系统": 6817,
      "或既往有": 6818,
      "或双眼": 6819,
      "手法": 6820,
      "找到": 6821,
      "抗核": 6822,
      "抗雌激素": 6823,
      "抵抗": 6824,
      "拉伸": 6825,
      "拉大便": 6826,
      "指诊": 6827,
      "排空": 6828,
      "摇头": 6829,
      "摇晃": 6830,
      "摧毁": 6831,
      "放松": 6832,
      "效率": 6833,
      "数小时": 6834,
      "新的": 6835,
      "无创": 6836,
      "无痛": 6837,
      "无明显症状": 6838,
      "时候": 6839,
      "易形成": 6840,
      "易引发": 6841,
      "昔布": 6842,
      "是通过": 6843,
      "是首选": 6844,
      "显著": 6845,
      "晚上": 6846,
      "普生": 6847,
      "曲安奈德": 6848,
      "更容易": 6849,
      "最终": 6850,
      "有一定": 6851,
      "期的": 6852,
      "未得到": 6853,
      "术前": 6854,
      "机构": 6855,
      "材料": 6856,
      "来进行": 6857,
      "来减少": 6858,
      "来促进": 6859,
      "来缓解不适症状": 6860,
      "来补充": 6861,
      "来进行处理": 6862,
      "来促进血液循环": 6863,
      "来纠正": 6864,
      "果胶": 6865,
      "柴胡": 6866,
      "标志": 6867,
      "标本": 6868,
      "栓系": 6869,
      "样扩张": 6870,
      "样物质": 6871,
      "梗死": 6872,
      "模式": 6873,
      "此药": 6874,
      "此类药物": 6875,
      "水泡": 6876,
      "水痘": 6877,
      "沙芬": 6878,
      "沙必利": 6879,
      "治好吗": 6880,
      "液化": 6881,
      "深部或": 6882,
      "混入": 6883,
      "潜能": 6884,
      "灌洗": 6885,
      "灼热": 6886,
      "炎性结节": 6887,
      "点胀": 6888,
      "烂了": 6889,
      "烟酒": 6890,
      "状物": 6891,
      "猕猴": 6892,
      "环切术": 6893,
      "环丙沙星": 6894,
      "珠单抗": 6895,
      "球形红细胞": 6896,
      "甘油": 6897,
      "生产": 6898,
      "生米": 6899,
      "生姜等": 6900,
      "用什么": 6901,
      "甲羟": 6902,
      "疏通": 6903,
      "病人": 6904,
      "病灶": 6905,
      "白色": 6906,
      "的小": 6907,
      "的淋巴结": 6908,
      "的同时": 6909,
      "的具体": 6910,
      "的分泌": 6911,
      "的直接": 6912,
      "的脂肪瘤": 6913,
      "的性质": 6914,
      "的内容物": 6915,
      "的能力": 6916,
      "的严重程度": 6917,
      "的肝癌": 6918,
      "的传导": 6919,
      "的混合血管瘤": 6920,
      "的痊愈": 6921,
      "的小溃疡": 6922,
      "眼眶": 6923,
      "石棉": 6924,
      "石酸": 6925,
      "研磨": 6926,
      "硬度增加": 6927,
      "碘的食物": 6928,
      "第三脑室": 6929,
      "等待": 6930,
      "等不适": 6931,
      "等富含": 6932,
      "等特征": 6933,
      "等严重并发症": 6934,
      "等回声": 6935,
      "等中成药": 6936,
      "粘稠": 6937,
      "糊状": 6938,
      "组胺": 6939,
      "经颈": 6940,
      "经血液循环": 6941,
      "经肝胆管": 6942,
      "结晶": 6943,
      "继而导致": 6944,
      "维护": 6945,
      "罗红霉素": 6946,
      "置入": 6947,
      "而不": 6948,
      "耳机": 6949,
      "肛内脓肿": 6950,
      "肝多发": 6951,
      "肝多囊": 6952,
      "肠切除术": 6953,
      "股环": 6954,
      "肺气肿": 6955,
      "肾结石": 6956,
      "胃内": 6957,
      "胃胀气": 6958,
      "胸背痛": 6959,
      "能促进": 6960,
      "能治好吗": 6961,
      "脐突出": 6962,
      "脑子": 6963,
      "脑梗死": 6964,
      "脚趾": 6965,
      "脚踝": 6966,
      "腐蚀": 6967,
      "腰部或": 6968,
      "腺息肉": 6969,
      "腿上": 6970,
      "膻中": 6971,
      "自己": 6972,
      "自主神经系统": 6973,
      "舌扁桃体": 6974,
      "舌根部": 6975,
      "舒适": 6976,
      "花生米": 6977,
      "若不": 6978,
      "若是": 6979,
      "若囊肿": 6980,
      "若发现": 6981,
      "若长时间": 6982,
      "若发现异常应及时就医": 6983,
      "苯佐": 6984,
      "苹果": 6985,
      "荨麻": 6986,
      "萄球菌": 6987,
      "萘普生": 6988,
      "葡萄球菌": 6989,
      "蔓延": 6990,
      "蛔虫": 6991,
      "蜂蜜": 6992,
      "血友病": 6993,
      "裂囊肿": 6994,
      "认知": 6995,
      "记录": 6996,
      "该技术": 6997,
      "贴敷": 6998,
      "费力": 6999,
      "起床": 7000,
      "跛行": 7001,
      "较短": 7002,
      "边界": 7003,
      "迂曲": 7004,
      "还可能是": 7005,
      "逐步": 7006,
      "遵守": 7007,
      "那样": 7008,
      "都可能": 7009,
      "酒石酸": 7010,
      "酚胺": 7011,
      "重塑": 7012,
      "重新": 7013,
      "量增加": 7014,
      "金黄色": 7015,
      "鉴于": 7016,
      "铂等": 7017,
      "银花": 7018,
      "错误": 7019,
      "长息肉": 7020,
      "门静脉": 7021,
      "门体分流术": 7022,
      "阴茎": 7023,
      "阴阳": 7024,
      "阵发性的": 7025,
      "阿苯达": 7026,
      "附着": 7027,
      "隐痛": 7028,
      "需行": 7029,
      "需根据": 7030,
      "非侵入": 7031,
      "面对": 7032,
      "革兰": 7033,
      "顶部": 7034,
      "颅腔": 7035,
      "颌下": 7036,
      "骨科": 7037,
      "高度": 7038,
      "高的食物": 7039,
      "高血糖": 7040,
      "黄体酮": 7041,
      "黑便": 7042,
      "治疗时": 7043,
      "治疗反应": 7044,
      "治疗策略": 7045,
      "可能因": 7046,
      "可能的": 7047,
      "可能通过": 7048,
      "患者有": 7049,
      "患者还": 7050,
      "患者会出现": 7051,
      "患者是否有": 7052,
      "患者年龄": 7053,
      "症状态": 7054,
      "症状变化": 7055,
      "症状的影响": 7056,
      "导致严重": 7057,
      "导致炎症反应": 7058,
      "导致雌激素和": 7059,
      "导致乳腺组织过度生长而引起的": 7060,
      "引起出血": 7061,
      "引起淋巴结肿大": 7062,
      "进行干预": 7063,
      "进行调理": 7064,
      "进行分析": 7065,
      "进行适当的": 7066,
      "手术治疗方法": 7067,
      "手术通常采用": 7068,
      "甲状腺疾病": 7069,
      "甲状腺恶性肿瘤": 7070,
      "甲状腺负担": 7071,
      "甲状腺脖子": 7072,
      "甲状腺实性结节": 7073,
      "甲状腺2类": 7074,
      "甲状腺等回声": 7075,
      "组织样本": 7076,
      "建议及时": 7077,
      "建议尽快就医": 7078,
      "建议每年至少": 7079,
      "疼痛及": 7080,
      "疼痛以及": 7081,
      "疼痛加剧": 7082,
      "疼痛的情况发生": 7083,
      "肛门里": 7084,
      "肛门黏膜": 7085,
      "肛门周围组织": 7086,
      "肛门功能障碍": 7087,
      "肛门附近": 7088,
      "肛门及其": 7089,
      "肛门烂了": 7090,
      "出现的": 7091,
      "出现充血": 7092,
      "出现明显的": 7093,
      "通过将": 7094,
      "通过服用": 7095,
      "通过移除": 7096,
      "通过消化道": 7097,
      "通过补充": 7098,
      "通过内服": 7099,
      "感染性": 7100,
      "感染等问题": 7101,
      "淋巴循环": 7102,
      "淋巴回流": 7103,
      "淋巴肉芽肿": 7104,
      "通常是由": 7105,
      "发生时": 7106,
      "乳腺管": 7107,
      "乳腺小叶": 7108,
      "肿瘤位于": 7109,
      "针对不同": 7110,
      "针对此病": 7111,
      "针对不同的病因": 7112,
      "可以被": 7113,
      "可以减少": 7114,
      "可以减轻": 7115,
      "可以促进血液循环": 7116,
      "避免高脂肪食物": 7117,
      "避免摄入过多": 7118,
      "及时进行": 7119,
      "引起的淋巴结肿大": 7120,
      "引起的消化系统": 7121,
      "疾病导致": 7122,
      "功能的": 7123,
      "功能刺激": 7124,
      "功能恢复": 7125,
      "使用红霉素软膏": 7126,
      "使用马应龙麝香痔疮膏": 7127,
      "对于急性": 7128,
      "对于内痔": 7129,
      "对于体积较小且无": 7130,
      "需要通过": 7131,
      "需要根据具体": 7132,
      "细胞浸润": 7133,
      "刺激神经末梢": 7134,
      "刺激周围神经": 7135,
      "形成息肉": 7136,
      "形成一个": 7137,
      "由于肿瘤": 7138,
      "由于阑尾": 7139,
      "由于个体差异": 7140,
      "由于先天发育异常": 7141,
      "由于基因突变导致": 7142,
      "血管状况": 7143,
      "异常的": 7144,
      "异常生长": 7145,
      "异常增殖": 7146,
      "结节状": 7147,
      "结节大小": 7148,
      "局部热敷": 7149,
      "包括神经": 7150,
      "包括均衡饮食": 7151,
      "包括腹股沟淋巴结": 7152,
      "恢复进": 7153,
      "主要由": 7154,
      "主要通过": 7155,
      "主要集中在": 7156,
      "注意力": 7157,
      "影响其": 7158,
      "影响到": 7159,
      "出血点": 7160,
      "出血等": 7161,
      "出血风险": 7162,
      "出血等情况": 7163,
      "结肠内": 7164,
      "结肠上皮细胞": 7165,
      "腹部积水": 7166,
      "医生指导": 7167,
      "激素类食品": 7168,
      "从而缓解": 7169,
      "及时就医进行": 7170,
      "评估是否需要": 7171,
      "减少摄入": 7172,
      "严重或": 7173,
      "存在一定的": 7174,
      "血液系统疾病": 7175,
      "周围结构": 7176,
      "如果发现": 7177,
      "如果患者的": 7178,
      "如果血管瘤": 7179,
      "可能会有": 7180,
      "可能会延长": 7181,
      "这些变化": 7182,
      "反应蛋白": 7183,
      "神经痛": 7184,
      "神经功能": 7185,
      "神经损伤": 7186,
      "神经紊乱": 7187,
      "神经敏感": 7188,
      "神经反射": 7189,
      "可能导致局部组织": 7190,
      "囊肿较大": 7191,
      "直肠出血": 7192,
      "直肠炎症反应": 7193,
      "直肠给药": 7194,
      "直肠粘膜": 7195,
      "饮食疗法": 7196,
      "的治疗包括": 7197,
      "的治疗方式": 7198,
      "的治疗可采取": 7199,
      "的治疗需个体化": 7200,
      "促进其": 7201,
      "促进病情恢复": 7202,
      "促进结石排出": 7203,
      "静脉注射": 7204,
      "静脉肝内": 7205,
      "术后咳嗽": 7206,
      "术后护理": 7207,
      "恶性程度": 7208,
      "恶性淋巴瘤": 7209,
      "恶性潜能": 7210,
      "伴有其他": 7211,
      "压迫和": 7212,
      "压迫邻近结构": 7213,
      "运动功能": 7214,
      "免疫调节": 7215,
      "免疫因素共同作用": 7216,
      "肠道健康": 7217,
      "肠道炎症性疾病": 7218,
      "肠道微生": 7219,
      "排便后": 7220,
      "以免对": 7221,
      "指导下进行": 7222,
      "皮肤干燥": 7223,
      "皮肤护理": 7224,
      "皮肤凹陷": 7225,
      "原因是": 7226,
      "可能是乳腺增生": 7227,
      "可能是突然发生的": 7228,
      "超声医学科": 7229,
      "痔疮引起的": 7230,
      "痔疮不治疗": 7231,
      "患者应注意休息": 7232,
      "患者应慎用": 7233,
      "有助于减轻": 7234,
      "有助于缓解症状": 7235,
      "并发症的": 7236,
      "定期复查影像学检查": 7237,
      "定期复查是必要的": 7238,
      "纤维组织": 7239,
      "结构紊乱": 7240,
      "结构改变": 7241,
      "结构发生改变": 7242,
      "胆管内": 7243,
      "胆管引流术": 7244,
      "建议患者定期自我": 7245,
      "切除术等方式进行治疗": 7246,
      "手术切除治疗": 7247,
      "手术切除病变部位": 7248,
      "持续刺激": 7249,
      "正常组织": 7250,
      "正常生理": 7251,
      "肿块性质": 7252,
      "肿块通常位于": 7253,
      "过度产生": 7254,
      "长期咳嗽": 7255,
      "长期处于": 7256,
      "长期大面积": 7257,
      "呕吐和": 7258,
      "呕吐物": 7259,
      "结核结节": 7260,
      "产生异常": 7261,
      "产生免疫应答": 7262,
      "产生过多的": 7263,
      "身体免疫力": 7264,
      "身体其他部位": 7265,
      "分泌减少": 7266,
      "是否严重": 7267,
      "是否正常": 7268,
      "怎么消除": 7269,
      "改善排便": 7270,
      "伴随症状": 7271,
      "伤口的": 7272,
      "伤口出血": 7273,
      "乳房脂肪瘤": 7274,
      "乳房侧面": 7275,
      "慢性疾病": 7276,
      "慢性结肠炎": 7277,
      "慢性肝炎": 7278,
      "慢性化脓性中耳炎": 7279,
      "生长发育": 7280,
      "剧烈活动": 7281,
      "剧烈疼痛和": 7282,
      "适用于有": 7283,
      "适用于表浅": 7284,
      "溃疡形成": 7285,
      "扩张血管": 7286,
      "肺癌复发": 7287,
      "便秘等": 7288,
      "便秘的发生": 7289,
      "便秘等原因": 7290,
      "预防血栓形成": 7291,
      "预防并发症的发生": 7292,
      "以评估病情变化": 7293,
      "以评估是否需要": 7294,
      "阑尾腔": 7295,
      "恶心等症状": 7296,
      "遵医嘱口服": 7297,
      "会引起局部": 7298,
      "此时由于": 7299,
      "此时会导致": 7300,
      "是由于内分泌失调": 7301,
      "较大时": 7302,
      "或者出现": 7303,
      "或者高锰酸钾溶液": 7304,
      "肛裂是": 7305,
      "肛裂出血": 7306,
      "肛裂等疾病": 7307,
      "肛裂并形成": 7308,
      "遗传突变": 7309,
      "以减少不适症状": 7310,
      "注射肉毒素": 7311,
      "受到牵拉": 7312,
      "辅助化疗": 7313,
      "激光射频消融术": 7314,
      "具有润": 7315,
      "受损后": 7316,
      "进一步恶化": 7317,
      "瘙痒症": 7318,
      "瘙痒等症状": 7319,
      "腹壁修补术": 7320,
      "外敷于": 7321,
      "建议定期体检": 7322,
      "是由各种原因": 7323,
      "肛周湿疹": 7324,
      "建议及时就医以确定": 7325,
      "建议及时就医以确定具体原因并接受适当治疗": 7326,
      "建议及时就医以获得适当的治疗": 7327,
      "从而引起疼痛": 7328,
      "从而引起发热": 7329,
      "从而引起淋巴结肿大的现象": 7330,
      "大便出血": 7331,
      "急性扁桃体": 7332,
      "可通过胃肠减压": 7333,
      "可通过使用马应龙麝香痔疮膏": 7334,
      "狭窄部位": 7335,
      "抗生素治疗和": 7336,
      "机体恢复": 7337,
      "这种情况下": 7338,
      "复发的风险": 7339,
      "腹股沟区域": 7340,
      "下肢肿胀": 7341,
      "胃癌患者的": 7342,
      "患者可遵医嘱服用": 7343,
      "辛辣食品": 7344,
      "内分泌调节": 7345,
      "是指在": 7346,
      "直接治疗": 7347,
      "活动性": 7348,
      "病因并接受适当治疗": 7349,
      "肿胀等症状": 7350,
      "腹痛可能是由于": 7351,
      "保持良好的生活习惯和": 7352,
      "手段之一": 7353,
      "营养状态": 7354,
      "可以考虑中药外敷": 7355,
      "日常活动": 7356,
      "日常保健": 7357,
      "采用温盐水": 7358,
      "乳腺增生是由于内分泌失调": 7359,
      "内痔套扎": 7360,
      "肛瘘的": 7361,
      "必要时还需": 7362,
      "以确诊": 7363,
      "特定的": 7364,
      "特定类型的": 7365,
      "不良的": 7366,
      "甚至危及生命": 7367,
      "CT扫描以评估": 7368,
      "片等抗生素类药物": 7369,
      "肌肉紧张": 7370,
      "建议进行胸部": 7371,
      "坏死和": 7372,
      "穿刺胆管引流术": 7373,
      "肠梗阻时": 7374,
      "肠梗阻的患者": 7375,
      "甲状腺结节伴钙化": 7376,
      "患者可以使用": 7377,
      "患者可以按医嘱": 7378,
      "食管化学": 7379,
      "食管裂孔疝": 7380,
      "先天性的": 7381,
      "部分甲状腺组织": 7382,
      "心脏功能": 7383,
      "心脏负担": 7384,
      "异常增生引起": 7385,
      "可能是由EB病毒感染": 7386,
      "颈部有肿块": 7387,
      "咳嗽加剧": 7388,
      "感觉减退": 7389,
      "甲状腺激素合成": 7390,
      "某些药物": 7391,
      "通常在局部麻醉": 7392,
      "通常在门诊": 7393,
      "排出不畅": 7394,
      "日常生活中应": 7395,
      "日常生活中还应注意": 7396,
      "小肠癌": 7397,
      "小肠息肉": 7398,
      "小肠血管畸形": 7399,
      "治愈的": 7400,
      "有时伴有": 7401,
      "有时伴随": 7402,
      "避免过度摄入": 7403,
      "同时注意均衡饮食": 7404,
      "同时注意饮食健康": 7405,
      "发育不全": 7406,
      "支持结构": 7407,
      "上述药物": 7408,
      "红肿热痛": 7409,
      "乳腺结节患者": 7410,
      "可以通过生活方式调整": 7411,
      "的一种防御": 7412,
      "胆汁排出不畅": 7413,
      "薄弱处": 7414,
      "薄弱点": 7415,
      "乳腺癌等疾病引起的": 7416,
      "乳腺癌的发生可能与": 7417,
      "容易引起": 7418,
      "容易发生": 7419,
      "容易形成": 7420,
      "逐渐加重": 7421,
      "肛门括约肌紧缩": 7422,
      "主要针对较大的": 7423,
      "腹腔内炎症": 7424,
      "修复缺陷": 7425,
      "增多症": 7426,
      "的方式将": 7427,
      "的方式进行治疗": 7428,
      "表面或": 7429,
      "表面光滑": 7430,
      "呼吸困难等症状": 7431,
      "旨在改善": 7432,
      "旨在移除": 7433,
      "配合化疗": 7434,
      "配合放疗": 7435,
      "之间的": 7436,
      "之间的异常": 7437,
      "切开取石": 7438,
      "接触有害气体": 7439,
      "止痛药": 7440,
      "相应的": 7441,
      "炎症因子会刺激": 7442,
      "炎症因子持续刺激": 7443,
      "毛细血管破裂": 7444,
      "完全排除": 7445,
      "恶变的可能性": 7446,
      "皮质醇": 7447,
      "先天性烟雾病": 7448,
      "先天性动静脉瘘": 7449,
      "先天性血管发育异常": 7450,
      "中度脑积水": 7451,
      "类型和": 7452,
      "等方式辅助治疗": 7453,
      "肥胖症": 7454,
      "食欲不振": 7455,
      "吞咽困难等症状": 7456,
      "儿童脑囊肿": 7457,
      "特殊治疗": 7458,
      "预后较差": 7459,
      "可能伴有疼痛": 7460,
      "胃肠道功能紊乱": 7461,
      "脑脊液漏": 7462,
      "没有改善": 7463,
      "颜色变化": 7464,
      "直肠黏膜注射硬化剂": 7465,
      "直肠黏膜保护剂": 7466,
      "甲状腺功能亢进时": 7467,
      "微创手术等": 7468,
      "是什么原因引起的": 7469,
      "是什么原因严重吗": 7470,
      "癌细胞可能": 7471,
      "癌细胞侵犯": 7472,
      "速度快": 7473,
      "速度较快": 7474,
      "并接受相应": 7475,
      "疼痛和不适感": 7476,
      "周围的组织结构": 7477,
      "消化道溃疡": 7478,
      "化脓性病变": 7479,
      "增长速度": 7480,
      "病原体侵袭": 7481,
      "能力较强": 7482,
      "则需要通过": 7483,
      "则需要通过手术": 7484,
      "常规检查": 7485,
      "成像来评估": 7486,
      "雌激素刺激乳腺": 7487,
      "青霉素G": 7488,
      "制定方案": 7489,
      "雌激素水平升高": 7490,
      "颗粒等": 7491,
      "应尽快就医以获得专业": 7492,
      "肝内多发": 7493,
      "血流动力学": 7494,
      "血流量增加": 7495,
      "局部血液循环受阻": 7496,
      "以免影响病情恢复": 7497,
      "以免影响伤口愈合和": 7498,
      "身体状况较差": 7499,
      "治疗措施包括抗生素治疗": 7500,
      "治疗措施包括药物治疗如": 7501,
      "功效的中药外敷": 7502,
      "合并胆囊炎": 7503,
      "女性肛门处": 7504,
      "延长至": 7505,
      "瓣膜替换": 7506,
      "的时间才能": 7507,
      "建议及时就医进行检查": 7508,
      "建议及时就医进行进一步的": 7509,
      "自身免疫性甲状腺炎": 7510,
      "避免过度劳累和": 7511,
      "头孢克肟分散": 7512,
      "含有利多卡因": 7513,
      "胰腺囊肿": 7514,
      "医生的指导": 7515,
      "从而引发头痛": 7516,
      "以便早期发现异常": 7517,
      "布洛芬缓释胶囊": 7518,
      "抗结核药物进行治疗": 7519,
      "敏感度": 7520,
      "适合于因": 7521,
      "充足的休息": 7522,
      "利福平等": 7523,
      "保护胃黏膜": 7524,
      "口腔溃疡": 7525,
      "口腔血管瘤": 7526,
      "在专业医师指导下进行": 7527,
      "积聚在": 7528,
      "穴位按摩": 7529,
      "腋下及周围": 7530,
      "随着年龄": 7531,
      "随着病情的发展": 7532,
      "恶心呕吐的症状": 7533,
      "炎症因子刺激直肠黏膜": 7534,
      "EB病毒": 7535,
      "瘢痕形成": 7536,
      "肝囊肿8": 7537,
      "钙化点": 7538,
      "定期监测血压": 7539,
      "体积增大时": 7540,
      "患者可在医生指导下口服": 7541,
      "固定于": 7542,
      "渗出液": 7543,
      "糖尿病患者": 7544,
      "淋巴细胞恶性转化": 7545,
      "淋巴细胞增生和": 7546,
      "以便获得专业": 7547,
      "以便获得适当的治疗": 7548,
      "等药物进行调理": 7549,
      "等药物进行抗结核治疗": 7550,
      "腹膜后脂肪增多": 7551,
      "也有助于预防": 7552,
      "合理膳食": 7553,
      "糖皮质激素类药物": 7554,
      "肝癌患者的": 7555,
      "部或枕部": 7556,
      "结核分枝杆菌感染引起的": 7557,
      "气体交换": 7558,
      "混合痔": 7559,
      "盐酸伐昔洛韦": 7560,
      "精索静脉": 7561,
      "纵隔淋巴结肿大": 7562,
      "自行消退": 7563,
      "自行挤压或": 7564,
      "患者需要及时就医": 7565,
      "有时可伴随": 7566,
      "4周之间": 7567,
      "下移位": 7568,
      "十二指肠癌": 7569,
      "的压力增加": 7570,
      "缓释片": 7571,
      "手术切除是常见的治疗方法": 7572,
      "正常的生理": 7573,
      "腹壁肌肉薄弱": 7574,
      "呼吸道黏膜": 7575,
      "卵巢囊腺瘤": 7576,
      "止血处理": 7577,
      "肢体麻木": 7578,
      "阻断其": 7579,
      "阻断神经传导": 7580,
      "治疗措施可能包括药物治疗如": 7581,
      "合并症或": 7582,
      "结缔组织病": 7583,
      "结缔组织增生": 7584,
      "紧急处理": 7585,
      "行走时": 7586,
      "从而达到止痛": 7587,
      "是一种常见的肛门疾病": 7588,
      "尤其是在夜间": 7589,
      "传染性": 7590,
      "传染病": 7591,
      "此类患者": 7592,
      "精神障碍": 7593,
      "精神状态": 7594,
      "胆管炎性肝脓肿": 7595,
      "遗传性球形红细胞": 7596,
      "遗传性结缔组织病": 7597,
      "机体免疫系统对": 7598,
      "上的良性肿瘤": 7599,
      "停止排便": 7600,
      "停止排气": 7601,
      "成分的": 7602,
      "疤痕形成": 7603,
      "脑外伤综合征": 7604,
      "患者可能出现低热": 7605,
      "进行局部涂抹": 7606,
      "严重时甚至可能出现": 7607,
      "一个肉疙瘩": 7608,
      "体温上升": 7609,
      "支气管镜检查": 7610,
      "海带和紫菜": 7611,
      "生殖系统": 7612,
      "脾脏肿大": 7613,
      "间歇性的": 7614,
      "非特异性肠道炎症性疾病": 7615,
      "血管壁钙化": 7616,
      "的治疗可以考虑抗生素治疗": 7617,
      "的治疗可以考虑激光治疗": 7618,
      "脂肪肝合并胆囊炎": 7619,
      "上述提及的": 7620,
      "冷冻治疗利用": 7621,
      "信号通路": 7622,
      "如均衡饮食和适量运动": 7623,
      "或多西环素": 7624,
      "消炎止痛": 7625,
      "维生素A": 7626,
      "边缘清晰": 7627,
      "甲状腺细胞增生": 7628,
      "肛门局部用药": 7629,
      "其生长缓慢且": 7630,
      "头晕等症状": 7631,
      "心理科": 7632,
      "老年甲状腺癌": 7633,
      "疼痛或不适": 7634,
      "如果不及时处理": 7635,
      "如果不及时治疗": 7636,
      "影像学评估": 7637,
      "心脏瓣膜赘生物": 7638,
      "远处转移的": 7639,
      "平滑肌收缩": 7640,
      "但并不能": 7641,
      "发病部位": 7642,
      "弹力绷带": 7643,
      "既往病史": 7644,
      "有一定的辅助效果": 7645,
      "气血平衡": 7646,
      "脐部息肉切除术": 7647,
      "脑干功能刺激": 7648,
      "至数月": 7649,
      "醋酸甲羟": 7650,
      "甲状旁腺肿瘤": 7651,
      "腹腔脓肿的痊愈": 7652,
      "消化吸收功能": 7653,
      "以减少对肛门区域": 7654,
      "下肢深静脉血栓形成": 7655,
      "下肢深静脉瓣膜功能不全": 7656,
      "日常生活中注意保持良好的排便习惯": 7657,
      "切口疝的发生": 7658,
      "根治性手术切除是治疗": 7659,
      "凝血功能异常": 7660,
      "喷射性呕吐": 7661,
      "头颅MRI": 7662,
      "泌尿系统": 7663,
      "莫司汀": 7664,
      "高纤维食物": 7665,
      "肛门有点胀": 7666,
      "或伴有其他不适": 7667,
      "持续性或阵发性": 7668,
      "功效的中药材": 7669,
      "保守治疗无效且": 7670,
      "建议定期自我检查乳房": 7671,
      "哺乳期妇女": 7672,
      "一系列临床表现": 7673,
      "人体后": 7674,
      "内镜息肉切除术": 7675,
      "单纯的": 7676,
      "外周血管": 7677,
      "广泛分布": 7678,
      "的静脉丛": 7679,
      "触诊时": 7680,
      "足够的氧气": 7681,
      "可能呈间歇性或": 7682,
      "肛门胀满感": 7683,
      "避免吸烟和": 7684,
      "医生可能会推荐": 7685,
      "激素分泌异常": 7686,
      "激素分泌不足": 7687,
      "损伤和炎症反应": 7688,
      "损伤和修复": 7689,
      "狭窄或堵塞": 7690,
      "多种原因引起": 7691,
      "切开术或": 7692,
      "电解质平衡": 7693,
      "乳突炎": 7694,
      "占位效应": 7695,
      "多囊肝多囊": 7696,
      "温水坐浴": 7697,
      "男性乳房": 7698,
      "短期使用": 7699,
      "裂开后形成的": 7700,
      "阴囊或大腿": 7701,
      "需由专业医生": 7702,
      "对于某些特定类型的": 7703,
      "影响了正常的": 7704,
      "食物残渣滞留": 7705,
      "如果这些症状持续": 7706,
      "如果这些症状持续存在": 7707,
      "进一步的影像学检查": 7708,
      "转移性肿瘤": 7709,
      "急性化脓性中耳炎": 7710,
      "这种不适可能位于": 7711,
      "功效的中草药煎煮后": 7712,
      "十二指肠溃疡": 7713,
      "小脑扁桃体下疝畸形": 7714,
      "孕激素比例失衡": 7715,
      "一段时间": 7716,
      "中央或": 7717,
      "升主动脉瘤样扩张": 7718,
      "在局部麻醉下完成": 7719,
      "性皮肤病": 7720,
      "成熟脂肪": 7721,
      "或复发性": 7722,
      "按压时": 7723,
      "经腹手术": 7724,
      "胃底静脉曲张": 7725,
      "胃底腺息肉": 7726,
      "苯达莫司汀": 7727,
      "锁骨下动脉": 7728,
      "锁骨下动脉硬化": 7729,
      "面部麻木": 7730,
      "定期观察即可": 7731,
      "保持肛门部位清洁卫生": 7732,
      "术后需注意伤口护理": 7733,
      "同时也要": 7734,
      "随着病情进展而加重": 7735,
      "代偿性增生": 7736,
      "腹泻等导致肛垫下移": 7737,
      "逍遥丸等中成药": 7738,
      "30分钟至1": 7739,
      "及可能出现的副作用": 7740,
      "姑息性治疗": 7741,
      "数周至数月": 7742,
      "是影响恢复时间": 7743,
      "熊去氧胆酸片": 7744,
      "等典型症状": 7745,
      "脊髓栓系": 7746,
      "长了一个肉疙瘩": 7747,
      "组织学特征": 7748,
      "通过小切口进行": 7749,
      "避免便秘或腹泻": 7750,
      "保持健康的生活方式": 7751,
      "建议患者定期进行肛门指诊": 7752,
      "是一种有效的": 7753,
      "转移到颈部淋巴结": 7754,
      "放射线暴露": 7755,
      "特定穴位刺激": 7756,
      "造成一定的损伤": 7757,
      "可用于控制EB病毒感染": 7758,
      "扩散到其他部位": 7759,
      "内镜下息肉电切除术": 7760,
      "通过手术直接移除病变组织": 7761,
      "乳腺导管扩张症": 7762,
      "齿状线以下肛管皮肤层": 7763,
      "40岁以上": 7764,
      "不痛不痒": 7765,
      "其发生可能与": 7766,
      "出汗增多": 7767,
      "将硬化剂如": 7768,
      "峡部甲状腺结节": 7769,
      "广谱抗生素": 7770,
      "描述为": 7771,
      "早晨起床": 7772,
      "烧灼感": 7773,
      "物理疗法": 7774,
      "盲肠肿瘤": 7775,
      "经括约肌注射肉毒素": 7776,
      "胆总管切开取石": 7777,
      "胶圈套扎": 7778,
      "脑垂体问题": 7779,
      "蔬菜水果": 7780,
      "进行专业评估": 7781,
      "周围血管病": 7782,
      "以及必要时的": 7783,
      "大便干燥坚硬": 7784,
      "适合所有类型的": 7785,
      "免疫系统异常反应": 7786,
      "外伤后血管狭窄": 7787,
      "会对周围组织产生压迫和刺激": 7788,
      "传统开放式手术等": 7789,
      "肺动脉狭窄球囊扩张": 7790,
      "无论选择哪种治疗方法": 7791,
      "血管内皮瘤": 7792,
      "托瑞米芬等": 7793,
      "真空辅助微创旋切术": 7794,
      "72小时之间": 7795,
      "前往医院": 7796,
      "各项检查": 7797,
      "含漱液": 7798,
      "喉返神经": 7799,
      "坐着不动": 7800,
      "大气污染": 7801,
      "定时排便": 7802,
      "毛囊炎": 7803,
      "特制的": 7804,
      "直径小于": 7805,
      "硝酸甘油": 7806,
      "碘是合成甲状腺激素的重要": 7807,
      "胶原蛋白": 7808,
      "钠胶囊等氨基水杨酸类药物": 7809,
      "高钙食物": 7810,
      "疼痛一般集中在": 7811,
      "保持充足的水分摄入": 7812,
      "持续数分钟": 7813,
      "甲状腺结节消融术": 7814,
      "压痛点通常位于": 7815,
      "乳腺纤维瘤通常由乳腺": 7816,
      "幽门螺旋杆菌": 7817,
      "特定波长光源": 7818,
      "环境因素以及免疫因素共同作用": 7819,
      "饮食方面宜清淡": 7820,
      "枕大池囊肿": 7821,
      "如规律作息和适量运动": 7822,
      "双歧杆菌三联活菌": 7823,
      "奥沙拉秦钠胶囊等氨基水杨酸类药物": 7824,
      "下丘脑": 7825,
      "丝虫病": 7826,
      "乳果糖": 7827,
      "产气食物": 7828,
      "介导的": 7829,
      "体显性遗传": 7830,
      "体育锻炼": 7831,
      "依达拉奉": 7832,
      "儿茶酚胺": 7833,
      "克林霉素": 7834,
      "内源性致热": 7835,
      "冲击波": 7836,
      "华法林": 7837,
      "右美沙芬": 7838,
      "后脑勺": 7839,
      "吡嗪酰胺": 7840,
      "听神经瘤": 7841,
      "嗜酸性肉芽肿性血管炎": 7842,
      "因体位改变": 7843,
      "在一定程度上": 7844,
      "塞来昔布": 7845,
      "如金银花": 7846,
      "富马酸": 7847,
      "常染色体显性遗传": 7848,
      "抗核抗体": 7849,
      "猕猴桃": 7850,
      "研磨成": 7851,
      "经颈静脉肝内": 7852,
      "舌扁桃体肥大": 7853,
      "舌根部恶性肿瘤": 7854,
      "荨麻疹": 7855,
      "金黄色葡萄球菌": 7856,
      "阿苯达唑": 7857,
      "甲状腺脖子粗": 7858,
      "甲状腺2类结节": 7859,
      "甲状腺等回声结节": 7860,
      "建议每年至少进行一次": 7861,
      "饮食疗法调整": 7862,
      "的治疗需个体化评估": 7863,
      "肠道微生态环境": 7864,
      "长期大面积使用": 7865,
      "肛裂并形成哨兵痔": 7866,
      "内分泌调节药物": 7867,
      "乳腺增生是由于内分泌失调导致雌激素和": 7868,
      "食管化学性烧伤": 7869,
      "肛门括约肌紧缩术": 7870,
      "之间的异常通道": 7871,
      "肝内多发小低密度灶": 7872,
      "女性肛门处长了一个肉疙瘩": 7873,
      "建议及时就医进行进一步的检查和治疗": 7874,
      "遗传性球形红细胞增多症": 7875,
      "停止排气排便": 7876,
      "醋酸甲羟孕酮": 7877,
      "腹腔脓肿的痊愈时间": 7878,
      "可能呈间歇性或持续性": 7879,
      "多囊肝多囊肾": 7880,
      "30分钟至1小时之间": 7881,
      "环境因素以及免疫因素共同作用的结果": 7882,
      "经颈静脉肝内门体分流术": 7883,
      "15": 7884,
      "1cm": 7885,
      "14天": 7886,
      "2天": 7887,
      "3天": 7888,
      "3级": 7889,
      "5天": 7890,
      "B细胞": 7891,
      "DS": 7892,
      "HER": 7893,
      "PD": 7894,
      "T4": 7895,
      "T细胞": 7896,
      "β受体": 7897,
      "一小": 7898,
      "一直": 7899,
      "一并切除": 7900,
      "上黏膜": 7901,
      "上脂肪瘤": 7902,
      "上消化道": 7903,
      "下将": 7904,
      "下方": 7905,
      "下来": 7906,
      "下腹部压痛": 7907,
      "不到": 7908,
      "不手术": 7909,
      "不建议": 7910,
      "不改善": 7911,
      "不完全": 7912,
      "不必要的": 7913,
      "不耐受": 7914,
      "不正确": 7915,
      "不抽烟": 7916,
      "与治疗": 7917,
      "与特定波长光源": 7918,
      "专门": 7919,
      "且有": 7920,
      "且难以": 7921,
      "且富含": 7922,
      "丙酚": 7923,
      "东西": 7924,
      "两种": 7925,
      "个性": 7926,
      "中益": 7927,
      "中存在": 7928,
      "中医师": 7929,
      "为恶性肿瘤": 7930,
      "为特征": 7931,
      "之前": 7932,
      "之外": 7933,
      "乙型": 7934,
      "乙醇": 7935,
      "也可能导致": 7936,
      "也会引起": 7937,
      "也不会": 7938,
      "也是必要的": 7939,
      "乳素": 7940,
      "了会": 7941,
      "了多个": 7942,
      "二醇": 7943,
      "二联活菌": 7944,
      "于粪便": 7945,
      "产物": 7946,
      "仅有": 7947,
      "从轻微": 7948,
      "从肛门突出": 7949,
      "从黏膜表面突出": 7950,
      "以进行": 7951,
      "以改善": 7952,
      "以调整": 7953,
      "以观察": 7954,
      "以恢复正常": 7955,
      "以解除": 7956,
      "会启": 7957,
      "会得": 7958,
      "会压迫": 7959,
      "会产生": 7960,
      "会聚集": 7961,
      "会促使": 7962,
      "但需要": 7963,
      "但仍需": 7964,
      "低脂": 7965,
      "体操": 7966,
      "体表": 7967,
      "使机体": 7968,
      "使痔核": 7969,
      "使患者出现": 7970,
      "使体温": 7971,
      "供氧": 7972,
      "侵蚀": 7973,
      "保留": 7974,
      "假肠梗阻": 7975,
      "假小叶": 7976,
      "做完": 7977,
      "偶尔": 7978,
      "充盈": 7979,
      "入侵": 7980,
      "全程": 7981,
      "全麻": 7982,
      "全部或": 7983,
      "公英": 7984,
      "共用": 7985,
      "关系": 7986,
      "其对": 7987,
      "其性质": 7988,
      "其表面": 7989,
      "其具有清热解毒": 7990,
      "具备": 7991,
      "内耳": 7992,
      "内镜检查": 7993,
      "内引流术": 7994,
      "冲动": 7995,
      "决策": 7996,
      "准备": 7997,
      "减肥": 7998,
      "凝固": 7999,
      "出生": 8000,
      "出脓": 8001,
      "则建议": 8002,
      "则病情": 8003,
      "则可能会": 8004,
      "则无需": 8005,
      "则无需特殊处理": 8006,
      "利嗪": 8007,
      "到神经": 8008,
      "到医院": 8009,
      "到乳房侧面": 8010,
      "制食品": 8011,
      "剂如": 8012,
      "前者": 8013,
      "前病变": 8014,
      "剥离": 8015,
      "力减退": 8016,
      "加压": 8017,
      "加工": 8018,
      "加深": 8019,
      "动基因突变": 8020,
      "努力": 8021,
      "包皮": 8022,
      "包膜": 8023,
      "包裹": 8024,
      "半结肠": 8025,
      "卧位": 8026,
      "卧床": 8027,
      "卷心": 8028,
      "厄洛": 8029,
      "原料": 8030,
      "原发病": 8031,
      "参与": 8032,
      "及疼痛": 8033,
      "及不适感": 8034,
      "及术后恢复期": 8035,
      "及淋巴结炎治疗": 8036,
      "双叶": 8037,
      "反映": 8038,
      "发红": 8039,
      "变薄": 8040,
      "可刺激": 8041,
      "可影响": 8042,
      "可促进": 8043,
      "可减轻": 8044,
      "可发现": 8045,
      "可在医生指导下": 8046,
      "可伴随": 8047,
      "可降低": 8048,
      "史者": 8049,
      "右心": 8050,
      "各处": 8051,
      "各异": 8052,
      "吉非": 8053,
      "后会": 8054,
      "后者": 8055,
      "后背": 8056,
      "后使用": 8057,
      "吐血": 8058,
      "向上": 8059,
      "向外": 8060,
      "向其他部位": 8061,
      "听觉": 8062,
      "呈现": 8063,
      "呈鲜红色": 8064,
      "周之间": 8065,
      "和组织": 8066,
      "和肿大": 8067,
      "和直肠": 8068,
      "和干预": 8069,
      "和是否有": 8070,
      "和副作用": 8071,
      "和股疝": 8072,
      "和气体": 8073,
      "和卵巢": 8074,
      "和排泄": 8075,
      "和坏死组织": 8076,
      "和行为": 8077,
      "和电解质": 8078,
      "和足部": 8079,
      "喉咙": 8080,
      "喝西洋参": 8081,
      "器痔": 8082,
      "噪音": 8083,
      "囊液": 8084,
      "囊腹腔镜手术": 8085,
      "四脑室": 8086,
      "回收": 8087,
      "固涩": 8088,
      "土色": 8089,
      "在手术": 8090,
      "在受到": 8091,
      "在行走时": 8092,
      "在全麻": 8093,
      "地高": 8094,
      "坐立": 8095,
      "坚果": 8096,
      "塞露": 8097,
      "增宽": 8098,
      "壁合成": 8099,
      "壁增厚": 8100,
      "处缺血": 8101,
      "外部": 8102,
      "外引流术": 8103,
      "多余": 8104,
      "多处": 8105,
      "多数": 8106,
      "多血": 8107,
      "多表现为": 8108,
      "多西环素": 8109,
      "大吗": 8110,
      "大约": 8111,
      "大手术": 8112,
      "大多数": 8113,
      "天溪": 8114,
      "夫西": 8115,
      "失明": 8116,
      "头皮下脂肪瘤": 8117,
      "如5": 8118,
      "如此": 8119,
      "如焦": 8120,
      "如肝": 8121,
      "如发现": 8122,
      "如肛裂": 8123,
      "如口服": 8124,
      "如肠梗阻": 8125,
      "如小肠": 8126,
      "如溃疡性结肠炎": 8127,
      "如腹腔镜下": 8128,
      "如马应龙麝香痔疮膏": 8129,
      "如异烟肼": 8130,
      "如海带": 8131,
      "如利多卡因": 8132,
      "如戒烟限酒": 8133,
      "如左旋甲状腺素钠片": 8134,
      "如游泳": 8135,
      "如X线平片": 8136,
      "如柴胡": 8137,
      "妇科": 8138,
      "始于": 8139,
      "宁片": 8140,
      "安静": 8141,
      "宜选用": 8142,
      "室内": 8143,
      "宽松": 8144,
      "对其": 8145,
      "对待": 8146,
      "对症": 8147,
      "对疼痛": 8148,
      "对局部": 8149,
      "对痔疮": 8150,
      "对机体": 8151,
      "寻常": 8152,
      "寻求": 8153,
      "导水": 8154,
      "将金": 8155,
      "就有": 8156,
      "尼莫": 8157,
      "尿路": 8158,
      "尿酸": 8159,
      "属网": 8160,
      "巧囊腹腔镜手术": 8161,
      "带来": 8162,
      "常在": 8163,
      "常出现在": 8164,
      "并不": 8165,
      "并按": 8166,
      "并由": 8167,
      "并进行": 8168,
      "并出现": 8169,
      "并发生": 8170,
      "并可能导致": 8171,
      "并在医生指导下": 8172,
      "并获得": 8173,
      "并逐渐": 8174,
      "并破坏": 8175,
      "并由专业": 8176,
      "并提供": 8177,
      "并及时就医进行": 8178,
      "床上": 8179,
      "库欣": 8180,
      "应激": 8181,
      "应保持": 8182,
      "应评估": 8183,
      "应积极": 8184,
      "应严格": 8185,
      "应密切监测病情变化": 8186,
      "应首先": 8187,
      "底水肿": 8188,
      "开水": 8189,
      "开塞露": 8190,
      "异味": 8191,
      "当梗阻": 8192,
      "当结石": 8193,
      "当瘤体": 8194,
      "当粪便通过": 8195,
      "当保守治疗无效且": 8196,
      "很难": 8197,
      "微循环": 8198,
      "心肌": 8199,
      "怀疑": 8200,
      "性状": 8201,
      "性功能": 8202,
      "性反应": 8203,
      "性息肉": 8204,
      "性神经末梢": 8205,
      "性动静脉瘘": 8206,
      "患侧": 8207,
      "患肺癌的风险": 8208,
      "情感": 8209,
      "意义": 8210,
      "慢跑": 8211,
      "成年": 8212,
      "或不": 8213,
      "或在": 8214,
      "或更": 8215,
      "或手术": 8216,
      "或需要": 8217,
      "或抑制": 8218,
      "或剧烈运动": 8219,
      "或肌肉": 8220,
      "或破裂": 8221,
      "或液体": 8222,
      "或缺损": 8223,
      "或穿刺活检": 8224,
      "或克罗恩病": 8225,
      "或钝痛": 8226,
      "或枕部": 8227,
      "或缺失": 8228,
      "或合并症的患者": 8229,
      "所需": 8230,
      "所诱发": 8231,
      "手部": 8232,
      "手颤": 8233,
      "扎术": 8234,
      "打击": 8235,
      "承受": 8236,
      "抗原": 8237,
      "抗癌": 8238,
      "抗肿瘤": 8239,
      "抗组胺": 8240,
      "抵御": 8241,
      "拭肛门": 8242,
      "拮抗": 8243,
      "指示": 8244,
      "排列": 8245,
      "探查": 8246,
      "接近": 8247,
      "推回": 8248,
      "播散": 8249,
      "擦伤": 8250,
      "擦拭肛门": 8251,
      "支配": 8252,
      "放电": 8253,
      "散热": 8254,
      "散结": 8255,
      "新生": 8256,
      "方向": 8257,
      "无关": 8258,
      "无并发症": 8259,
      "无特殊": 8260,
      "早熟": 8261,
      "时的": 8262,
      "时针": 8263,
      "易于": 8264,
      "易消化": 8265,
      "易诱发": 8266,
      "易消化的食物": 8267,
      "是怎么": 8268,
      "是源于": 8269,
      "是至关重要": 8270,
      "是恶性的": 8271,
      "是通过外科手术": 8272,
      "是常用的治疗方法": 8273,
      "更加": 8274,
      "有氧": 8275,
      "有较好": 8276,
      "有经验": 8277,
      "机断层扫描": 8278,
      "杀菌": 8279,
      "来减轻": 8280,
      "来辅助": 8281,
      "来对抗": 8282,
      "来发挥作用": 8283,
      "松解": 8284,
      "极低": 8285,
      "枯草": 8286,
      "柔比": 8287,
      "核素": 8288,
      "根除": 8289,
      "桂醇": 8290,
      "梅毒": 8291,
      "横结肠": 8292,
      "止咳": 8293,
      "止泻": 8294,
      "此法": 8295,
      "此之外": 8296,
      "每天": 8297,
      "毒症": 8298,
      "气血流": 8299,
      "氨苄": 8300,
      "水温": 8301,
      "水袋": 8302,
      "水飞": 8303,
      "汽化": 8304,
      "沉速": 8305,
      "沙哑": 8306,
      "沟通": 8307,
      "泌乳素": 8308,
      "泡水": 8309,
      "泵血": 8310,
      "泻药": 8311,
      "活组织": 8312,
      "流量": 8313,
      "浅层": 8314,
      "浓缩": 8315,
      "消瘦": 8316,
      "液腺": 8317,
      "淤血": 8318,
      "深静脉曲张": 8319,
      "添加": 8320,
      "清洗": 8321,
      "温升高": 8322,
      "溶血": 8323,
      "滋生": 8324,
      "激动": 8325,
      "灼伤": 8326,
      "灼术": 8327,
      "炎症状态": 8328,
      "炎及淋巴结炎治疗": 8329,
      "炔诺": 8330,
      "热的食物": 8331,
      "热水袋": 8332,
      "片等药物进行治疗": 8333,
      "率测定": 8334,
      "甘露": 8335,
      "生菌": 8336,
      "用品": 8337,
      "由细菌": 8338,
      "由细菌感染引起的": 8339,
      "甲功": 8340,
      "甲胎": 8341,
      "疝内容物": 8342,
      "病等": 8343,
      "痔块": 8344,
      "痔速": 8345,
      "痔的发生": 8346,
      "痔的风险": 8347,
      "痛风": 8348,
      "瘘术": 8349,
      "癌风险": 8350,
      "白陶": 8351,
      "白蛋白": 8352,
      "的一": 8353,
      "的反应": 8354,
      "的饮食": 8355,
      "的处理": 8356,
      "的皮肤": 8357,
      "的预防": 8358,
      "的状况": 8359,
      "的过程": 8360,
      "的血管瘤": 8361,
      "的状态": 8362,
      "的效果": 8363,
      "的物质": 8364,
      "的甲状腺激素": 8365,
      "的吸收": 8366,
      "的液体": 8367,
      "的操作": 8368,
      "的癌症": 8369,
      "的小型": 8370,
      "的肝囊肿": 8371,
      "的致癌": 8372,
      "的典型表现为": 8373,
      "的标准": 8374,
      "的直肠黏膜脱垂": 8375,
      "的特点": 8376,
      "的机会": 8377,
      "的典型症状包括": 8378,
      "的肾结石": 8379,
      "皮温升高": 8380,
      "益生菌": 8381,
      "盐分": 8382,
      "监督": 8383,
      "监视下": 8384,
      "盲目": 8385,
      "眼白": 8386,
      "眼睛": 8387,
      "眼底水肿": 8388,
      "石术": 8389,
      "硝苯": 8390,
      "硫酸": 8391,
      "硬脑膜": 8392,
      "碎石术": 8393,
      "碱等": 8394,
      "磷酸钠": 8395,
      "禁止": 8396,
      "稀释": 8397,
      "穴等": 8398,
      "空洞": 8399,
      "空间": 8400,
      "穿戴": 8401,
      "第四脑室": 8402,
      "等表现": 8403,
      "等结构": 8404,
      "等部位": 8405,
      "等以评估": 8406,
      "等区域": 8407,
      "等位置": 8408,
      "等有关": 8409,
      "等多种": 8410,
      "等影像学检查": 8411,
      "等以评估病情": 8412,
      "等抗生素类药物": 8413,
      "等化学药物": 8414,
      "等富含膳食纤维的食物": 8415,
      "算机断层扫描": 8416,
      "类似": 8417,
      "类药膏": 8418,
      "粉后加": 8419,
      "粘液腺": 8420,
      "紫色": 8421,
      "约1": 8422,
      "级别": 8423,
      "纵行": 8424,
      "线中": 8425,
      "组成": 8426,
      "细粉后加": 8427,
      "终身": 8428,
      "经络": 8429,
      "绝症": 8430,
      "绝经": 8431,
      "缺碘": 8432,
      "缺铁": 8433,
      "者慎用": 8434,
      "而来": 8435,
      "而非": 8436,
      "而产生": 8437,
      "而直肠癌": 8438,
      "而对于较大的": 8439,
      "耳漏": 8440,
      "聚桂醇": 8441,
      "肝上": 8442,
      "肝肾功能": 8443,
      "肝活组织": 8444,
      "肠段": 8445,
      "肠胃": 8446,
      "肠通便": 8447,
      "肺组织": 8448,
      "肺源性": 8449,
      "肺通气": 8450,
      "肾肿瘤": 8451,
      "胀满感": 8452,
      "胃液": 8453,
      "胃扩张": 8454,
      "胃排空": 8455,
      "胆盐": 8456,
      "胆绞痛": 8457,
      "胡萝": 8458,
      "胸壁": 8459,
      "能否": 8460,
      "能增加": 8461,
      "能减轻": 8462,
      "能抑制": 8463,
      "脂质": 8464,
      "脏腑": 8465,
      "脐周": 8466,
      "脐炎": 8467,
      "脑病": 8468,
      "脑损伤": 8469,
      "脑缺血": 8470,
      "脑体积增大": 8471,
      "脑垂体腺瘤": 8472,
      "脑实质": 8473,
      "脑供血不足": 8474,
      "脓肿大小": 8475,
      "脸上脂肪瘤": 8476,
      "脾大": 8477,
      "腌制食品": 8478,
      "腱鞘瘤": 8479,
      "膨胀": 8480,
      "臀部": 8481,
      "舌骨": 8482,
      "舒缓": 8483,
      "节食": 8484,
      "若为": 8485,
      "若有": 8486,
      "若未": 8487,
      "若经": 8488,
      "若存在": 8489,
      "若患者的": 8490,
      "若位于": 8491,
      "若未及时处理": 8492,
      "若结节增大或伴有": 8493,
      "草莓": 8494,
      "药以及": 8495,
      "莫沙必利": 8496,
      "蒲公英": 8497,
      "蓟宾": 8498,
      "虫药物进行治疗": 8499,
      "虾皮": 8500,
      "蛲虫": 8501,
      "螺旋": 8502,
      "血磷": 8503,
      "血沉速": 8504,
      "衣原体": 8505,
      "补颅骨": 8506,
      "补中益": 8507,
      "表达": 8508,
      "被堵塞": 8509,
      "被充分": 8510,
      "角度": 8511,
      "触碰": 8512,
      "计算机断层扫描": 8513,
      "记忆": 8514,
      "调制成": 8515,
      "败血症": 8516,
      "走神经": 8517,
      "路径": 8518,
      "跳动": 8519,
      "轴的功能": 8520,
      "轻者": 8521,
      "过快": 8522,
      "过早": 8523,
      "过硬": 8524,
      "还纳": 8525,
      "还可能会": 8526,
      "还可能引起": 8527,
      "还可能伴有疼痛": 8528,
      "这是一种": 8529,
      "这类药物": 8530,
      "这可能是由于": 8531,
      "这主要是因为": 8532,
      "进肛门": 8533,
      "迟缓": 8534,
      "迷走神经": 8535,
      "退化": 8536,
      "适应": 8537,
      "逆流入": 8538,
      "递质": 8539,
      "造血": 8540,
      "造瘘术": 8541,
      "遗症": 8542,
      "配制": 8543,
      "酚丁胺": 8544,
      "酸类药物": 8545,
      "重物": 8546,
      "量等方式": 8547,
      "钙盐": 8548,
      "钠离子": 8549,
      "铋胶囊等": 8550,
      "锌软膏": 8551,
      "镇静": 8552,
      "镜取石": 8553,
      "长短": 8554,
      "长肉疙瘩": 8555,
      "闭经": 8556,
      "阴道": 8557,
      "限于": 8558,
      "除此之外": 8559,
      "随后": 8560,
      "需及时": 8561,
      "需在专业": 8562,
      "需由经验丰富的": 8563,
      "震荡": 8564,
      "非处方": 8565,
      "项目": 8566,
      "顺铂等": 8567,
      "顺时针": 8568,
      "须监测": 8569,
      "颅神经": 8570,
      "频声波": 8571,
      "额部": 8572,
      "饱和": 8573,
      "饱胀": 8574,
      "驱动基因突变": 8575,
      "骨骼": 8576,
      "高草酸": 8577,
      "高嘌呤": 8578,
      "高泌乳素": 8579,
      "鲜血": 8580,
      "黄染": 8581,
      "黄连": 8582,
      "鼓室": 8583,
      "鼻蝶": 8584,
      "治疗过程": 8585,
      "治疗等方法": 8586,
      "治疗通常包括": 8587,
      "治疗难度": 8588,
      "可能需": 8589,
      "可能增加": 8590,
      "可能压迫": 8591,
      "可能引发": 8592,
      "可能不会": 8593,
      "可能表明": 8594,
      "可能发生的": 8595,
      "患者需": 8596,
      "患者日常生活中": 8597,
      "患者身体状况": 8598,
      "患者还可能出现": 8599,
      "患者而言": 8600,
      "患者会感到": 8601,
      "症状为": 8602,
      "症状之一": 8603,
      "症状没有改善": 8604,
      "导致甲状腺": 8605,
      "导致疼痛": 8606,
      "导致淋巴结": 8607,
      "导致腹部": 8608,
      "导致呕吐": 8609,
      "导致肛门括约肌": 8610,
      "导致腹腔内": 8611,
      "导致排便困难": 8612,
      "导致淋巴结出现": 8613,
      "导致液体积聚": 8614,
      "导致气体积聚": 8615,
      "导致胃内容物": 8616,
      "导致淋巴细胞增生和": 8617,
      "引起疼痛": 8618,
      "引起并发症": 8619,
      "引起明显": 8620,
      "引起乳腺组织过度生长": 8621,
      "进行化疗": 8622,
      "进行进一步检查": 8623,
      "进行精准": 8624,
      "手术时": 8625,
      "手术包括": 8626,
      "手术的风险": 8627,
      "手术过程": 8628,
      "手术联合": 8629,
      "手术复杂性": 8630,
      "手术是治疗": 8631,
      "手术器械": 8632,
      "甲状舌骨": 8633,
      "甲状腺囊肿": 8634,
      "甲状腺多发": 8635,
      "甲状腺细针": 8636,
      "甲状腺细针穿刺活检": 8637,
      "甲状腺过度活跃": 8638,
      "甲状腺双叶": 8639,
      "甲状腺核素": 8640,
      "组织的": 8641,
      "组织分析": 8642,
      "建议就医": 8643,
      "建议密切观察": 8644,
      "建议立即就医": 8645,
      "建议密切监测病情变化": 8646,
      "疼痛等": 8647,
      "疼痛程度": 8648,
      "药物可以": 8649,
      "药物进行抗感染治疗": 8650,
      "药物进行缓解": 8651,
      "药物局部注射": 8652,
      "肛门内": 8653,
      "肛门不适症状": 8654,
      "肛门肌肉": 8655,
      "肛门坐浴": 8656,
      "肛门息肉切除术": 8657,
      "肛门边缘": 8658,
      "肛门检查以及": 8659,
      "肛门失禁": 8660,
      "肛门长肉疙瘩": 8661,
      "出现了": 8662,
      "出现感染": 8663,
      "出现周期": 8664,
      "通过减少": 8665,
      "通过增加": 8666,
      "通过肠道": 8667,
      "通过切开": 8668,
      "通过结肠镜检查": 8669,
      "通过提肛运动": 8670,
      "通过内窥镜": 8671,
      "感染等": 8672,
      "感染的情况": 8673,
      "通常使用": 8674,
      "通常始于": 8675,
      "发生的风险": 8676,
      "发生扭转": 8677,
      "乳腺切除术": 8678,
      "乳腺按摩": 8679,
      "肿瘤性质": 8680,
      "肿瘤体积增大": 8681,
      "肿瘤侵犯周围组织": 8682,
      "针对恶性肿瘤": 8683,
      "针对甲状腺肿大": 8684,
      "针对肛周脓肿": 8685,
      "针对结核病": 8686,
      "针对乳腺纤维瘤": 8687,
      "针对非霍奇金淋巴瘤": 8688,
      "针对脑垂体瘤": 8689,
      "情况而定": 8690,
      "可以促进": 8691,
      "可以遵医嘱": 8692,
      "可以涂抹": 8693,
      "可以促进局部血液循环": 8694,
      "可以直接观察": 8695,
      "避免感染": 8696,
      "避免局部": 8697,
      "避免长期": 8698,
      "避免摄入": 8699,
      "避免刺激性食物": 8700,
      "避免熬夜": 8701,
      "避免暴露于": 8702,
      "检查手段": 8703,
      "检查床上": 8704,
      "及时手术切除": 8705,
      "引起的症状": 8706,
      "引起的局部": 8707,
      "引起的不适": 8708,
      "引起的头痛": 8709,
      "引起的轻微": 8710,
      "引起的消化道": 8711,
      "引起的脾肿大": 8712,
      "引起的继发性": 8713,
      "引起的直肠炎症反应": 8714,
      "疾病进展": 8715,
      "功能衰竭": 8716,
      "使用抗生素": 8717,
      "使用具有": 8718,
      "对于恶性肿瘤": 8719,
      "对于乳腺增生": 8720,
      "对于早期发现": 8721,
      "对于肝硬化": 8722,
      "对于乳腺纤维瘤": 8723,
      "对于肝癌": 8724,
      "对于较小的": 8725,
      "对于轻微的": 8726,
      "对于肠梗阻的患者": 8727,
      "对于此类患者": 8728,
      "需要更": 8729,
      "需要定期复查": 8730,
      "需要休息": 8731,
      "需要结合": 8732,
      "需要综合考虑": 8733,
      "切除术后": 8734,
      "定期运动": 8735,
      "定期清洁": 8736,
      "细胞学检查": 8737,
      "细胞过度生长": 8738,
      "细胞异常增殖": 8739,
      "细胞壁合成": 8740,
      "淋巴结炎症": 8741,
      "淋巴结切除术": 8742,
      "淋巴结结核": 8743,
      "淋巴结或其他": 8744,
      "淋巴结的变化": 8745,
      "淋巴结硬度增加": 8746,
      "刺激了": 8747,
      "刺激肠道": 8748,
      "刺激作用": 8749,
      "形成结节": 8750,
      "形成血栓": 8751,
      "形成假小叶": 8752,
      "由于肠道": 8753,
      "由于痔疮": 8754,
      "由于炎症反应": 8755,
      "由于胆汁": 8756,
      "由于血液中": 8757,
      "由于致病菌": 8758,
      "血管细": 8759,
      "血管组织": 8760,
      "血管收缩和": 8761,
      "血管成形术": 8762,
      "血管神经紊乱": 8763,
      "结节或": 8764,
      "结节为良性": 8765,
      "局部用药": 8766,
      "包括但不": 8767,
      "增生或": 8768,
      "主要发生在": 8769,
      "主要原因是": 8770,
      "保持肛门": 8771,
      "保持伤口": 8772,
      "保持均衡饮食": 8773,
      "保持充足睡眠": 8774,
      "注意观察": 8775,
      "出血及": 8776,
      "出血和": 8777,
      "出血的情况发生": 8778,
      "腹部增大": 8779,
      "激素失衡": 8780,
      "评估风险": 8781,
      "减少组织": 8782,
      "变化情况": 8783,
      "用于预防": 8784,
      "用于急性": 8785,
      "食物摄入": 8786,
      "食物并不能": 8787,
      "存在其他": 8788,
      "血液凝固性": 8789,
      "血液或淋巴系统": 8790,
      "血液呈鲜红色": 8791,
      "周围区域": 8792,
      "周围动脉栓塞": 8793,
      "监测任何": 8794,
      "监测淋巴结的变化": 8795,
      "肿大的原因": 8796,
      "如果肿瘤": 8797,
      "如果只是": 8798,
      "如果症状没有改善": 8799,
      "缓解由": 8800,
      "缓解疼痛和肿胀": 8801,
      "可能会增加": 8802,
      "可能会引发": 8803,
      "可能会诱发": 8804,
      "可能会发展成": 8805,
      "可能会侵犯周围的": 8806,
      "进而刺激": 8807,
      "进而产生": 8808,
      "进而表现为": 8809,
      "进而发展为": 8810,
      "进而促使": 8811,
      "因素如": 8812,
      "这些肿瘤": 8813,
      "这些结节": 8814,
      "这些激素": 8815,
      "这些病变": 8816,
      "这些部位": 8817,
      "这些细菌": 8818,
      "这些因子": 8819,
      "这些免疫球蛋白": 8820,
      "这些微生物": 8821,
      "以及体重减轻": 8822,
      "以及患者的全身状况": 8823,
      "神经营养": 8824,
      "神经内镜下": 8825,
      "神经鞘瘤": 8826,
      "神经阻滞": 8827,
      "神经腱鞘瘤": 8828,
      "神经递质": 8829,
      "可能导致大便": 8830,
      "可能导致头痛": 8831,
      "可能导致病情恶化": 8832,
      "息肉增大": 8833,
      "息肉的风险": 8834,
      "息肉大小": 8835,
      "直肠内": 8836,
      "直肠静脉丛": 8837,
      "直肠指诊": 8838,
      "饮食上": 8839,
      "饮食中的": 8840,
      "的治疗效果": 8841,
      "的治疗需密切监测": 8842,
      "的治疗取决于其": 8843,
      "的治疗决策": 8844,
      "促进身体恢复": 8845,
      "促进新陈代谢": 8846,
      "促进疾病恢复": 8847,
      "增加运动": 8848,
      "增加腹压": 8849,
      "的症状可能包括": 8850,
      "静脉血": 8851,
      "会导致铁": 8852,
      "会导致体内": 8853,
      "会导致肛管": 8854,
      "会导致肝细胞": 8855,
      "会导致声带": 8856,
      "术后康复": 8857,
      "术后恢复正常": 8858,
      "病变胆囊": 8859,
      "病变区域": 8860,
      "病变位置": 8861,
      "病变性质": 8862,
      "病变累及": 8863,
      "恶性的可能性": 8864,
      "恶性淋巴细胞": 8865,
      "恶性倾向": 8866,
      "腹腔压力": 8867,
      "腹腔分流术": 8868,
      "腹腔灌洗": 8869,
      "压迫了": 8870,
      "压迫止血": 8871,
      "压迫延髓": 8872,
      "方式进行治疗": 8873,
      "同时还会": 8874,
      "同时还需要": 8875,
      "脂肪抽吸": 8876,
      "免疫疗法": 8877,
      "免疫抑制": 8878,
      "免疫抑制剂": 8879,
      "处理较小": 8880,
      "处理以防止": 8881,
      "肠道壁": 8882,
      "肠道运动": 8883,
      "肠道梗阻": 8884,
      "肠道发育异常": 8885,
      "肠道受压": 8886,
      "排便不畅": 8887,
      "排便频率": 8888,
      "排便次数": 8889,
      "排便时间延长": 8890,
      "排便不尽": 8891,
      "以免因": 8892,
      "以免导致": 8893,
      "以免出现": 8894,
      "以免造成": 8895,
      "诊断并接受适当治疗": 8896,
      "黏膜及": 8897,
      "黏膜受损": 8898,
      "皮肤改变": 8899,
      "皮肤黄疸": 8900,
      "皮肤温度": 8901,
      "皮肤屏障": 8902,
      "皮肤完整性受损": 8903,
      "可能是淋巴结炎": 8904,
      "可能是外痔": 8905,
      "可能是阑尾炎": 8906,
      "其他基础疾病": 8907,
      "痔疮的症状": 8908,
      "痔疮溃疡": 8909,
      "患者应遵循医嘱": 8910,
      "患者应定期监测": 8911,
      "有助于降低": 8912,
      "有助于增强": 8913,
      "有助于维持": 8914,
      "有助于控制病情发展": 8915,
      "定期复查以评估": 8916,
      "定期复查是非常必要的": 8917,
      "纤维支气管镜检查": 8918,
      "结构是否正常": 8919,
      "胆管肿瘤": 8920,
      "胆管造影": 8921,
      "建议患者在医生指导下": 8922,
      "建议患者避免食用辛辣刺激性食物": 8923,
      "手术切除后": 8924,
      "手术切除是主要的治疗方法": 8925,
      "持续的": 8926,
      "持续不缓解": 8927,
      "正常功能": 8928,
      "正常现象": 8929,
      "正常情况下": 8930,
      "正常范围": 8931,
      "保持良好的口腔卫生": 8932,
      "过度松弛": 8933,
      "过度用力排便": 8934,
      "长期的": 8935,
      "长期食用": 8936,
      "长期肛裂": 8937,
      "长期服用": 8938,
      "作用下": 8939,
      "呕吐的症状": 8940,
      "引发头痛": 8941,
      "产生过多": 8942,
      "产生足够的": 8943,
      "抗生素进行治疗": 8944,
      "抗生素类药膏": 8945,
      "专业医疗": 8946,
      "身体任何": 8947,
      "身体条件": 8948,
      "以便评估风险": 8949,
      "分泌过多": 8950,
      "损伤时": 8951,
      "怎么处理": 8952,
      "在医生指导下通过": 8953,
      "在医生指导下口服": 8954,
      "改善血液循环": 8955,
      "改善不适症状": 8956,
      "改善便秘症状": 8957,
      "的发生率": 8958,
      "梗阻时": 8959,
      "蛋白检测": 8960,
      "乳房不适": 8961,
      "乳房大小": 8962,
      "乳房组织结构": 8963,
      "压力袜": 8964,
      "慢性肠梗阻": 8965,
      "慢性阑尾炎": 8966,
      "慢性阻塞": 8967,
      "慢性浅表": 8968,
      "慢性咽炎": 8969,
      "因为它们": 8970,
      "生长缓慢": 8971,
      "生长迅速": 8972,
      "生长繁殖": 8973,
      "生长来控制感染": 8974,
      "剧烈头痛": 8975,
      "适用于急性": 8976,
      "适用于小型": 8977,
      "淋巴结肿大的情况": 8978,
      "患者的皮肤": 8979,
      "患者的病情变化": 8980,
      "细菌性": 8981,
      "细菌性肝脓肿": 8982,
      "细菌滋生": 8983,
      "肺癌吗": 8984,
      "肺癌外": 8985,
      "肺癌患者的": 8986,
      "肺癌脑转移": 8987,
      "等药物进行抗感染治疗": 8988,
      "等药物减轻炎症反应": 8989,
      "预防结石": 8990,
      "愈合过程": 8991,
      "以评估囊肿大小": 8992,
      "因此需要": 8993,
      "食用加碘盐": 8994,
      "控制饮食和": 8995,
      "遵医嘱采用": 8996,
      "会引起局部组织": 8997,
      "化疗和": 8998,
      "化疗是": 8999,
      "化疗等综合": 9000,
      "胆囊疼痛": 9001,
      "胆囊结石": 9002,
      "建议患者及时就医以确定具体": 9003,
      "早期诊断和治疗": 9004,
      "此时会出现": 9005,
      "此时会对": 9006,
      "此时则比较严重": 9007,
      "适当增加": 9008,
      "增大或": 9009,
      "相关疾病的": 9010,
      "相关病史": 9011,
      "调整饮食习惯": 9012,
      "调整剂量": 9013,
      "可能出现胃肠道": 9014,
      "曲张的静脉": 9015,
      "肝脏内": 9016,
      "肝脏内部": 9017,
      "肝脏磁共振成像": 9018,
      "肝脏弹性": 9019,
      "肝脏占位性病变": 9020,
      "颅内肿瘤": 9021,
      "颅内压力增高": 9022,
      "是由于长期便秘": 9023,
      "程度和": 9024,
      "程度从轻微": 9025,
      "或者是": 9026,
      "或者加重": 9027,
      "或者伴有": 9028,
      "的风险因素": 9029,
      "的风险增加": 9030,
      "肛裂患者": 9031,
      "遗传咨询": 9032,
      "以减少并发症风险": 9033,
      "以减少出血风险": 9034,
      "垂体信号": 9035,
      "位于下腹部": 9036,
      "位于齿状线": 9037,
      "受到压迫": 9038,
      "受到感染时": 9039,
      "受到病原体侵袭": 9040,
      "辅助缓解症状": 9041,
      "休息后": 9042,
      "受损肝脏": 9043,
      "进一步降低": 9044,
      "腹壁组织": 9045,
      "腹壁切口": 9046,
      "腹壁按摩": 9047,
      "腹壁上的": 9048,
      "以免加重水肿": 9049,
      "以免加重甲状腺负担": 9050,
      "进行针对性的": 9051,
      "转移至": 9052,
      "胶囊等药物": 9053,
      "CTA": 9054,
      "体重增加": 9055,
      "是由细菌": 9056,
      "是由多种": 9057,
      "是由水痘": 9058,
      "建议及时就医以排除其他潜在的": 9059,
      "从而引起乳头溢液": 9060,
      "从而引起恶心的感觉": 9061,
      "大便习惯": 9062,
      "大便不畅": 9063,
      "急性颈淋巴结炎": 9064,
      "急性外耳道": 9065,
      "等方法进行处理": 9066,
      "等方法来缓解症状": 9067,
      "可通过药物": 9068,
      "可通过手术切除的方式进行处理": 9069,
      "血管瘤复发": 9070,
      "呼吸系统": 9071,
      "狭窄甚至": 9072,
      "适合小型": 9073,
      "抗生素治疗如": 9074,
      "抗生素治疗等方法进行治疗": 9075,
      "个体情况": 9076,
      "避免食用辛辣": 9077,
      "这种疾病": 9078,
      "复发吗": 9079,
      "复发的可能性": 9080,
      "接受规范": 9081,
      "腹股沟疝修补术": 9082,
      "腹股沟可复性肿块": 9083,
      "药物治疗或": 9084,
      "下肢疼痛": 9085,
      "下肢深静脉曲张": 9086,
      "抗炎治疗": 9087,
      "抗炎作用": 9088,
      "胃癌的主要手段": 9089,
      "淋巴结炎抗结核治疗": 9090,
      "括约肌松弛": 9091,
      "患者可遵照": 9092,
      "常见原因": 9093,
      "常见症状包括": 9094,
      "内分泌科": 9095,
      "大小变化": 9096,
      "大小和位置": 9097,
      "是指甲状腺": 9098,
      "是指位于": 9099,
      "是指癌细胞": 9100,
      "是指从黏膜表面突出": 9101,
      "肿胀通常发生在": 9102,
      "腹痛一般": 9103,
      "腹痛通常位于": 9104,
      "降低颅内压": 9105,
      "导致的一种": 9106,
      "营养吸收障碍": 9107,
      "可以考虑中药调理": 9108,
      "发热通常": 9109,
      "或其他异常": 9110,
      "较小且无": 9111,
      "侵犯至": 9112,
      "侵犯神经": 9113,
      "侵犯邻近结构": 9114,
      "内痔嵌顿": 9115,
      "放射到": 9116,
      "放射痛": 9117,
      "轻度痔疮": 9118,
      "必要时也": 9119,
      "必要时可": 9120,
      "必要时还可": 9121,
      "杆菌二联活菌": 9122,
      "特定部位": 9123,
      "可能需要4": 9124,
      "可能需要手术干预": 9125,
      "无法完全": 9126,
      "无法顺利": 9127,
      "甚至引发": 9128,
      "甚至会出现": 9129,
      "遵循专业": 9130,
      "遵循早期": 9131,
      "利用微波": 9132,
      "利用特制的": 9133,
      "片等利胆": 9134,
      "肌肉活动": 9135,
      "肌肉萎缩": 9136,
      "肌肉无力": 9137,
      "建议进行超声心动图": 9138,
      "建议进行MRI扫描": 9139,
      "例如使用": 9140,
      "例如内镜下": 9141,
      "例如青霉素": 9142,
      "例如经皮": 9143,
      "下降的情况": 9144,
      "痔核破裂": 9145,
      "痔核内部": 9146,
      "穿刺血管内": 9147,
      "手术后并发症": 9148,
      "手术后恢复时间": 9149,
      "患者可以配合医生通过": 9150,
      "患者可以适量食用": 9151,
      "食管溃疡": 9152,
      "甲状腺肿大的原因": 9153,
      "乳腺组织炎症": 9154,
      "密切关注": 9155,
      "西林钠": 9156,
      "抗炎药膏": 9157,
      "上腹部绞痛": 9158,
      "过敏原": 9159,
      "过敏体质": 9160,
      "心脏负荷": 9161,
      "是什么病": 9162,
      "医师制定": 9163,
      "软膏等": 9164,
      "可能是由恶性肿瘤": 9165,
      "中的某些": 9166,
      "恢复时间取决于": 9167,
      "恢复时间相对": 9168,
      "恢复时间还取决于": 9169,
      "颈部疼痛": 9170,
      "全身性": 9171,
      "咳嗽多为": 9172,
      "器官转移": 9173,
      "脱垂时": 9174,
      "甲状腺激素的合成": 9175,
      "结肠息肉是": 9176,
      "阑尾炎手术": 9177,
      "阑尾炎急性发作": 9178,
      "通常在数周至数月": 9179,
      "通常在30分钟至1小时之间": 9180,
      "能够清晰": 9181,
      "能够促进肠道蠕动": 9182,
      "形成的局限性": 9183,
      "吸收增强": 9184,
      "肝硬化时": 9185,
      "腹泻等症状": 9186,
      "腹泻或便秘": 9187,
      "以确定诊断": 9188,
      "日常生活中需注意": 9189,
      "小肠炎症": 9190,
      "小肠憩室炎": 9191,
      "治愈的目的": 9192,
      "自身的": 9193,
      "严重时可导致": 9194,
      "严重时可引起": 9195,
      "发育和": 9196,
      "需注意个体差异": 9197,
      "可能包括药物治疗如": 9198,
      "乳腺炎多由": 9199,
      "乳腺炎通常由细菌感染引起": 9200,
      "免疫系统错误": 9201,
      "肛周脓肿的": 9202,
      "个体差异及是否存在": 9203,
      "上述情况": 9204,
      "上述不适症状": 9205,
      "外科医师": 9206,
      "检测结果": 9207,
      "红肿等不适症状": 9208,
      "腺瘤性息肉": 9209,
      "规律运动": 9210,
      "可以通过中药外敷": 9211,
      "吸烟胸背痛": 9212,
      "外伤性动静脉瘘": 9213,
      "大量繁殖": 9214,
      "活检来评估": 9215,
      "活检组织分析": 9216,
      "潜在疾病": 9217,
      "的一种血液": 9218,
      "胆汁性肝硬化": 9219,
      "胆汁流动": 9220,
      "胆汁性呕吐": 9221,
      "胆汁样物质": 9222,
      "腹内压力": 9223,
      "乳腺癌患者的": 9224,
      "MRI或CT扫描": 9225,
      "不会像": 9226,
      "容易导致": 9227,
      "容易诱发": 9228,
      "应注意观察": 9229,
      "主要针对恶性肿瘤": 9230,
      "腹腔内压力": 9231,
      "的方式进行处理": 9232,
      "治疗方法也有所不同": 9233,
      "严重的疾病": 9234,
      "胆囊炎症状": 9235,
      "呼吸困难等": 9236,
      "血压稳定": 9237,
      "接触性皮炎": 9238,
      "止痛药物": 9239,
      "的诊断和管理": 9240,
      "移除病变组织": 9241,
      "炎症因子的作用": 9242,
      "结肠癌是指": 9243,
      "结肠癌等疾病的表现": 9244,
      "激光治疗等方法进行治疗": 9245,
      "建议定期进行甲状腺超声检查": 9246,
      "建议定期进行颈部超声检查": 9247,
      "建议定期进行肛门检查以及": 9248,
      "毛细血管壁": 9249,
      "收缩力": 9250,
      "氢化可的松等": 9251,
      "皮质类固醇": 9252,
      "可能伴随有": 9253,
      "先天性病变": 9254,
      "先天性发育异常": 9255,
      "先天性肠道发育异常": 9256,
      "此方法常用于": 9257,
      "确诊通常需要": 9258,
      "肺部啰音": 9259,
      "重要的": 9260,
      "重要结构": 9261,
      "不能完全排除": 9262,
      "提高身体免疫力": 9263,
      "等方式缓解不适症状": 9264,
      "肥胖导致": 9265,
      "以促进肠道蠕动": 9266,
      "儿童急性阑尾炎": 9267,
      "摩擦所致": 9268,
      "突出形成的": 9269,
      "较为常见的": 9270,
      "较为敏感": 9271,
      "较为适宜": 9272,
      "预后效果": 9273,
      "溃疡性结肠炎等引起的": 9274,
      "胃肠道压力": 9275,
      "脑脊液吸收增强": 9276,
      "以减轻压力": 9277,
      "以减轻压力和": 9278,
      "回流障碍": 9279,
      "没有并发症": 9280,
      "没有出现明显的": 9281,
      "没有幽门螺旋杆菌": 9282,
      "破坏异常增生的": 9283,
      "破坏异常血管": 9284,
      "肛门周围感染": 9285,
      "肛门周围红肿": 9286,
      "恢复正常状态": 9287,
      "恢复正常上班": 9288,
      "直肠黏膜或部分": 9289,
      "微创手术等方法进行治疗": 9290,
      "红霉素软膏等": 9291,
      "药物如异烟肼": 9292,
      "药物如他莫昔芬": 9293,
      "通常采用局部麻醉": 9294,
      "腹腔镜下股疝修补术": 9295,
      "则需及时就医": 9296,
      "则需综合考虑": 9297,
      "术等治疗措施": 9298,
      "液体注入": 9299,
      "建议定期复查以监测病情变化": 9300,
      "疼痛和出血": 9301,
      "肛门部位的": 9302,
      "肛门部位血液循环受阻": 9303,
      "肛门部位的不适感": 9304,
      "对于存在痔疮": 9305,
      "周围的神经": 9306,
      "这些症状可能因": 9307,
      "特别注意": 9308,
      "病原体侵入": 9309,
      "蠕动减慢": 9310,
      "直肠癌的风险": 9311,
      "身体恢复能力较强": 9312,
      "环磷酰胺联合": 9313,
      "非霍奇金淋巴瘤是由": 9314,
      "成像技术": 9315,
      "的原因外": 9316,
      "的原因可能有": 9317,
      "粪便摩擦": 9318,
      "粪便干结": 9319,
      "雌激素受体": 9320,
      "持续性钝痛": 9321,
      "患者可在医生指导下使用阿莫西林胶囊": 9322,
      "头孢克洛": 9323,
      "制定相应": 9324,
      "多久才能": 9325,
      "快速增殖": 9326,
      "源于胃黏膜": 9327,
      "患者可能会感受到": 9328,
      "肿瘤的发展": 9329,
      "肿瘤的性质": 9330,
      "肿瘤的早期症状": 9331,
      "可以进行超声波检查以评估": 9332,
      "适用于轻度痔疮": 9333,
      "以监测结节": 9334,
      "即可完成": 9335,
      "缺血缺氧": 9336,
      "胃黏膜存在": 9337,
      "胃黏膜上皮": 9338,
      "胃黏膜萎缩": 9339,
      "腹水回收": 9340,
      "腹水浓缩": 9341,
      "血流信号": 9342,
      "血流通畅": 9343,
      "结肠镜检查以评估": 9344,
      "结肠镜检查以明确诊断": 9345,
      "功效的药材": 9346,
      "其中手术切除是最": 9347,
      "女性脑垂体瘤": 9348,
      "延长恢复时间": 9349,
      "癌症本身": 9350,
      "移动时": 9351,
      "贫血可能导致": 9352,
      "邻近组织": 9353,
      "疼痛等症状时": 9354,
      "这些因素可能导致": 9355,
      "体重下降等症状": 9356,
      "化学治疗": 9357,
      "病理性": 9358,
      "病理改变": 9359,
      "严重程度不一": 9360,
      "如果症状持续不缓解": 9361,
      "以便早期发现和处理": 9362,
      "以便早期发现和诊断": 9363,
      "家族史或": 9364,
      "特别是针对": 9365,
      "特别是对于有家族史的人群": 9366,
      "抗结核药物如异烟肼": 9367,
      "是主要的治疗方式": 9368,
      "痉挛和": 9369,
      "能量增加": 9370,
      "酒精性": 9371,
      "酒精饮料": 9372,
      "的诊断和治疗需谨慎": 9373,
      "利福平等药物进行治疗": 9374,
      "反复咯血": 9375,
      "发作的风险": 9376,
      "在专业医师": 9377,
      "应避免长时间站立或": 9378,
      "涉及多种": 9379,
      "穴位进行": 9380,
      "穴位贴敷": 9381,
      "腋下疼痛": 9382,
      "腋下到乳房侧面": 9383,
      "手术方式治疗": 9384,
      "肛门疼痛性神经末梢": 9385,
      "保持规律饮食": 9386,
      "炎症因子刺激局部组织": 9387,
      "使得身体": 9388,
      "可考虑采用": 9389,
      "烫伤后": 9390,
      "烫伤后的": 9391,
      "烫伤水泡": 9392,
      "肝囊肿手术后": 9393,
      "肝囊肿穿刺引流": 9394,
      "肝囊肿去顶术": 9395,
      "黄疸通常表现为": 9396,
      "可能表现为头痛": 9397,
      "可能表现为腹痛": 9398,
      "患者平时应": 9399,
      "肿瘤细胞会": 9400,
      "患者应避免高脂": 9401,
      "体积增大到一定程度时": 9402,
      "属于正常现象": 9403,
      "渗出到": 9404,
      "渗出至": 9405,
      "的功能状态": 9406,
      "相对较低": 9407,
      "进食后": 9408,
      "进食时间": 9409,
      "高压氧": 9410,
      "生活质量并": 9411,
      "生活质量下降": 9412,
      "纤维化和": 9413,
      "纤维化而": 9414,
      "等药物进行止血": 9415,
      "才能完成": 9416,
      "才能消除": 9417,
      "可能出现的并发症": 9418,
      "结核分枝杆菌感染引起": 9419,
      "使其发生": 9420,
      "则可能表明": 9421,
      "自行恢复": 9422,
      "自行盲目": 9423,
      "软组织结构": 9424,
      "软组织良性肿瘤": 9425,
      "患者需要遵医嘱服用": 9426,
      "对于有症状或": 9427,
      "血液回流不畅": 9428,
      "压迫周围脏器": 9429,
      "腹壁薄弱或肌肉": 9430,
      "综合征等": 9431,
      "有时可伴有": 9432,
      "131放射治疗": 9433,
      "也可能影响": 9434,
      "彻底治愈": 9435,
      "无需处理": 9436,
      "清除坏死组织": 9437,
      "的压力和": 9438,
      "的人群而言": 9439,
      "胃部检查": 9440,
      "胃部不适": 9441,
      "胃部手术后": 9442,
      "脑室腹腔分流术": 9443,
      "致病微生物": 9444,
      "远处器官转移": 9445,
      "造口处缺血": 9446,
      "造影剂": 9447,
      "高锰酸钾坐浴": 9448,
      "通常为1": 9449,
      "通常为2": 9450,
      "腹壁肌肉强化": 9451,
      "腹壁肌肉拉伸": 9452,
      "腹壁肌肉过度松弛": 9453,
      "过敏反应发生": 9454,
      "腹腔镜手术是一种": 9455,
      "不宜长期大面积使用": 9456,
      "但也可能是": 9457,
      "准确性": 9458,
      "复方甘": 9459,
      "抗病毒治疗": 9460,
      "排泄受阻": 9461,
      "特异性感染": 9462,
      "缩小结节": 9463,
      "肢体末端": 9464,
      "脑部积水": 9465,
      "对于较大的结肠息肉": 9466,
      "消化不良等症状": 9467,
      "适当的治疗措施": 9468,
      "进一步加重了": 9469,
      "进一步加重疼痛感": 9470,
      "及其周围组织": 9471,
      "抗甲状腺药物": 9472,
      "是将光敏剂": 9473,
      "有什么影响": 9474,
      "紧急治疗": 9475,
      "紧急情况": 9476,
      "质地坚硬": 9477,
      "患者出现排便困难": 9478,
      "肛门瘙痒的情况": 9479,
      "针灸治疗是利用": 9480,
      "头孢克肟颗粒等抗生素类药物": 9481,
      "他莫昔芬等药物进行调理": 9482,
      "反射减弱": 9483,
      "小脑是": 9484,
      "数量较多": 9485,
      "来缓解压力": 9486,
      "注入至": 9487,
      "突然发生": 9488,
      "精神压力": 9489,
      "较好的患者": 9490,
      "分泌物增多": 9491,
      "个体化制定": 9492,
      "选择合适的治疗方法": 9493,
      "视力模糊等症状": 9494,
      "中医调理": 9495,
      "传统的": 9496,
      "可在医师指导下使用": 9497,
      "可作为辅助手段": 9498,
      "各种类型的": 9499,
      "已经形成的": 9500,
      "繁殖并形成": 9501,
      "肾上腺皮质激素": 9502,
      "致癌物质": 9503,
      "输尿管下段": 9504,
      "额叶肿瘤引起的": 9505,
      "进行局部止血处理": 9506,
      "严重者可能导致": 9507,
      "严重者甚至会出现": 9508,
      "相关检查包括": 9509,
      "建议及时就医以获得专业的评估和治疗": 9510,
      "严重时甚至无法": 9511,
      "严重时甚至会出现": 9512,
      "环境因素共同作用": 9513,
      "带状疱疹病毒": 9514,
      "带状疱疹是由水痘": 9515,
      "分级标准": 9516,
      "手指伤口": 9517,
      "支气管炎": 9518,
      "生命体征": 9519,
      "生殖道": 9520,
      "稳定性": 9521,
      "脑动脉瘤介入": 9522,
      "阳性菌": 9523,
      "感染风险或已": 9524,
      "保持充足水分摄入": 9525,
      "结肠黏膜损伤": 9526,
      "结肠切除术等": 9527,
      "有助于促进肠道蠕动": 9528,
      "有助于改善预后": 9529,
      "以评估病情严重程度": 9530,
      "腹股沟疝气和股疝": 9531,
      "体外冲击波": 9532,
      "受影响的": 9533,
      "如青霉素G": 9534,
      "如青霉素V钾片": 9535,
      "常伴随着": 9536,
      "或多发性": 9537,
      "消炎药": 9538,
      "滤泡囊肿": 9539,
      "维生素B": 9540,
      "输卵管和卵巢": 9541,
      "边缘不规则": 9542,
      "重症者": 9543,
      "甲状腺细胞代偿性增生": 9544,
      "肛门局部感染": 9545,
      "炎症和水肿": 9546,
      "以及血液学指标": 9547,
      "直肠息肉是指从黏膜表面突出": 9548,
      "胆管癌患者": 9549,
      "下肢静脉回流障碍": 9550,
      "常用的手术方式": 9551,
      "调节内分泌系统": 9552,
      "部分或完全": 9553,
      "开放式股疝修补术": 9554,
      "其生长速度快": 9555,
      "可采取生活方式干预": 9556,
      "在诊断为": 9557,
      "外用抗炎药膏": 9558,
      "如有不适": 9559,
      "心理咨询": 9560,
      "支架植入": 9561,
      "此手术适用于": 9562,
      "管腔狭窄": 9563,
      "腿部肿胀": 9564,
      "食道恶性肿瘤": 9565,
      "患者可能经历": 9566,
      "肿瘤组织侵犯": 9567,
      "从而形成结节": 9568,
      "从而形成肿块": 9569,
      "较大或存在": 9570,
      "无法正常排出": 9571,
      "利用高能量激光束": 9572,
      "影像学表现": 9573,
      "的治疗方法包括手术切除": 9574,
      "复杂性肛瘘": 9575,
      "针灸疗法等方法": 9576,
      "以排除其他潜在的问题": 9577,
      "纵隔囊肿和": 9578,
      "丙硫氧嘧啶等": 9579,
      "光动力疗法是将光敏剂": 9580,
      "柳氮磺吡啶片": 9581,
      "但并非": 9582,
      "前列腺炎": 9583,
      "发病率": 9584,
      "回声不均匀": 9585,
      "固体或液体": 9586,
      "实验室检查": 9587,
      "并促进愈合": 9588,
      "并遵循医嘱进行": 9589,
      "条件下": 9590,
      "条件下完成": 9591,
      "的恢复期": 9592,
      "肠管等": 9593,
      "脑干肿瘤": 9594,
      "至数十": 9595,
      "至数周之间": 9596,
      "通路重塑": 9597,
      "醋酸龙": 9598,
      "钝痛或": 9599,
      "阵发性加剧": 9600,
      "骨髓内": 9601,
      "甲状旁腺激素": 9602,
      "通常会在": 9603,
      "定期体检有助于早期发现": 9604,
      "激素替代疗法通过补充": 9605,
      "一般不严重": 9606,
      "一般不痛苦": 9607,
      "血栓性浅静脉": 9608,
      "日常生活中注意保持良好的个人卫生习惯": 9609,
      "适用于轻度至中度的": 9610,
      "CT扫描或MRI成像来评估": 9611,
      "回盲部时": 9612,
      "2周左右": 9613,
      "以上各项检查": 9614,
      "低下时": 9615,
      "信息的传导": 9616,
      "凝血因子": 9617,
      "变得干燥": 9618,
      "并注意观察": 9619,
      "当其发生": 9620,
      "性肠损伤": 9621,
      "抗凝治疗": 9622,
      "整个过程": 9623,
      "浓度增高": 9624,
      "激活引起的": 9625,
      "电子胃镜": 9626,
      "视觉信息的传导": 9627,
      "降脂药物如": 9628,
      "治疗前后": 9629,
      "淋巴管炎及淋巴结炎治疗": 9630,
      "明显症状者": 9631,
      "不良反应发生": 9632,
      "或伴有其他症状": 9633,
      "或伴有其他并发症": 9634,
      "脑脊液循环通路重塑": 9635,
      "开放性手术": 9636,
      "内容物通过受阻": 9637,
      "持续性或阵发性的": 9638,
      "持续性或间歇性的": 9639,
      "头孢菌素类等": 9640,
      "头孢菌素类如头孢曲松钠": 9641,
      "刺痛感等": 9642,
      "哺乳期乳房": 9643,
      "下坠感": 9644,
      "关节僵硬": 9645,
      "在接受任何治疗前": 9646,
      "外周动脉栓塞": 9647,
      "妊娠性阑尾炎": 9648,
      "微小的": 9649,
      "拆线时间": 9650,
      "时会感到": 9651,
      "月经周期": 9652,
      "氧化锌软膏": 9653,
      "烟草烟雾": 9654,
      "疑似恶变": 9655,
      "胚胎发育": 9656,
      "腹压增加": 9657,
      "草酸钙": 9658,
      "血清甲胎": 9659,
      "起源于淋巴组织": 9660,
      "肛门胀痛感": 9661,
      "通过血液循环进入": 9662,
      "主要是由于炎症刺激": 9663,
      "医生可能会建议进行": 9664,
      "血液供应充足": 9665,
      "这些异常生长": 9666,
      "以及是否有并发症发生": 9667,
      "发现异常及时处理": 9668,
      "长期使用非甾体抗炎药": 9669,
      "受到炎症刺激时": 9670,
      "受到炎症刺激或者": 9671,
      "休息时间因人而异": 9672,
      "利用特定波长的激光精确地切除": 9673,
      "利用特定波长的激光对准": 9674,
      "多种因素有关": 9675,
      "逐渐增大并": 9676,
      "胃肠减压以及": 9677,
      "遵照医生的意见通过": 9678,
      "间歇性跛行": 9679,
      "寄生虫感染": 9680,
      "新陈代谢率": 9681,
      "复方角菜酸酯乳膏进行局部止血处理": 9682,
      "且位置较深": 9683,
      "乳突切开术": 9684,
      "他汀类药物": 9685,
      "则会导致肛垫下移": 9686,
      "囊肿大小和": 9687,
      "处的外伤性动静脉瘘": 9688,
      "穿着宽松": 9689,
      "经常出血": 9690,
      "胸片正常": 9691,
      "足部水肿": 9692,
      "送至实验室": 9693,
      "送至狭窄部位": 9694,
      "通透性增加": 9695,
      "肿瘤引起的肠梗阻": 9696,
      "血管破裂导致血液": 9697,
      "腹腔穿刺引流通过抽取": 9698,
      "免疫治疗旨在": 9699,
      "产生一定的刺激作用": 9700,
      "蛋白质合成": 9701,
      "剧烈的上腹部绞痛": 9702,
      "取决于其性质": 9703,
      "放射性碘": 9704,
      "颈部淋巴结增生": 9705,
      "颈动脉支架置入": 9706,
      "X线摄影": 9707,
      "糖尿病等基础疾病": 9708,
      "但也有可能是": 9709,
      "利尿剂如": 9710,
      "以控制病情": 9711,
      "则不建议": 9712,
      "前庭系统": 9713,
      "尿道口": 9714,
      "并遵循医师指导": 9715,
      "攻击自身的": 9716,
      "是非常重要的": 9717,
      "有较高的治愈": 9718,
      "生存质量": 9719,
      "疗效和副作用": 9720,
      "的恢复时间因人而异": 9721,
      "经腹会阴": 9722,
      "该手术常用于": 9723,
      "组织发生纤维化而": 9724,
      "疼痛是什么原因引起的": 9725,
      "炎症引起的淋巴结肿大": 9726,
      "从而产生疼痛感": 9727,
      "以及是否伴有其他": 9728,
      "以及是否存在合并症": 9729,
      "术后管理及": 9730,
      "胆管狭窄和扩张": 9731,
      "保持良好的睡眠习惯": 9732,
      "乳房组织的": 9733,
      "是由细菌感染引起的乳腺组织炎症": 9734,
      "急性发作期": 9735,
      "营养不良风险": 9736,
      "食管黏膜损伤": 9737,
      "及时发现并处理可能出现的问题": 9738,
      "家族中存在": 9739,
      "完全性直肠脱垂": 9740,
      "胃肠蠕动减慢": 9741,
      "恢复正常的肠道微生态环境": 9742,
      "在专业医生指导下进行": 9743,
      "注入到痔核内部": 9744,
      "食管癌晚期时": 9745,
      "透明隔腔增宽": 9746,
      "乳癖消片": 9747,
      "胸骨后方": 9748,
      "胸骨后疼痛": 9749,
      "2厘米的肝囊肿": 9750,
      "下颌淋巴结炎": 9751,
      "不利于病情恢复": 9752,
      "不利于疾病的恢复": 9753,
      "制成药膏": 9754,
      "原发性肾上腺皮质": 9755,
      "原发性下肢深静脉曲张": 9756,
      "及可能出现的并发症": 9757,
      "和营养物质": 9758,
      "咽部疼痛": 9759,
      "宝宝脑积水": 9760,
      "微针射频": 9761,
      "所在的区域": 9762,
      "换药时间": 9763,
      "时会引起出血": 9764,
      "永久性": 9765,
      "永久性肠损伤": 9766,
      "肝胆管扩张时": 9767,
      "肺功能测试": 9768,
      "除了肺癌外": 9769,
      "高热不退": 9770,
      "黏液性分泌物": 9771,
      "肛门下坠感和疼痛": 9772,
      "通过小切口进入腹腔": 9773,
      "不适或疼痛": 9774,
      "进而使痔核": 9775,
      "免疫细胞会聚集": 9776,
      "长期大量使用": 9777,
      "长期大量饮酒": 9778,
      "是一种慢性非特异性肠道炎症性疾病": 9779,
      "因此不必过于": 9780,
      "阑尾管腔狭窄": 9781,
      "阑尾管腔堵塞": 9782,
      "超声波检查以及血液生化": 9783,
      "胃癌是指源于胃黏膜": 9784,
      "较小且表浅": 9785,
      "无法耐受手术或": 9786,
      "内镜下息肉电切术": 9787,
      "提高治愈率和": 9788,
      "保持规律的排便习惯": 9789,
      "抗甲状腺药物如甲巯咪唑片": 9790,
      "头孢克肟颗粒等药物进行抗感染治疗": 9791,
      "肾上腺皮质功能减退": 9792,
      "甲硝唑片等": 9793,
      "4A类": 9794,
      "4A级": 9795,
      "Rathke裂囊肿": 9796,
      "不具有侵袭性": 9797,
      "右肩痛": 9798,
      "听力下降等症状": 9799,
      "完善相关检查": 9800,
      "更昔洛韦等": 9801,
      "机械性": 9802,
      "流通受阻": 9803,
      "甲泼尼龙片": 9804,
      "相结合以": 9805,
      "耳部检查": 9806,
      "酗酒等": 9807,
      "额外的": 9808,
      "进行活检以确定": 9809,
      "进行病理分析": 9810,
      "手术切口感染": 9811,
      "乳腺肿块4A类": 9812,
      "乳腺疾病的发病率": 9813,
      "针对特定分子": 9814,
      "功能性消化不良": 9815,
      "伴有瘙痒的情况": 9816,
      "减轻排便时对": 9817,
      "长期慢性咳嗽": 9818,
      "根据患者体质": 9819,
      "可通过饮食调整和药物治疗": 9820,
      "直接侵犯的方式": 9821,
      "日常生活中还要注意保持良好的饮食习惯": 9822,
      "腹内压持续升高": 9823,
      "胆囊炎引起的腹痛": 9824,
      "毛细血管通透性增高": 9825,
      "以促进伤口愈合和身体恢复": 9826,
      "生物反馈训练": 9827,
      "增长迅速或伴有": 9828,
      "体积较小且没有": 9829,
      "颅骨修复术后水肿": 9830,
      "肛管皮肤全层的小溃疡": 9831,
      "骨髓中异常增生的浆细胞": 9832,
      "乙状结肠直肠炎患者": 9833,
      "颈动脉支架植入术": 9834,
      "手术复杂程度以及是否有并发症发生": 9835,
      "住院时间": 9836,
      "后续管理": 9837,
      "囊状结构": 9838,
      "大肠手术后": 9839,
      "如开放手术或": 9840,
      "尼古丁等": 9841,
      "当病情发展至": 9842,
      "或杀死致病菌": 9843,
      "数天至数周之间": 9844,
      "无张力疝修补术": 9845,
      "易感性": 9846,
      "显微镜下": 9847,
      "更为复杂": 9848,
      "松果体囊肿": 9849,
      "沿着感觉": 9850,
      "热量摄入": 9851,
      "的内裤": 9852,
      "短时间内": 9853,
      "硝普钠": 9854,
      "等病理变化": 9855,
      "等药膏进行治疗": 9856,
      "经肛门直肠切除术": 9857,
      "耳前淋巴结肿大": 9858,
      "胸腺瘤化疗": 9859,
      "脑血管痉挛": 9860,
      "脑胶质瘤早期": 9861,
      "说明书指示": 9862,
      "适度运动": 9863,
      "钙质摄入": 9864,
      "阿米巴性肝脓肿": 9865,
      "附睾炎": 9866,
      "雷贝拉唑钠": 9867,
      "甲状腺次全切术": 9868,
      "通过刺激穴位": 9869,
      "避免高脂食物": 9870,
      "对于确诊的": 9871,
      "不适合手术": 9872,
      "保持局部清洁干燥": 9873,
      "皮肤和眼白": 9874,
      "结核性淋巴结炎抗结核治疗": 9875,
      "抗生素通过抑制细菌生长": 9876,
      "的发生与遗传因素": 9877,
      "生长缓慢且不会": 9878,
      "进行针对性处理": 9879,
      "甲状腺功能和影像学检查": 9880,
      "中药外敷利用具有清热解毒": 9881,
      "食管静脉曲张破裂出血": 9882,
      "调节体内气血平衡": 9883,
      "外科医生执行": 9884,
      "潜在风险因素": 9885,
      "儿童脑膜瘤的早期症状": 9886,
      "确保充足的休息时间": 9887,
      "非霍奇金淋巴瘤是起源于淋巴组织": 9888,
      "肿瘤的位置和大小": 9889,
      "邻近器官扩散": 9890,
      "利福平胶囊等药物进行抗结核治疗": 9891,
      "使其形成纤维化": 9892,
      "尤其是在活动后或": 9893,
      "高锰酸钾溶液进行温水坐浴": 9894,
      "定期体检以及早期发现": 9895,
      "触摸到的": 9896,
      "开颅手术后大脑": 9897,
      "烧伤后伤口感染": 9898,
      "蛛网膜下腔": 9899,
      "乳腺增生是由于体内雌激素水平过高导致乳腺组织过度生长而引起的": 9900,
      "恩替卡韦片": 9901,
      "替诺福韦片等": 9902,
      "潜血试验等检查": 9903,
      "7mm的肾结石": 9904,
      "RADS": 9905,
      "上肢肿胀": 9906,
      "交感神经系统": 9907,
      "以抑制浆细胞": 9908,
      "冠状动脉": 9909,
      "单眼或双眼": 9910,
      "危险因素": 9911,
      "取出一小": 9912,
      "唾液传播": 9913,
      "在排便时容易": 9914,
      "多巴酚丁胺": 9915,
      "大动脉炎": 9916,
      "如豆类": 9917,
      "如吻合器痔": 9918,
      "并给予适当的": 9919,
      "心功能支持": 9920,
      "患指固定": 9921,
      "或过热的食物": 9922,
      "抵抗力": 9923,
      "无创性": 9924,
      "是首选方案": 9925,
      "来补充体内缺乏": 9926,
      "标志物": 9927,
      "灼热感": 9928,
      "第三脑室造瘘术": 9929,
      "等富含碘的食物": 9930,
      "经肝胆管镜取石": 9931,
      "脑子里": 9932,
      "膻中穴": 9933,
      "若长时间未得到": 9934,
      "苯佐卡因": 9935,
      "蔓延至": 9936,
      "蛔虫团": 9937,
      "边界清晰": 9938,
      "逐步恢复": 9939,
      "遵守医嘱": 9940,
      "阴茎包皮": 9941,
      "附着于粪便": 9942,
      "非侵入性": 9943,
      "革兰氏": 9944,
      "淋巴回流受阻": 9945,
      "避免摄入过多含碘食物": 9946,
      "需要根据具体病因进行针对性治疗": 9947,
      "由于阑尾位于": 9948,
      "主要通过唾液传播": 9949,
      "反应蛋白水平测定": 9950,
      "直肠粘膜出血": 9951,
      "免疫调节剂": 9952,
      "产生过多的甲状腺激素": 9953,
      "生长发育迟缓": 9954,
      "肺癌复发时": 9955,
      "阑尾腔梗阻": 9956,
      "或者高锰酸钾溶液进行局部熏洗": 9957,
      "肛裂是齿状线以下肛管皮肤层": 9958,
      "具有润肠通便": 9959,
      "是由各种原因导致的": 9960,
      "急性扁桃体炎": 9961,
      "不良的生活习惯": 9962,
      "患者可以使用高锰酸钾溶液坐浴": 9963,
      "食管裂孔疝手术后": 9964,
      "感觉减退或缺失": 9965,
      "乳腺癌的发生可能与遗传因素有关": 9966,
      "类型和分期": 9967,
      "并接受相应治疗": 9968,
      "应尽快就医以获得专业治疗": 9969,
      "以免影响伤口愈合和身体恢复": 9970,
      "治疗措施包括抗生素治疗如头孢曲松钠": 9971,
      "功效的中药外敷于患处": 9972,
      "延长至4周": 9973,
      "瓣膜替换术": 9974,
      "随着年龄增长": 9975,
      "肝囊肿8毫米": 9976,
      "定期监测血压和": 9977,
      "固定于周围组织": 9978,
      "淋巴细胞恶性转化引起的": 9979,
      "以便获得专业的诊断和治疗": 9980,
      "从而达到止痛效果": 9981,
      "尤其是在夜间或": 9982,
      "精神状态改变": 9983,
      "停止排便和排气": 9984,
      "维生素A酸类药物": 9985,
      "根治性手术切除是治疗胃癌的主要手段": 9986,
      "单纯的肺动脉狭窄球囊扩张": 9987,
      "避免吸烟和接触有害气体": 9988,
      "裂开后形成的小溃疡": 9989,
      "阴囊或大腿根部": 9990,
      "如果这些症状持续出现": 9991,
      "胃底静脉曲张套扎": 9992,
      "锁骨下动脉狭窄": 9993,
      "腹泻等导致肛垫下移形成": 9994,
      "40岁以上人群": 9995,
      "将硬化剂如聚桂醇": 9996,
      "胆总管切开取石术等": 9997,
      "硝酸甘油软膏": 9998,
      "双歧杆菌三联活菌胶囊": 9999
    },
    "merges": [
      [
        "治",
        "疗"
      ],
      [
        "可",
        "能"
      ],
      [
        "患",
        "者"
      ],
      [
        "症",
        "状"
      ],
      [
        "导",
        "致"
      ],
      [
        "引",
        "起"
      ],
      [
        "进",
        "行"
      ],
      [
        "手",
        "术"
      ],
      [
        "甲",
        "状"
      ],
      [
        "甲状",
        "腺"
      ],
      [
        "组",
        "织"
      ],
      [
        "建",
        "议"
      ],
      [
        "疼",
        "痛"
      ],
      [
        "药",
        "物"
      ],
      [
        "肛",
        "门"
      ],
      [
        "出",
        "现"
      ],
      [
        "通",
        "过"
      ],
      [
        "感",
        "染"
      ],
      [
        "淋",
        "巴"
      ],
      [
        "通",
        "常"
      ],
      [
        "发",
        "生"
      ],
      [
        "乳",
        "腺"
      ],
      [
        "肿",
        "瘤"
      ],
      [
        "针",
        "对"
      ],
      [
        "情",
        "况"
      ],
      [
        "可",
        "以"
      ],
      [
        "避",
        "免"
      ],
      [
        "炎",
        "症"
      ],
      [
        "检",
        "查"
      ],
      [
        "及",
        "时"
      ],
      [
        "引起",
        "的"
      ],
      [
        "疾",
        "病"
      ],
      [
        "功",
        "能"
      ],
      [
        "使",
        "用"
      ],
      [
        "对",
        "于"
      ],
      [
        "需",
        "要"
      ],
      [
        "切",
        "除"
      ],
      [
        "定",
        "期"
      ],
      [
        "病",
        "情"
      ],
      [
        "细",
        "胞"
      ],
      [
        "淋巴",
        "结"
      ],
      [
        "刺",
        "激"
      ],
      [
        "形",
        "成"
      ],
      [
        "由",
        "于"
      ],
      [
        "血",
        "管"
      ],
      [
        "异",
        "常"
      ],
      [
        "就",
        "医"
      ],
      [
        "结",
        "节"
      ],
      [
        "局",
        "部"
      ],
      [
        "包",
        "括"
      ],
      [
        "不",
        "适"
      ],
      [
        "方",
        "法"
      ],
      [
        "恢",
        "复"
      ],
      [
        "增",
        "生"
      ],
      [
        "主",
        "要"
      ],
      [
        "保",
        "持"
      ],
      [
        "注",
        "意"
      ],
      [
        "影",
        "响"
      ],
      [
        "出",
        "血"
      ],
      [
        "结",
        "肠"
      ],
      [
        "腹",
        "部"
      ],
      [
        "医",
        "生"
      ],
      [
        "激",
        "素"
      ],
      [
        "从",
        "而"
      ],
      [
        "及时",
        "就医"
      ],
      [
        "评",
        "估"
      ],
      [
        "减",
        "少"
      ],
      [
        "变",
        "化"
      ],
      [
        "时",
        "间"
      ],
      [
        "用",
        "于"
      ],
      [
        "严",
        "重"
      ],
      [
        "食",
        "物"
      ],
      [
        "存",
        "在"
      ],
      [
        "血",
        "液"
      ],
      [
        "周",
        "围"
      ],
      [
        "监",
        "测"
      ],
      [
        "肿",
        "大"
      ],
      [
        "如",
        "果"
      ],
      [
[...]
